#version: 0.2 - Trained by `huggingface/tokenizers`
Ġ :
i n
Ġ (
Ġ Ġ
Ġ â
o n
l e
Ġ a
Ġ h
Ġ s
e r
o r
Ġ t
m a
i s
Ġ Î
Ġ f
Ġ: =
e n
a l
r e
m p
t i
Ġ c
s e
Ġ [
Ġ {
â Ĥ
Ġ b
i t
o f
Ġ `
s u
m e
a t
Ġ _
Ġ x
Ġ r
c o
h e
Ġ n
r o
Ġâ Ĩ
ĠĠ Ġ
Ġ p
Ġ e
a n
a r
u l
u n
a c
d e
Ġâ Ī
i mp
s t
ĠÎ ±
Ġ i
Ġ =
m ul
le m
v e
Ġ in
ti on
e q
lem ma
in g
l y
i f
r i
a s
a b
ma p
â Ł
e g
Ġ is
Ġt he
ĠâĨ Ĵ
t o
Ġ l
d d
g e
i v
ĠĠ ĠĠ
Ġ }
en d
o m
) .
Ġâ Ł
ab le
âŁ ©
c t
p p
Ġ g
Ġ -
Ġe x
p e
Ġ w
Ġâ ī
c e
c on
âĤ Ĥ
f in
if f
p o
âĤ ģ
Ġ m
Ġ of
Ġ R
Ġ d
se t
ĠâŁ ¨
l o
a dd
Ġs imp
Ġr w
i c
Ġ re
o t
z er
e d
in t
on e
/ -
ac t
m m
Ġâ Ħ
y pe
Ġ y
zer o
Ġ T
i d
e t
is t
Î »
it h
@ [
u s
su b
) ,
d u
co mp
Ġs u
me m
l t
Ġa n
f l
Ġt o
Ġ M
Ġc on
Ġc o
Ġt h
s imp
en t
d er
c tion
ti ve
l i
) )
o p
/- -
ĠÎ ²
ĠÎ »
Ġ 0
Ġb y
g h
Ġ A
p ac
Ġ- /
t r
Ġ} ,
gh t
on o
Ġ *
Ġs et
pp ly
p ro
Ġex act
pac e
ð Ŀ
ĠĠ ĠĠĠ
Ġ de
Ġ on
a su
] ,
me asu
Ġh a
q u
u p
an ce
Ġ I
Ġ lemma
h om
Ġ v
e m
f t
Ġ $
e x
a se
Ġ C
r a
ĠâĪ Ī
or m
Ġâī ¤
m ono
le ft
b y
eg in
` .
u t
Ġ +
s o
Ġ S
Ġ F
Ġ 1
n e
s pace
o us
t in
ar i
Ġ u
a tion
tin u
ri ght
y mm
Ġ X
Ġw ith
co e
t ri
Ġsu b
Ġin t
e s
Ġf in
Ġr fl
v er
li m
âŁ© ,
â Ī
ĠâĨ Ĳ
Ġan d
tinu ous
eq u
co mm
b egin
ĠâĪ Ģ
Ġ mul
Ġâ Ĭ
in e
st ance
i on
v ari
or y
Ġ G
r ing
t he
Ġ P
j e
f i
ro up
r able
ĠT ype
or t
Ġ j
Ġ k
Ġ un
de f
f un
Ġ ðĿ
Ġ <
s ymm
ine ar
Ġ le
or der
Ġ o
Ġha ve
Ġ E
Ġa s
m o
Ġh x
Ġon ly
an s
Ġ map
Ġp ro
vari able
s mul
or em
n eg
c c
ĠâĦ ķ
Ġa t
n at
h as
ge b
Ġ H
p re
s er
equ iv
it e
Ġf or
. .
in stance
ase s
geb ra
Ġ_ ,
in v
` ,
variable s
mono id
Ġ L
fin e
Ġf un
Î ±
ĠâĨ Ķ
c h
ma ge
Ġf i
c al
op en
Ġh as
h is
po w
w ith
measu rable
ĠâĦ Ŀ
a me
ĠĠĠĠ ĠĠĠĠ
g roup
lim it
a pply
t y
m k
c tive
v al
tr ans
i l
Ġa l
a d
Ġa pply
Ġ z
an ge
c l
to p
ķ ľ
t ype
Ġ Ï
i al
ĠÎ ¹
h o
Ġ K
Ġ Y
pro d
t h
if t
Ġa dd
Ġ 2
n on
je ctive
u r
su m
t a
at eg
i tive
du le
ct or
ar d
âĤ Ģ
le t
ĠÎ ¼
po s
lo g
Ġth at
á µ
mp ty
c a
h f
Ġth is
ateg ory
i mage
Ġh f
Ġp o
at e
so c
Ġ N
ic al
it y
lt er
- /
u m
re al
Ġco mp
p l
e l
â Ĩ
p r
ex t
âŁ ¨
Ġ( (
Ġre fine
measu re
m i
o l
su cc
Ġ ma
the orem
Ġ B
ĠðĿ ķľ
Ġ_ )
Ġi f
g r
al gebra
d i
as s
ro m
c lo
l inear
ist s
is o
Ġfun ction
Ġex t
' ,
al l
s ing
i z
Ġ q
Ġcon tinuous
con tinuous
âĨ Ĳ
as soc
ĠT he
Ġn at
i r
po log
Ġ ^
Ġ[ âĨĲ
re e
or p
sub set
mo dule
Ġco e
st o
r al
Ġâ Ģ
Ġ mem
n orm
* }
l f
o un
ti c
der iv
ģ »
end sto
add itive
se lf
ĠâŁ ¶
Ġe qu
Î ¼
d iv
Ġint ro
c ases
âĪ ¥
r ange
Ġp re
t e
d s
Ġâī ł
Ġ |
ĠâĢ ¢
st r
j o
Ġfin set
se d
Ġ it
de d
Ġf rom
Ġn ot
Ġ ..
er m
Ġ /
Ġh s
un it
d iff
p ar
or s
Ġ V
f or
Ġ J
ct ed
ĠĠĠĠ ĠĠĠ
p ri
Ġl ist
se mi
eg ral
Ġ us
Â ¹
a pp
h a
Ġâī «
i m
# #
u re
n ot
su pp
orp his
orphis m
an t
int er
imp ort
se ction
Ġus ing
d ist
f f
fin ite
Ġh y
ca st
with in
i ght
s i
n ame
le n
Ġo b
let on
st ri
ma l
Ġde f
con st
b ot
Ġ D
cl ass
Ġ or
o b
c ard
l ift
ro p
Ã Ĺ
en s
Ġth en
ge t
un iv
p i
u ct
b as
Ġw h
om ial
stri ct
a u
du ct
lo cal
h s
Ġb e
one mpty
ĠâĪ ¥
Ġc ategory
con gr
ĠâĪ §
in jective
Ġ ÃĹ
Ġh b
polog ical
Ġa re
Ġl inear
su re
â ģ»
ĠâĪ ĥ
er e
sing leton
Ġl o
su p
Ġw e
ri b
ser ve
p an
Ġc ases
Ġ one
c i
tri x
â ī
b le
fin set
Î ¹
Ġ zero
jo int
ta in
lem ent
ĠÎ ³
Ġ measurable
Ġr ight
oun ded
ac tic
w o
Ġa b
Ġâī ĥ
Ġ_ ).
Ġe q
int ro
n real
int egral
n or
o me
Ġr ing
ti ent
âĤ ĥ
Ġh p
Ġt ype
Ġsimp a
Ġ U
Ġh i
ul l
d o
Ġthe orem
g ree
er s
en er
v d
o tient
en ti
qu otient
Ġintro s
non neg
h ds
c id
pl it
du ction
a tive
k er
l ist
Ġequ iv
u e
fi lter
name space
a g
me d
Ġsu m
de al
n omial
ly nomial
' )
om m
Ġn orm
âĤ Ĺ
Ġfi lter
ce s
the ory
Ġt r
Ġh om
Ġ "
cid able
con e
Ġ- -
ma x
Ġ measure
in d
a f
in al
ĠP rop
semi ring
ac k
) ]
r fl
el d
ĠâĬ Ĩ
if orm
â Ħ
n d
an d
Ġle t
n ion
at ed
ob j
Ġd o
Ġt endsto
Ġ order
a ir
Ġ end
in f
Ġs t
Ġde fin
/- !
ver se
Ġ( âĪ
c ategory
Ġ en
Ġr intro
Ġ W
Ġn e
uct ure
b e
) ).
ĵ Ŀ
Ġre fl
al ly
ac tion
pri me
. {
w er
s c
le x
ance l
n hds
Ġd ist
d vd
k e
Ġfi le
n onempty
ar y
con s
Ġm ono
Ġh t
Ġr cases
is e
ex ists
co limit
Ġal gebra
i es
Ġm o
te cted
Ġob tain
bas is
n o
en se
Ġh g
ĠÏ ĥ
a e
Ġ_ ),
s pan
au x
de x
ĠâĪ ĺ
w e
Ġh n
tri c
at or
clo sed
Ġp ar
Ġs tr
a len
Ġt actic
ser t
on g
fin type
I n
om orphism
i g
Ġin v
ĠâĦ ¤
e mpty
¥ ¤
Ġâ ¥¤
Ġc lo
Ġex ists
c ancel
pro duct
un t
Ġb egin
re fl
Ġun der
ĠÎ µ
m in
âī ¥
Ġ.. .
Ġint er
U nion
Ġ op
t is
Ġs pace
iz ation
i tion
Ï Ģ
Ġc omm
is joint
' .
re l
Ġ( â
clo sure
w ise
supp ort
Ġn on
Ġ @
ĠÎ ł
Ġ Z
Ġs e
de gree
' '
v ial
Ġfin ite
ut e
Ġc an
to pological
so me
Ġm k
tis et
p er
Ġpro d
t endsto
ro ot
qu e
pro tected
me tric
Ġe lement
er enti
dd ing
Ġu se
he af
Ġi d
h x
at ti
b ack
ho w
be dding
Ġl ift
Ġh c
ve ctor
o o
en ce
n um
Ġa r
Ġcon gr
Ġal l
sub type
Ġs ome
ull back
Ġs plit
ot h
ol d
Ġas su
e lim
Ġl t
fun ctor
atti ce
co map
ma in
f st
an g
i que
f deriv
pe c
Ġm on
de cidable
f act
coe ff
Ġ left
Ġd iff
- -
Î ²
Ġc l
mo d
e val
re strict
eg rable
ab s
simp s
ar g
} ,
pl ic
fi eld
erenti able
á ¶
i e
ĠI f
ver t
l l
] )
T he
m on
Ġg ener
ti al
Ġin stance
iv en
Ġlo cal
nor med
Ġs mul
let e
Ġfun ctor
ĠâĪ ©
or e
g th
Ġmono id
p air
du al
Ġcon t
s nd
a m
je ct
iz e
Ġâ ĭ
ve x
b all
comp act
ic h
Ġh m
serve s
Ġc h
` :
Ġpo int
Ġl im
ĠâĨ ĳ
Ġde sc
c d
b ounded
Ġsub module
w a
b it
in l
a st
h g
in sert
Ġd i
in r
o ut
ðĿ ĵĿ
Ġ_ âŁ©,
ma trix
mp r
Ġmul ti
p end
Ġc ard
Ġt wo
p s
re c
me ta
comp l
Ġma trix
c k
on al
Ġ` (
un ion
Ġn or
s s
ne l
áµ Ĵ
R e
su r
al i
Ġ Q
áµĴ áµ
b i
for all
) ),
po int
Ġd simp
Ġv al
Ġi mage
ĠĠĠĠĠĠĠĠ ĠĠĠĠĠĠĠĠ
polog y
Ġp ri
Ġex pr
Ġequiv alen
ur al
) `
Ġâ ĸ
ens or
' _
Ġg roup
at es
et we
t er
etwe en
po lynomial
_ ,
r w
ĠâĪ Ĥ
ĠĠĠĠ ĠĠĠĠĠ
ase d
Ġre l
p h
limit s
n er
un d
s q
ðĿ ķľ
lo w
ĠÎ ´
ens ion
ser ies
Ġin duction
c y
* )
ation s
b er
ent s
ur n
ĠÏ Ĩ
Ġo ver
pre image
i o
Ġâĸ ¸
Ġdesc rib
it s
tri vial
dist rib
Ġin f
serve d
ĠâĪ ĳ
i deal
ot one
Ġwh ich
mul ti
un iform
se q
ex p
u ally
or d
ut able
em bedding
con t
ĠI n
Ġcl ass
Ġre al
A ut
re du
op y
ĠA ll
n th
Ġdescrib ed
Ġ2 0
si g
Ġf a
Ġa pp
Ï ĥ
Ġn um
ĠâĨĴ +
co unt
âĪ ŀ
Ġre served
r y
s heaf
c le
C E
N S
Ġa d
Ġd iv
C opy
h ors
I CE
le ased
Ġl ic
ĠA pac
ĠL ICE
Ġright s
Re leased
Aut hors
NS E
Copy right
Ġlic ense
ĠApac he
ĠLICE NSE
c re
Ġdefin ition
Ġ: :
Ł Ļ
Ġn eg
y m
ch ar
an k
Ġen nreal
wa p
Ġrw a
v i
Ġassu me
Ġcon vert
ĠĠĠĠ ĠĠ
i ve
Ġ quotient
ĠÏ Ģ
tr a
Ġs how
in j
sing le
Ġi h
Ġi deal
Ġb etween
h ab
v ent
I cc
ci ble
Ġsub set
Ġh r
fun ction
di ag
Â ¬
ac e
Ġâ ģ»
Î µ
Ġs em
Ġd er
Ġsub type
order ed
a in
ro w
se s
Ġto pological
Î ł
Ġstr ucture
in duction
si tion
` -
Ġmul tiset
Ġb as
Ï Ĩ
âŁ© âŁ©
in dex
Ġ ''
Ġp i
do main
de pend
T his
ul ar
Ġan y
redu cible
cal ar
comp utable
ĠâĬ Ĺ
ĠâĦ Ĥ
` `
vent ually
Ġpo lynomial
du ce
f ul
len gth
t wo
Ġe val
â ģ
Ġ %
Ġequ al
ĠâĬ ¤
o sition
ĠâĪ «
ac h
Ġr ange
g en
int ype
Ġe l
fin supp
Ġpro ve
I o
ers ion
' ]
ĠT his
Ġ open
Ġn ame
ĠâŁ¨ âŁ¨
Ġcon str
jo in
f old
Ġpo w
sur jective
t urn
ĠâĬ ĵ
Ġ qu
Ġn o
ic ator
Ġun iform
con j
Ġf intype
Ġ vector
Ġ Â¬
Ġun iv
Ġtr ans
sub module
f r
Ġmo dule
ong ly
Ġdiff erentiable
ker nel
h p
Ġ( -
at a
Ġf act
t erm
re s
Ġclo sure
Ġd isjoint
Ġa e
er ase
Ġor d
b in
Ġpro duct
pre d
Ġcoe ff
mi ly
un ique
ant is
tr y
)) )
ca le
Ġb i
oun d
fi x
Ġel se
Ġre turn
ĠâŁ¨ _,
c ent
cre te
i mal
Ġint egral
depend ent
ma li
Ġfunction s
su pr
an ti
i p
al k
ex pr
non computable
g cd
Ġâĭ Ļ
á¶ ł
antis ymm
Ġm orphism
Ġrintro s
Ġif f
je ction
di m
áµ Ĳ
hab it
f n
s calar
tri b
Ġder iv
Ġ[ ]
comp lete
ĠâĬ Ķ
to m
Ġsu ch
so l
ĠâĪ ¨
ad ic
n il
sig ma
Ġal so
f a
str ucture
ne cted
o al
Ġt ri
su lt
## #
Ġh z
Ġh u
habit ed
ali zer
ang le
g ener
Ġclass ical
Ġb ounded
trib ute
und le
e e
Ġit s
d isjoint
Ġma x
el l
Ġun it
p ullback
Ġt erm
Ġint egrable
ĠâĨĴ+ *
Ġb o
ĠâĪ £
r ank
bas ic
fact or
a k
Ġv ersion
o se
orp h
p erm
Ġn onempty
Ġm in
Ġ \
s wap
Ġas soc
tri ct
ĠâĪ ª
h t
c ur
ĠâĬ ¥
) }
Ġpre serves
ind icator
r t
Ġab s
áµĴáµ ĸ
Ġh ab
f le
t ch
in ci
Ġpo s
Ġwh en
li ke
at h
om orph
Ġmon otone
h b
Ġ(âĪ Ģ
h y
Ġs trict
Ġ_ âŁ©
Ġsem i
ur ce
Ġâī ħ
Ġs ame
Ġex p
âĦ Ŀ
Ġc al
Ġc ase
Ġlim it
Ġset s
S up
al g
Ġ >
di tion
Ġsub group
Ġbas is
g ra
pro p
Ġh k
st e
g t
o u
In f
mali z
vari ant
ver y
Ġgener al
st ar
t ensor
Ġth ere
Ġn one
c ore
Ġadd itive
s plit
] ;
ha pe
y s
f rom
Ġop tion
Ġequivalen ce
Ġ20 2
h n
s pec
Ġclo sed
f fi
in cl
o ve
Ġf orm
Ġmulti plic
du p
ĠÎ ĵ
al se
ĠâĪ ŀ
ffi ces
li e
sub group
pe ct
Ġg iven
duce d
L p
Ġs ig
h c
f ree
Ġh d
Ġde cidable
l attice
Ġp ullback
Ġ+ +
lo cale
b o
in verse
Ġmap s
Ġcon vex
d is
Ġs o
f orm
Ġnat ural
r st
Ġ( @
i de
pp er
h r
r pow
inci p
ĠðĿ ĵĿ
t actic
Ġs ing
Ġis omorphism
div is
Î ´
i or
Ġd ata
re ct
str ongly
Ġar g
_ .
ul d
con vex
co d
ve c
con nected
Ġcomm ut
Ġelement s
Ġch ange
ob ject
I co
mp le
n y
Ġh l
âŁ© )
ĠW e
int egrable
comp lex
Ġwh ere
ar get
Ġord inal
ad j
in fi
d ic
s in
l ic
Ġp air
to pology
Ġst ar
ma ble
Ġcon st
sub monoid
ension al
Ġob ject
oth er
or ity
me as
ad joint
} )
Ġhave I
so urce
ĠâĨĴ *
âĤģ âĤĤ
Ġsu ffices
Ġfi eld
a mple
par t
Ġp ure
Ġconstr u
Ġhom omorphism
hom o
' s
u ation
l in
in dependent
app end
up d
un op
Ġpro of
equ alizer
Ġassoc i
Ġp erm
Ġsu p
ĠðĿ Ĵ
to t
pow er
Ġch ar
Ġcard inal
upd ate
Ġsu pp
local ization
ca u
Ġ er
a re
ti tion
po ly
Ġre sult
Ġpro per
" ]
ĠI H
s hape
Ġx s
ot e
Ġh q
it t
ort ho
ol u
e ventually
semi group
Ġh e
W e
b ind
fun c
f g
Ġc one
Ġ 3
Ġe very
Ġin jective
end s
tr ue
co cone
co de
ĠÎ ½
Ġh j
Ġun ique
mul tiset
ðĿ ŁĻ
Ġl ie
Ġco unt
or k
Ġin to
Ġde gree
Ġâ ¨
Ġb it
Ġnor med
âī ¤
á¶ ľ
Ġcal c
Ġp r
pre serves
diag onal
Ġh v
en om
ha ve
co ver
Ġe ach
Ġ(â ĭ
Ġb ut
mo ve
Ġco map
u de
se par
Ġ get
Ġto pology
a y
n nreal
con d
op tion
Ġm v
pre order
in ner
Ġcomp lex
p t
ĠâĦ ļ
simp le
pri m
' `
g ular
áµ ¥
count able
âĤ Ĳ
lo wer
me try
0 0
âĤ Ľ
lo ck
pre s
Ġde fine
r at
In ter
S pace
de sc
Ġs in
is on
for get
ĳ (
il l
v en
dim ensional
incip al
o s
cur ry
âĪ Ģ
Ġsupp ort
Ġo ut
Ġ% %
to wer
Ġco limit
Ġe m
Ġ/ /
tot al
ro u
Ġv ari
h er
Ġc ho
ti ble
Ġan ti
f fine
Ġ O
set s
w h
ho ut
us hout
I oo
iz ed
Ġdefin ed
b or
Ġpri me
diff erentiable
Ġf ree
fact ors
Ġhx y
Ġfi rst
il ity
Ġcon tain
Ġ ###
s pect
u st
mo oth
c of
x i
nat ural
ĠI o
ra m
unit al
Ġa ffine
ch y
Ġs pan
ul t
qu ot
on ent
ed Space
Ġw ill
t his
Ġcon s
Ġhom o
Ġma tch
Ġ(â ¨
w ard
Ġd is
' }
ar row
Ġin dex
Ġu sed
Ġcomp lete
b ase
n n
ĠA n
Ġs pec
nor mal
tom ic
u al
" ,
Ġ(â Ĭ
a ult
Ġsub monoid
equiv alen
g onal
Ġk er
cod able
de t
Ġâ ĩ
ortho gonal
Ġf r
i tial
fle ct
Ġ imp
ti es
se u
univ er
m ent
R ing
sub singleton
clo tomic
Ġrel ation
co s
ab ove
ĠðĿ ŁĻ
co prime
ĠâĪ ħ
no de
ĠâĪ ī
a ge
áµĴáµ Ī
ĠâĪ ı
mp tion
if y
Ġde cl
Ġcomp act
ta il
fr action
h i
â Ģ
Ġpar t
char t
Io c
Ġb in
cy cle
) `.
t sub
Ġsu cc
re pr
li an
str uct
) âģ»
c m
ĠG iven
z pow
Ġs ym
s ize
ĠM ain
divis ors
par tition
c he
Ġlemma s
multi linear
Ġ other
it z
pro j
af fine
ps ch
Ġtri vial
b Union
en nreal
Ġfor get
n one
Ġfa mily
psch itz
b ound
Ġb all
Ġsu r
it er
unit s
le an
Ġ` `
âĤ ĺ
ul ift
ed ist
pl ace
l a
O D
Ġpo wer
at ors
d enom
Ġin habited
Ġer w
Ġth an
e pi
Ġ( âī¤
âĤ Ħ
i an
u g
li es
po se
Ġfor all
Io i
Ġs q
Ġsig ma
Ġ_ ))
ma t
os ite
Ġpre image
Ġ .
Ġderiv ative
v sub
Ġop er
ĠS ort
m t
Ġco s
ar ith
â ¦
âĤ Ĭ
par tial
ab ility
Ġlo g
Ġequivalen t
seu do
`` `
natural ity
ĠĠĠĠĠĠĠĠ ĠĠĠ
Ġdi ag
â¦ Ħ
Ġg cd
ĠâĨĳ (
s how
v ar
g l
Ġspace s
Ġâ ¦
) âŁ©
âĤ Ļ
il attice
ad ing
Ġâ¦ ĥ
at tribute
Ġn th
Ġcomp osition
e lian
Ġc or
s ym
Ġl i
cent er
Ġe dist
pp osite
ĠI cc
ĠâĬ ķ
m diff
Ġin verse
ĠR e
colimit s
ho me
a us
Ġassu mption
Ġ> >
Ġc ast
Î ³
Ġb undle
fin d
univer ses
Ġt t
comp osition
áµ ¢
oal s
Ġb ot
d om
v ing
Ġf f
Ġval ue
Ġnum ber
f alse
Ġtr ue
Ġarg um
point s
ad join
Ġad j
Ġab out
fa mily
non trivial
Ġcommut ative
Ġem bedding
I ci
Ġ metric
multi plic
h m
dis crete
mal l
Ġi r
assoc i
Ġinter val
res p
Ġco cone
Ġs equ
Ġt ensor
Ġle n
at is
ĠF or
f er
ĠS ee
Ġlocal ly
i gh
Ġ` [
Ġne w
Ġ( âĨ
Ġthe ory
ĠÏ Ħ
Ġlim its
$ >
al o
l integral
u b
Ġt a
local ly
] `
un c
Ġ(âĭ ĥ
âŁ «
Ġlen gth
Ġsing le
I ic
pr incipal
Ġ 4
Ġc y
Ġis o
t arget
Ġdefinition s
incl ude
un ction
Ġdo es
â Ĭ
ĠI co
w r
home omorph
ver g
h en
Ġin cl
l or
ĠâĬ ¢
t one
Ġ me
Ġpro vi
pre ss
Ġ20 1
ri er
Ġbo ol
t t
le ph
alk ing
g ame
ch ain
Ġin ner
con dition
w n
Ġâ §
de l
ĠC on
c ir
re verse
ol low
Ġfin supp
bin ary
ĠI oo
top y
ces s
gra ph
ĠðĿ ĵ
I io
g a
h d
his ker
âĦ ķ
ext end
mon otone
Ġorder ed
re gular
de an
inter val
cal c
f ac
se m
root s
Ġthe se
ĠN ote
o w
Ġse e
le d
cy clotomic
ro t
ĠIn f
equivalen ce
d ing
Ġh Î¼
iso metry
ic k
Ġconst ant
op er
Ġsum mable
pri ority
le s
Ġe ventually
oun ds
Ġf ollow
us ion
d or
Ġfi x
resp on
dor ff
di re
gener ate
t sum
Ġsub singleton
t ing
Ġin sert
du ctive
maliz e
l ast
.. .
product s
at ing
pres ent
mul a
he ad
âģ Ĩ
ag s
ver s
I f
le tion
Ġun fold
' t
ĠðĿ ķ
mon ic
ĠâŁ ª
ĠâĪ« âģ»
Ġa u
as su
Ġd vd
Ġat tribute
o d
p ure
Ġpri m
ĠðĿĴ ľ
Ġnot ation
i us
u pper
Ġd ense
Ġcon j
b undle
i ce
i ent
Ġg ra
on ents
âŁ© âŁ©,
Ġfun ext
âĦ Ĵ
Ġpoint s
th er
: :
ir reducible
pe at
Ġsimp le
Ġre place
Ġtype s
re am
Ġl in
press ion
Ġqu ot
ra tion
io dic
o mp
Ġs mooth
Ġs atis
Ġw ell
âĪŀ )
Ġ1 00
Ġlo wer
Ġh w
âĦĴ p
Ġe mpty
Ġre strict
equ al
alo is
qu are
pair wise
in habited
ste ad
Ġin finite
Ġpar tial
Ġid enti
Ġg ive
Ġ< $>
Ġin fi
s diff
âĤĽ âĤĹ
Ġker nel
if s
Ġvari able
po the
Ġresult s
Ġcon v
Ġun its
e ous
b ers
Ġc om
to id
b lock
ĠâŁ¨ (
Ġc of
ar rier
id y
âĪ¥ âĤĬ
Ï Ħ
Ġt idy
ith ful
ho uld
in k
re d
Ġcor respon
Ġ(âĪ ĳ
Ġterm s
Ġâĩ ĳ(
Ġhi j
Ġse par
Ġh U
il in
cent ral
m v
Ġ[ âĪĢ
sq rt
cau se
Ġfa il
ens ity
Ġcon dition
Ġit er
S ee
Ġfin d
Ġh S
âĪ¥ )
on ical
max imal
Ġnor mal
Ġan al
Ġbin ary
in finite
Ġun ion
con tinu
Ġsur jective
al ance
const ant
Ġn il
ar ch
Ġal g
mon omial
Ġw ho
Ġde c
Ġmorphism s
aus dorff
Ġdo main
Ġspec ial
i h
Ë £
Ġsub st
w ell
in duced
Ġdef ault
flect s
Ġâ§ ¸
fin rank
) ^
g oals
sub algebra
Ġma ny
Ġlocal ization
' ).
Ġd im
Ġsequ ence
âŁ §
gen eous
v ate
z mod
ac tive
Ġto p
cal ly
Ġhy pothe
co m
Ġm ore
inter ior
ĠIo c
Ġ up
ĠS up
igh bor
OD O
Ġf old
` )
u d
b ounds
ver tible
Ġsub algebra
Ġinf er
Ġsu pr
ex act
au chy
h an
m orphism
Ġn hds
p ushout
Ġthe y
open s
Ġdi rect
Ġa ction
val ue
qu i
¬ Ŀ
Ġs hould
Ġob j
uniform ity
is h
der ive
u c
Ġu pper
ĠJ o
Ġs wap
d ensity
Ġ( {
Ġs te
Ġr o
Ġz pow
o ver
Ġ( âŁ¨
Ġconstru ctor
sem ilattice
e lement
| >
ĠÎ± áµĴáµĪ
ĠM or
pro jection
Ġh T
Ġs ymm
Ġ[ (
Ġbo x
Ġ ~
ac he
in itial
ma tion
i me
Ġâ ¬Ŀ
il inear
Ġcomm ute
Ġfin rank
co tt
no dup
assu me
Ġ( _
Ġinter ior
Ġc ha
act er
non pos
Ġar row
al f
Ġh J
ĠS cott
ors ion
Ġp s
Ġmultiplic ation
al le
Ġd ual
dex p
Ġpair wise
ge s
Ġro ot
term in
pri vate
lement ation
Ġg oal
Ġl a
co kernel
Ġne ed
u ed
on ed
Ġh Îµ
Ġre qui
ateg or
Ġfr action
oned a
h l
r um
Ġex pression
Ġmonoid al
Ġ< |>
sig n
Ġs norm
Ġk e
r ison
ĠMor rison
n smul
s on
Ġc ent
po id
rou poid
Ġin stead
p ath
ĠâĨ ª
monoid al
Ġin duced
Ġbundle d
l hs
Ġfact or
Ġb ind
Ġproper ty
ly ing
Ġal ong
Ġsemi ring
me di
Ġn nreal
ome try
âĪŀ }
] âŁ©
at em
s ame
âĤ ľ
Ġdefin es
at om
Ġmo d
Ġdi re
Ġ #
Ġt ak
Ġb oth
po t
pre sheaf
olu me
Ġp er
ĠJo han
ro x
Ġ202 1
b l
Ġl integral
pro per
Ġpro jection
medi ate
t s
lo or
d ense
Ġf alse
Ġinstance s
Ġ>> =
c ing
Î ĵ
Ġh ol
âĢ º
Ġcha in
) ],
o pposite
sum mable
Ġconstr uct
bo x
] }
alle l
a leph
et her
Ġcho ose
r ary
ut ation
Ġz mod
ve s
ab ly
Ġbe cause
Ġex ample
Ġco ver
ĠL e
separ able
Ġp ath
Ġse cond
omorph ic
fl ip
oper ators
be low
Ġpri ority
ĠT op
Ë ¢
Ġv er
class ical
Ġbas ic
ether ian
w itt
Ġpos itive
' ],
u es
Ġw ork
Ġde pend
Ġ202 0
nn norm
at t
wh ere
ick en
ro b
Ġthe ir
Ġlin arith
Ġw alking
e st
Ġab v
iter ate
ĠðĿ Ķ
Ï ģ
Ġre assoc
Ġprovi de
v add
Ġint eg
sub object
Ġpro tected
b re
Ġhf g
ang ent
ĠâĪŀ )
ce wise
Ġnot e
ys is
wr ite
Ġb dd
ad ra
Ġext ends
ĠD e
par am
adra tic
Ġs ize
Ġb ound
ĠI t
Ġmulti linear
ĠÎ ·
c or
o dule
ab elian
Ġnon trivial
du ces
bi jective
ch ange
áµĲ áµĴáµĸ
g re
ma n
Ġdecl ar
Ġt ot
tri m
ar ison
ðĿ ĵ
Ġst atem
Ġa eval
ĠâĪĳ '
log y
Ġ(âĪ ĥ
G roup
equal ity
Ġthe m
Ġde t
ĠC omp
er ies
en ius
du cing
Ġanti tone
rob enius
bre vi
' âŁ©
ĠT ODO
f ounded
r hs
Ġpoint wise
s h
Ã ¶
if ic
c us
Ġgener ated
Î ½
en ces
de p
ae val
val uation
el se
Ġâĭ ĥ
Ġno dup
he ck
ste p
o k
Ġke y
` ;
Ġt arget
st ring
Ġ} )
ĠC omm
Ġlet I
factor ization
Ġcorrespon ding
Ġs eries
Ġstr ing
Ġprim rec
Ġ( <
at er
Ġc ir
Ġcan onical
scalar s
p seudo
de cl
n ing
Ġs h
Ġl attice
comp onents
Ġsq rt
Ġb ig
plic it
M on
s ort
Î £
x s
ĠL ie
fix ed
/ /
Ġ meta
iv er
ĠÏ ī
: //
Ġre spect
ra y
ort h
Ġste p
comp ose
for mula
Ġt sub
Ġre present
Ġproper ties
as ses
Ġcontain s
Ġc b
w hisker
ma tch
en codable
out er
Ġcoeff ic
ĠH ausdorff
Ġext end
) `,
Ġp game
semi continuous
Ġnum bers
ĠâĬ¢ ,
fi ber
g c
nat ing
ch oo
ali as
Ġidenti ty
tr adic
choo se
tradic tion
* *
f y
ve l
ĠL p
ĠÏ Ī
Ġcomp l
app rox
ĠU nion
spect rum
â Į
Ġf st
Ġcon tra
brevi ation
Ġdis crete
C omm
Ġchar acter
verg ence
ĠÎ ¸
S L
Ġsig n
F or
le ading
ig en
Ġmultiplic ative
co l
Ġ(âĪ ı
d rop
comm ut
ĠâĢ ¹
Ġgener ate
bo ol
Ġir reducible
Ġc le
Ġy ou
Ġadd ition
Ġdiv is
Ġassoci ated
Ġanal ysis
t ps
mp lementation
Ġâīĥ +
( (
c um
l ub
in ite
Ġe ven
Ġdiff er
es s
Ġtr ace
we ight
factor ial
Ġobject s
Ġstr ongly
Ġopen s
Ġs eq
ĠT ags
Ġcon tinu
li dean
Ġmo st
uc lidean
. "]
T ype
Ġc re
co equalizer
lo pe
sol ute
prim itive
Ġcle ar
l cm
ðĿ Ĵ
do c
re v
ĠâŁ ¦
i q
Ġc ategor
ut ations
ĠĠĠĠĠĠĠĠ ĠĠĠĠĠ
Ġdist rib
term inal
sol ve
r u
for k
in variant
Ġh I
Ġexact I
comp onent
Ġargum ent
rot ate
co span
Ġp ushout
Î» x
ent ly
il ing
no etherian
Ġreturn s
ti v
Ġsing leton
p en
z ip
Ġco l
â¦Ħ ,
Ġgive s
' ),
Ġco kernel
di rect
Ġmo del
h u
Ġc heck
ĠâŁ ©
b dd
Ġ` âĪ
li ed
Ġwho se
h ull
Ġs nd
Ġr at
num ber
p f
ser ving
per iodic
adj unction
' âŁ©,
ul tra
Ġ* *
ĠĠĠĠĠĠĠĠ ĠĠĠĠ
Ġpre d
name s
s mall
Ġp adic
Ġd if
li pschitz
th en
us h
block s
Ġ /-
Ġh C
Ġdiag ram
or mal
ĠC áµĴáµĸ
Ġ(â¨ Ĩ
Ġs heaf
se g
ĠC ar
Ġ(âĬ ¤
Ġf deriv
fun ext
ta g
Ġ} âŁ©
s y
Ġis omorphic
bi product
pot ent
e ve
u age
par allel
ang uage
en um
Ġi c
Ġin r
Ġtr y
anti diagonal
Ġj ust
m um
Ġb lock
Ġin l
ĠÏ ķ
Ġfollow ing
T op
Ġpre dic
Ġa c
tr unc
on ormal
Ġa lter
Ġh ere
Ġan g
em i
orth onormal
] .
Ġex plicit
Ġit self
Ġapp ro
icken ing
Ġw o
Ġalgebra ic
Ġse ction
maliz ed
ce pt
diag ram
y oneda
Ġp unit
con tra
li ce
Ġval ues
Ġvector s
^ [
d ata
ighbor ho
h alf
Ã ©
ĠĠĠĠĠĠĠĠ ĠĠ
ĠðĿķ Ĥ
un curry
Ġpre order
Ġ(âĨ ĳ
de q
sub ring
Ġdist ance
vi ous
measu r
me s
si ble
min poly
ur y
Ġ_) ),
unit or
ĠIo i
Ġ_) ).
var s
Ġvariable s
l ists
Ġs y
Ġconstru ction
Ġa v
Ġr b
is tic
inter active
Ġâī Ī
Ġfix ed
st ate
Ġad join
Ġ(â¨ ħ
r as
co variant
Ġsub ring
ĠâĬ¤ )
Ġgeneral iz
ward s
ultra filter
en ame
ho v
áµ ĥ
Ġc ur
Ġ` {
as hov
fl d
ĠK ud
ĠY ury
deriv ative
pi e
G iven
v ary
} `
Ġh st
map s
ĠI mplementation
inf o
t ac
con v
)) ).
mon ad
Ã¶ l
pie cewise
a tible
Ġh V
co unit
Ġunder lying
Ġcy cle
Ã «
Ġb u
ra di
Ġab ove
for mation
fa ithful
Î ·
trans pose
radi us
h v
k i
ĠÎ º
li ary
dire cted
e metric
tr action
si eve
Ġp b
ry ashov
ĠKud ryashov
Ġh K
re ad
Ġle ading
Ġ( âĪ¥
Ġre verse
ĠM on
so und
ĠĠĠĠĠĠĠĠ ĠĠĠĠĠĠ
o angle
Ġm fld
do wn
Ġmon ad
Ġval uation
ne s
ome tric
ĠðĿĶ ¸
tiv ity
sup er
sin h
Ġindex ed
i ro
ne iro
tri angle
ext ension
Ġâ¨ Ĩ
Ġfunctor s
ari o
real ize
on ti
Ġnor malize
Ġang le
st em
pro of
onti er
ģ ħ
z smul
Ġin equality
Ġcategor ies
` ).
multiplic ity
Ġwo uld
Ġâ ģħ
Ġa ct
Ġh o
Ġbi prod
olu tion
Ġ(âī¤ )]
ta ke
Ġdo c
Ġpar se
homo topy
in ductive
re sheaf
Ġc ancel
ab breviation
homo geneous
Ġhol ds
. ,
Î ¶
Ġp seudo
Ġ* ,
ĠH Ã¶l
gener al
Ġ(âĬ ¥
resheaf edSpace
b u
Ġ( `
Ġin itial
bin ation
Ġhe ad
ĠCar neiro
h ere
u tion
Ġs quare
Ġw r
not ation
Ġ(âī¤ )
p ut
Ġb ase
co prod
lo cus
Ġargum ents
Ġ erase
Ġy s
tr ace
Ġcount able
xi liary
p le
s norm
Ġs el
Ġs mall
âĦ ¤
in ate
ĠM ario
ol int
gl b
Ġtot al
ch o
cau chy
Ġout er
multiplic ative
) âĪ¥
Ġ update
de fin
ir refl
Ġhomo topy
f loor
le r
Ġ` âĬ
pre connected
Ġtype class
Ġ orthogonal
t orsion
Ġpro j
Ġpredic ate
tri z
Ġfact ors
geb ras
Ġtr unc
Ġpolynomial s
Ġ 5
Ġh A
if i
hf g
Ġb ilin
Ġj o
move s
ug ate
st alk
Ġv olume
Ġcomp letion
hr ink
Ġassoci ates
Ġme ans
Ġfor mal
Ġli pschitz
Ġsel f
+ )
pre t
_ [
p y
Ġh F
Ġt est
at ter
con es
def ault
Ġstrict ly
Ġgeneraliz ing
Ġ( *
Ġne ighborho
Ġstr ong
Ġ(âĨ ĳ(
Ġsatis fy
g roupoid
l ine
âĤĤ âĤģ
Ġre gular
w f
Ġb alance
Ġâī ª
wh ich
it es
Ġre peat
ere al
h q
ha ar
Ġfinite ly
Ġder ive
divis ion
d finsupp
ĠâĦ ±
Ġco prime
tic ular
au to
oo lean
st ream
Ġre s
Ġma ke
cir cle
ĠhÎ¼ s
c arrier
end ing
comp letion
Ġnon neg
Ġmon omial
Ġ(âĭ Ĥ
in vertible
d one
Ġad joint
i a
Ġhx s
Ġl ine
ĠâĪ¥ (
Ġuse ful
Ġbi product
z l
Ġh lt
Ġpar ticular
morphism s
super set
Ġh B
Ġh ne
Ġ[ *
Ġin d
Ġab elian
er c
E nd
Ġis ometry
mo st
algebra ic
z y
in ated
Ġn n
Ġg l
áµ ĩ
Ġqu adratic
de c
up wards
cl m
Ġoper ations
pre serving
function s
Ġs á¶ľ
ar t
un der
âģ ħ
Ġcontra pose
se toid
bit rary
ex ample
`. "]
ph ere
Ġmax imal
split s
che me
Ġst ream
ĠJohan nes
ĠHÃ¶l zl
] ),
h z
re flects
el ds
Ġinter mediate
Ġâ¨ ħ
erc ion
] `.
a co
Ġs ol
re peat
Ġle ss
omorphism s
sur j
fr act
la w
g erm
s is
Ġext ension
Ġnum er
b etween
comm ute
A n
} }
Ġ ulift
Ġs a
âŁ© ),
Ġpre sheaf
dire ction
l ar
comp arison
Ġma n
Ġincl usion
b t
en code
as i
Ġd om
pan d
cof ork
Ġdiag onal
ration al
Ġjo in
g ue
Ġgroup s
Ġp p
con dexp
et a
tr act
qu ently
mo deq
Ġta ke
i x
Ġh ome
id er
Ġfraction al
b son
s mooth
Ġr pow
Ġr ad
Ġco de
instance s
Ġst ate
Ġimp lies
aco bson
Ġl ast
ro th
fold r
f lex
Ġâ Į
Ġh P
Ġs ie
âŁ¨ âŁ¨
sol ution
in ator
Ġre vert
ne ss
Ġnon zero
Ġcho ice
n ull
Ġequal ity
i zer
om it
Ġcomp utation
str u
ĠÎ £
de composition
Ġun op
Ġse toid
in ducing
re quently
Ġex ist
ate st
Ring edSpace
Ġiter ate
Ġâīĥ+ *
re solve
ft y
measur ability
n s
ĠI ci
f p
t mul
Ġs lice
Ġin dependent
âĤĤ âĤĥ
ĠâĦ µ
ent al
th at
cir cum
Ġsatis fi
_ âĢº
Ġw ay
Ġequal s
hy p
S pec
re sult
Ġhypothe ses
p adic
ĠA dd
ig inal
nil potent
Ġdivis ion
Ġt ra
Ġâī ¡
us hf
Ġapp end
rou gh
ushf or
f robenius
Î ¸
Ġ` âĪ¥
)) ),
n ers
Ġp ush
Ġin ductive
ĠE x
Ġapp lic
âģ °
ĠðĿĵ Ł
l as
n olint
Ġc arrier
ri es
int eg
Ġsub space
heaf edSpace
ĠâĬĹ [
en cy
m map
de g
Ġv an
fold l
Ġcommut es
xi om
Ġhypothe sis
d am
Ġe pi
Ġma y
stri ction
nor malize
ific ation
Ġc auchy
Ġg alois
ser tion
incl usion
seg ment
ushfor ward
n ext
r n
Ġt ime
ht tps
Ġ202 2
c an
Ġh le
Ġm t
âī «
h k
i ents
Ġ ite
Ġo pposite
cl asses
Ġpar ser
o cally
ĠP ro
Ġl ists
ca ve
Ġmin imal
fle ction
ath er
Ġcardinal ity
Ġsin ce
âĮ ĭ
o ur
z e
or ner
âŁ ¯
Ġâī ¥
ĠI ic
Ġpro b
Ġq s
âŁ ®
comp lement
fi rst
local ized
arg s
cover ing
Ġli ke
c s
ith er
cont ext
M odule
Ġf s
us ing
type s
Ġma in
we ak
Ġ`` (
Ġdire ction
ĠâĢ¹ _âĢº
N ote
e igen
ĠI io
Ġval id
^ (
o dd
Ġre flects
pre fix
ĠĠĠĠĠĠĠĠ ĠĠĠĠĠĠĠ
Ġbe low
Ġcir cle
sy stem
c sin
c ache
Ġt ends
Ġuniv er
Ġsemi group
Ġneighborho od
Ġind icator
Ġh h
Ġwe ight
Ġâ Ĺ
Ġh eq
Ġâīĥ *
gl ue
Ġcol le
k ip
Ġ ge
co ord
Ġle ast
Ġequ alizer
si de
r or
Ġsub semiring
uniform ly
ou gh
Ġl cm
sub list
tri ces
ocally RingedSpace
ime dean
b ilin
s quare
v able
Ġ( *)
Ġcon tradiction
pre additive
Ġring s
Ġmultiplic ity
Ġs calar
âģ ¿
Ġoper ation
ĠT o
tr ucture
Ġal low
cl ic
top ic
ĠĠĠĠĠĠĠĠĠĠĠĠĠĠĠĠ ĠĠĠĠĠĠĠĠĠĠĠĠĠĠĠĠ
b es
r der
Ġh N
Ġb s
me ga
Ġr u
Ġ(( (
Ġtype vec
gra ded
i ki
Ġsub object
Ġ(âĪ «
! [
Ġh Î´
st mt
Ġsimp s
Ġcal led
Ġh R
ti cally
ĠâĨ ¦
Ġw ide
Ġcon nected
Ġcent er
Ġfor mat
card inal
Ġsym metric
proper ty
in st
me tic
Ġe metric
Ġo mega
Ġth rough
l d
is ation
Ġcon d
point wise
Ġtri angle
Ġcoeffic ients
u ence
se cond
di g
% %
b alance
ok up
re write
Ġe s
Ġv ia
for mal
Ġor iginal
Ġst ates
bor el
Ġ201 8
for mat
ome ga
âĦ Ĥ
Ġmon ic
Ġin j
Ġre cur
Ġpr incipal
separ ated
] ]
q s
Ġh M
Ġs ay
Ġp l
Ġco prod
Ġexact s
si ve
ord inate
Ġproduct s
split ting
bl ank
re index
me triz
Ġd one
il d
Ġad m
lic it
Ġstatem ent
M OD
co v
Ġn s
ne ction
ĠN ot
enti al
Ġhomomorphism s
sub space
par ser
im um
ali ties
. )
Ġs ide
ĠÎ ¶
mp ot
ab el
Ġfor k
log ical
Ġpar tition
ord inal
Ġtak ing
u sed
Ġt angent
Ġc fg
Ġ[ `
of f
Ġâĭ Ĥ
Ġsie ve
h T
m fderiv
Ġt l
Ġt sum
Ġâī Į
Ġhp q
law ful
) ;
w iki
Ġc au
if old
li b
tri v
structure d
gener ated
com bination
Ġcre ates
c at
se arch
Ġstructure s
la x
) âŁ©,
Ġn ext
Ġau to
Ġrequi re
Ġdeclar ation
Ġ ereal
ma th
mm ersion
non zero
Ġin vertible
Ġl anguage
olu tive
ĠCon struct
Ġspecial ize
e ct
w ide
se qu
he s
Ġo dd
sh ift
Ġalter nating
ge ther
ĠT hen
el ab
min imal
Ġinter section
mali zer
weight ed
) :
Ġt s
Ġt an
Ġc ore
ar tial
Ġmeasure s
spec ial
Î ¦
Ġe ss
Ġre pr
Ġco ercion
ft er
ke ys
Ġsemi conj
Ġta il
Ġâīª âī«
un ity
de st
Ġcomp utable
for e
m id
Ġw hisker
nor malized
Ġfa ithful
power set
! "
c fg
Ġi m
id ing
Ġob vious
Ġnatural ity
bes gue
f s
Ġsem in
Ġh ÏĨ
Ġin duces
ĠM e
li p
Ġdire cted
end ie
Ġco uld
Ġuse s
Ġrel ations
trivial ization
roth endie
rothendie ck
al ter
Ġ[ "
sur d
dis j
h U
Ï ī
Ġt gt
ge d
Ġnot es
Ġhm n
bi cone
Ġdiffer ent
g ma
o pow
un iq
Ġwith in
` (
e ven
Ġf ull
Ġn smul
Ġcon dexp
ĠÏ ģ
span ning
circum center
Ġsatisfi es
w alk
Ġb ilinear
Ġsimp l
Ġco limits
ĠC om
il ar
im ilar
perm utations
Ġdim ension
Ġ(< )
ĠC auchy
ĠÏ ĩ
str ong
io d
Ġs mal
Ġt ags
Ġsu c
di am
Ġir rational
derive d
r ack
ma ny
eq v
ĠS emi
âĪ Ī
cor ners
u ard
at tr
Ġo ld
Ġorder ing
tra iling
Ġcons ider
Ġcharacter istic
read y
ifi ed
Ġ` :
ri c
val ued
Ġuniform ity
Ġcontain ing
Ġbin der
Ġord node
Ġ201 9
gre atest
pp ed
Ġd rop
ed ges
ha vi
Ġav o
p map
t angent
Ġle x
Ġdi am
Ġqu iver
lic ial
ish ing
att ach
h Î¼
n al
â ĭ
Ġd enom
Ġcon crete
ari ly
th ing
elim inator
element s
Ġcontinu ity
a i
g alois
he ther
Ġle vel
tra verse
Ġpr incip
Ġprovi ded
ater nion
f an
Ġw seq
Ġar bitrary
compact s
Ġadj unction
fer ences
p ing
Ï ķ
Ġco equalizer
ent ries
Ġde termin
Ġwith out
pos ition
el ong
Ġab surd
Ġcongr uence
Ġcont ext
equivalen t
o int
Ġ orthonormal
Ġ ultrafilter
âĤģ âĤĥ
clo pen
ant s
Ġdiff erenti
Ġiter ated
r ename
t an
Ġr a
Ġal ready
Ġen codable
Ġper iodic
c Sup
Ġt auto
al s
con vergence
ĠT M
Ġcolle ction
p d
il le
prim rec
Ġdeclar ations
Ġstatem ents
mpot ent
g i
p les
Ġpar ame
anti tone
Ġisomorphism s
col um
} ]
Ġb elong
lemma s
iff ord
Ġth ose
ex tr
associ ated
I t
Ġhb c
Ġcover ing
j acobson
Ġs kip
me lin
Ġr ot
un ctor
ĠâŁ ¹
Ġgra ph
Ã« l
dam ental
Ġuniver se
re assoc
Ġpre additive
filter ed
Ġsatisfy ing
k ind
s lope
or med
wa y
Ġfold r
Ġsub semigroup
ĠRe ferences
sign ed
Ġtak es
Ġprovide s
ðĿĵ ¤
y tic
pl us
associ ator
Ġfold l
dig its
` ),
l ation
Ġs diff
Ġe lim
Ġma k
ack s
Ġappro xi
h A
Ġe ither
Ġm ust
Ġre d
Ġcon ven
Ġname s
Ġhomo geneous
Ġincl ude
f ae
h S
t rop
Ġal most
te st
a res
e uclidean
i ded
w alking
Ġn ull
ĠL et
flex ive
Ġavo id
)) ))
Ġab solute
per iod
continu ed
ĠâĮ Ĭ
â ¨
Ġ &
or g
Ġf g
Ġl inter
Ġ- (
Ġw hether
pro jective
Ġal gebras
Ġen at
prim codable
_ {
p unit
Ġc all
ge on
fi g
ful ly
Ġtrans formation
Ġsym metry
i led
in sertion
Ġh fi
Ġin st
âŁ© ).
con nection
Ġto gether
Ġu su
pl ac
Ġmodule s
arch imedean
Comm Group
con stru
Ġan other
Ġfor mula
Ġgeneral ized
S tructure
s ke
at las
Ġex pres
Ġw ant
Ġma trices
Ġwe ak
Ġclo se
Ġpos sible
atter n
ra d
Ġgra ded
continu ity
ĠCom melin
ro und
de generate
Ġg erm
ĠA s
maliz ation
' `.
h I
v ille
pe x
Ġsimp lex
ed ge
ĠM odule
gra de
Ġproof s
Ġcy clotomic
vers able
Ġbalance d
Ġprincip le
h B
s Union
ab solute
ĠT wo
ste in
ĠðĿĵ ¤
Ġs ends
ĠÎ Ľ
Ġi j
Ġw itt
Ġsu pre
urn s
ĠðĿĴ °
cos h
a Ã«l
Ł Ń
Ġ( #
Ġ- [
Ġk no
âĨ ĳ
Ġinter active
Ġchar t
bundle d
Ġsol ve
p im
inv olutive
Ġfi elds
ical ly
vers ion
up le
em b
te ct
Ġbe ing
fa il
Ġtrivial ization
gre es
commut es
rack et
' ))
f requently
n f
p att
Ġ vec
de code
âŁ© ;
il lies
ĠY aÃ«l
ĠD illies
sol vable
Ġother wise
pim orphism
O rder
s phere
Ġt ag
en ded
he q
lt a
enti ally
Ġar ith
ĠComm Ring
Ġ[* ,
or ig
Ġt orsion
st d
Ġd on
Ġcon vergence
Ġz ip
Ġmonoid s
ample able
che ck
' ',
I H
or n
or tion
ma nd
ĠÎ ¦
Ġre set
Ġcomp onent
wa ys
* >
b s
se min
co lor
Ġ(âĪ ħ
Ġmin poly
semin orm
N F
] [
ne w
redu ce
Ġconstru cted
Ġinteg er
bt w
s hrink
Ġcontain ed
ĠâĦ į
Ġ< +
âĤĹ áµ¢
-- --
A dd
r b
Î ¨
co py
ĠA ny
ĠâĬ £
Ġpro jective
support ed
Ġcof ork
p ort
á ´
al so
ro id
th ru
th ickening
exp onent
Ġfr ontier
Ġfollow s
b ilinear
Ġ ![
Ġ( +
Ġm differentiable
pre partition
Ġcomp atible
no c
Ġsplit s
ord an
cont ent
Ġsin h
Ġarith metic
s he
re flect
op h
alter nating
p nat
Ġb l
ĠâĨ ¥
ul li
ĠT here
Ġif p
and om
no ulli
arg um
ay lor
her ence
a ut
i mmersion
in fty
Ġin jection
con verg
ĠS pec
S heafedSpace
v an
Ġb or
Ġb ack
Ġr hs
Ġl hs
ĠIn ter
C on
a ves
sub st
Ġcon ver
Ġne cess
Ġmo ve
Ġso urce
ar ge
Ġl arge
fi b
Ġsubset s
Ġexpression s
Ġsupre mum
Ġreset I
P resheafedSpace
f power
Ġs ending
Ġf lip
Ġe d
as h
Ġg oals
âĪ ĳ
Ġpi geon
Ġevery where
ĠðĿķ İ
ient ation
' `,
Ġs ke
nor malizer
Ġen code
core c
general ized
b ra
Ġa leph
Ġsu per
ra me
mo del
ĠâĬ¥ )
box es
Ġderive d
h F
Ġco domain
Ġpre partition
Ġforget ful
Ġcoeffic ient
h ta
se p
ver age
Ġen um
rel ation
associ ates
W hen
x y
ti me
ĠC hr
Ġfa iled
e ded
Ġh G
Ġ` @[
de kind
Ġsum s
ĠChr is
v olume
ti o
qu iv
Ġcomp lement
num er
Ġapp e
Ġno w
Ġbi jection
rot ation
Ġrad ius
Ġsemin orm
Ġh Ïĥ
comp atible
Ġde lta
ĠS et
áµ Ģ
cy clic
Ġobvious ly
d y
| _
re t
ar s
pp ing
Ġre striction
sub semiring
Ġ< *>
ĠĠĠĠĠĠĠĠ ĠĠĠĠĠĠĠĠĠ
Ġname space
Ġcent ral
in ce
ma tically
ex pand
ĠB havi
Ġsem ilattice
cm d
ĠMe hta
ĠBhavi k
p ushforward
in dep
Ġt ree
Ġal ways
shape s
param s
Ġsh ort
Ġcur r
d if
in it
it ing
Ġp f
sub structure
sing ular
Ġwho le
cho tom
k g
u xiliary
Ġs hape
Ġl s
Ġexact ly
homo topic
cof inite
Ġsepar ated
Ġroot s
t x
ro l
Ġun iq
iz es
eval uation
io u
Ġsupport ed
A l
L attice
c Inf
de dup
ers al
Ġapp lied
Ġ 9
Ġc mp
Ġre g
ðĿ ķ
ĠS cheme
Ġtheorem s
ĠLe an
a il
g oal
Ġ` -
Ġo ur
Ġ.. (
Ġmono vary
Ġbi cone
Ġau xiliary
Ġinteg ers
h st
p tion
Ġa fter
Ġt y
con tradiction
Ġco unit
ĠW hen
in fix
co product
Ġd finsupp
Ġpro position
lin arith
Ġer r
ĠDe fin
S et
r un
âŁ ¦
ic ategory
Ġpre sieve
Ġst alk
G H
Ġin her
Ġg roupoid
Ġsepar able
i li
i tivity
Ġn m
Ġg o
em ma
Ġform s
part s
b ut
c r
s g
x x
le ast
re place
st ab
Ġre main
Ġobtain ed
Ġâĩ ĳ
od ory
cho ice
> ]
[ >]
n pow
r ans
Ġh ac
Ġ` âĪĢ
Ġ_ ;
un fold
as ing
id x
Ġcomm on
Ġprove s
Ġanti vary
f ull
h C
á Ĺ
in ates
Ġh and
ma te
Ġ[ @
app lic
ff er
Ġmulti ple
Ġ201 7
Ġsh ift
áĹ ®
b oolean
z ation
z el
Ġf loor
Ġc s
ĠP resheafedSpace
app lied
sequ ence
a xiom
i le
Ġa round
ti ces
un pair
ab v
Ġ- ,
po l
Ġv sub
ne ighbor
Ġsub field
ur ent
Ġne eded
ĠÎµ pos
Ġnon computable
Ġideal s
Ġcur ry
2 0
c ar
Ġ '
Ġc g
sub field
ĠH ug
fr ontier
ide m
Ġassoci ator
Ġem b
Ġsur j
iter ated
Ġarrow s
cov by
ĠHug hes
Ï Ī
re flection
Ġp a
pre c
Ġrel ated
Ġbi jective
Ġterm inal
c pow
h w
Ġh el
Ġ} ;
ed u
ĠF q
pow ers
Ġcomp arison
ĠU n
Ġinv ol
âģ º
âĬ ¤
C omp
x or
Î» a
Ġlinear ly
Ġeval u
Ġconver ges
S emi
f ace
h le
h ne
h ÏĨ
Ġg p
ctive ly
Ġen ough
no logy
cre asing
tail s
ti en
Ġ[ ])
Ġr un
ĠP re
ĠD o
anti ate
Ġgra de
bu mp
p game
Ġt rop
Ġf ac
Ġp at
de struct
Ġg re
ce il
ation al
ĠH a
ch ie
bi j
cont s
ĠâŁ¨âŁ¨ _,
Ġoper ator
Ġlog ic
L ocallyRingedSpace
Ġh L
Ġh alf
Ġs pect
Ġx n
ge ometry
ge ometric
qu adratic
Ġfin prod
we ver
bi prod
count ably
Ġuniv ersal
Ġgeneral ize
part rec
Ġvari ant
Ġdepend ent
iou ville
s subset
er r
Ġr ank
Ġe igen
Ġg uard
tin ian
Ġsub lists
equ alities
Ġ... ,
Ġno tion
Ġnn dist
h ÏĦ
s ent
t ree
Ġ( [
or bit
al t
ti mes
ĠK en
Ġen v
cre ates
Ġshow s
Ġpow ers
Ġanal ytic
t ers
Ġs ense
Ġc tx
se e
Ġn d
Ġg c
tri chotom
ĠG ou
lin der
Ġdoes n
termin ated
search able
} ),
Ï ĩ
Ġfi b
th ree
multi ples
zpow ers
c ker
d ot
h j
Ġb er
at he
Ġx y
an e
un k
ĠâĪ Ļ
ĠR ing
ĠÎ² áµĴáµĪ
ĠP oint
Ġfor mul
sum ing
Ġpre form
im on
bas tien
ĠU se
Ġdefin ing
ide mpotent
Ġpair s
Ġcos h
condition ally
P I
] `,
h K
} .
Ġhy z
Ġht s
Ġcl asses
ud on
ĠComp osition
Ġbelong s
* `
Ġin put
ĠS Ã©
Ġhb a
ĠâĪĤ (
Ġrequi res
Ã« zel
ĠGou Ã«zel
ĠSÃ© bastien
b ility
l p
an y
âĪ ļ
ĠThe orem
section s
hx y
Ġlift s
Ġ`( %%
homo logy
Ġpower set
trunc ate
a rou
ma gma
Ġre write
sub ordinate
Ġfi ber
non discrete
Ġ(âĪ Ī
hy ps
Ġwork s
integ er
applic ative
arou bi
b d
e ver
ti zation
po st
Ġd en
Ġre move
Ġsub traction
Ġun bounded
Ġcont rol
ĠâĬ¤ ,
Ġcone s
atom ic
H aus
a p
s a
z ing
Ġ ,
Ġs eg
Ġs imilar
Ġf ound
co bounded
ro ss
ĠA l
Ġst mt
Ġanti diagonal
fraction al
contra variant
rad ical
^ âĪŀ
m ents
z num
Ġf e
Ġr ather
Ġn pow
ĠA PI
ĠL au
hx s
Ġversion s
Ġ_âŁ© âŁ©,
Ġhomo logy
Ġmak es
ili zer
ĠKen ny
P rop
] ))
f also
Ġs ort
Ġf robenius
Ġe uclidean
imp licit
Ġht tps
Ġmon omorphism
Ġequivalen ces
Ġtag ged
" )
@ (
T o
l anguage
| )
Ġ )
on ential
at ri
ul us
Ġin variant
vari ance
ĠG roup
Ġpro p
di a
inci de
Ġassumption s
âĬ ¥
= =
h Îµ
i lter
le ad
Ġh at
co compact
ent ry
ĠS imon
Ġab el
âĦ ĵ
Ġsubmodule s
Ġta pe
Ġla zy
Ġrat func
Ġ(* ))
ail able
H ausdorff
e ch
ħ Ł
ĠâĨĴ .
Ġre plac
ĠE ric
ĠL emma
Ġ`( @
Ġreal ize
Ġuniform ly
** :
Ġru le
Ġ import
Ġ( Â¬
en ess
Ġb c
Ġb ra
Ġr ename
Ġre c
Ġde code
qu iver
cc ur
ĠH udon
ci es
Ġarg s
Ġinfi mum
context ual
d ite
o sing
en cies
Ġc ache
he d
ul ti
st a
Ġin fin
Ġd s
Ġcon cave
ĠA uxiliary
Ġas sert
pre v
Ġlo okup
bin der
rat func
commut ative
Ġrb node
b ig
n ative
Ġe pimorphism
ĠÎ± áµĲáµĴáµĸ
Ġi de
sub semigroup
Ġcomp ut
Ġcomp onents
equalizer s
Ġcof ix
g al
le ss
re me
st acks
Ġd ot
ĠT rans
ho u
di r
Ġeq v
Ġpart s
Ġgl ue
l mul
r one
Ġh ow
Ġt urn
en vel
Ġr s
ar csin
lo b
lim inf
âĪ¥ `
Ġperm utations
ðĿĵ Ł
Ġdiffer ence
metriz able
rone cker
a le
d ent
Ķ Ģ
er ge
Ġp expr
un g
)) `
pro b
Ġ_) ]
tic s
bi a
Ġball s
Ġadm its
colum bia
Ġusu al
b ung
p b
ĠR Ë£
Ġco incide
jective Re
au ge
and id
ĠĠĠĠĠĠĠĠĠĠĠĠĠĠĠĠ ĠĠĠĠ
nn dist
constant s
Ġrepresent ation
chie bung
sta tic
jectiveRe solution
1 9
2 5
a x
b Inter
h orner
p wo
re p
an ach
Ġre duce
Î» p
Ġmap ping
itt en
Ġ(âĪĳ '
Ġdom inated
m y
t prod
Ġh orner
con cave
sub lists
lim sup
val id
Ġz smul
free zing
che s
central izer
Ġdim H
Ġauto matically
Ġh X
Ġb Union
Ġg s
Ġz num
inter mediate
Ġlo c
Ġla x
Ġver tices
Ġwr ite
Ġnonneg ative
Ġnn norm
Ġman ifold
ĠAdd CommGroup
Ġprob ability
] âŁ©,
h at
t uple
Ġ( |
Ġs qu
Ġp ie
Ġin side
as on
ct an
point ed
res h
anti chain
rt ing
Ġcom bin
ðĿĴ ľ
Ġav ailable
I xx
h h
p th
pe dia
Ġv ol
Ġun freezing
bi products
Ġfail s
Ġweight ed
b racket
h R
u ing
Ġl p
ĠN F
Ġcases I
Ġtrans itivity
Ġli b
rting ale
b ol
l ab
Ġa cc
Ġt fae
ti mal
Ġc f
Ġr ational
Ġp empty
ĠâŁ¨ -
ĠðĿ ŁŃ
Ġpro duces
Ġend ow
Ġhome omorphism
Ġtime s
Ġapproxi mat
Ġseg ment
of inite
type in
ff ic
ie w
chart ed
Ġtot ally
Ġ(< )]
athe odory
re state
Ġco py
th ink
Ġperm utation
Ġallow s
* ][
le st
co set
ve ction
Ġw as
con crete
Ġd ig
Ġto o
Ġma t
clo se
âŁ©âŁ© âŁ©
Ġâ¨ ¯
ust er
size of
Ġinterval s
ĠðĿĵ ĺ
Ġ`âĪ ĳ
Ġinclude s
. -/
s noc
Ġh pos
de compose
ĠR et
ist er
Ġde struct
es ian
ĠP atri
iso metric
inf er
ĠĠĠĠĠĠĠĠĠĠĠĠĠĠĠĠ ĠĠĠĠĠ
Ġres pe
eigen space
ĠâĹ ģ
mid point
Ġunfreezing I
ĠPatri ck
A s
L im
a tivity
r cases
u z
Ġs ti
Ġe t
ed s
Ġv s
Ġcan not
Ġneg ation
Ġexp onent
Ġ(âĪ« âģ»
pd f
b family
h P
s ampleable
Ġpo lar
ĠB a
sto pping
factor isation
c mp
Ġ( +)
le v
le besgue
Ġs hrink
ĠâĨĴ [
non degenerate
ol ds
Ġorder s
Ġtra verse
Ġrecur sive
ilter ed
n stein
Ġs olution
Ġf ul
Ġex falso
ot he
Ġun curry
Ġma ch
Ġpre serve
univer se
sym metric
Ġsepar ate
ru les
ites imal
Ġsmal ler
Ġcurr ent
/ `
l am
if tr
Ġre wr
Ġre ason
ĠâĦ Ļ
inter nal
Ġbe en
cancel l
Ġâĸ ·
cle ar
âĢ ¢
Ġver t
Ġsign ed
Ġapplic ation
can onical
ĠDefin ition
E x
h V
s en
s at
u se
} `.
Ġ entries
Ġ_) âŁ©
inter pret
Ġen sure
Ġincl u
Ġsuc cess
Ġvert ex
T here
e ction
m d
m differentiable
Ġa g
is ed
ti ally
con tain
Ġco variant
Ġv add
ans ion
ĠB ounded
Ġ_) ],
Ġintro duce
atti ces
Ġneg ative
Ġno de
ĠâĬ¥ ,
p is
t k
in ct
Ġ( "
Ġa tom
Ġa xiom
Ġc c
Ġre flect
)) ]
ĠS t
ĠS ince
Ġhc d
oo d
Comm Ring
Ġexplicit ly
Ġact ually
Ġful ly
c er
j ordan
Ġt ac
re ss
co herence
ar tinian
ge st
âĤĤ âĤĤ
Ġm y
Ġde tails
ho l
Ġpre c
sheaf ify
cent roid
Ġ# (
defin ition
b ly
r c
t en
an en
de dekind
Ġsimp licial
Ġre st
pro cess
Ġhy p
Ġid ent
arg er
Ġpr int
sym metry
Ġau x
Ġprim itive
bu ffer
Ġdetermin ant
ffic ient
lev ant
' ;
a pt
c cos
e v
h fi
Ġx R
Ġas suming
âŁ¨ _,
Ġbe fore
intro s
am ma
Ġâ§ ı
ache s
art esian
Ġrot ate
cancell able
Î Ľ
re move
Ġx r
Ġp nat
Ġin de
ot ed
Ġha hn
Ġun i
ĠE very
homo logical
Ġconstant s
Ġfactor ization
wiki pedia
ĠDo orn
or ds
ma nn
âŁ© ))
âĤģ âĤģ
Ġhf s
pl ift
stri cted
Ġel ab
Ġqu asi
Ġâ¨ ģ
Ġcons ist
Ġdirect ly
Ġprojection s
ai ring
h int
l s
Ġa m
Ġn fp
Ġg ame
lo okup
Ġre index
qu aternion
ĠâĬ ŀ
## ##
âĦ ļ
lex and
bi limit
Ġdefinition al
Ġeval uation
cod ing
Ġsupport s
Ġcondition ally
ĠComm Mon
pret ty
argum ents
N ormed
Ġ[ ],
ge om
ĠM ulti
Ġpo sition
ir r
che d
Ġaction s
density áµ¥
âĮĭ âĤĬ
artial Order
ĠBa anen
Normed Group
o wever
s z
Ġ 6
ma ss
is omorphisms
Ġ[ -
Ġin dep
iv ing
ĠF r
Ġfun damental
Ġma de
and ard
Ġdo wn
ĠĠĠĠĠĠĠĠĠĠĠĠĠĠĠĠ ĠĠĠ
Ġtrans fer
pullback s
Ġ`âĬ ¥
tract ing
car atheodory
v ig
Ġ` â¨
Ġl ater
Ġre v
Ġy oneda
Ġth ree
pro tect
ari es
Ġsub graph
ĠW ies
Ġcho sen
constru ctor
ĠWies er
( @
Ġa gree
Ġh H
Ġ{ }
Ġ` +
ar ray
Ġd up
Î» n
Ġco lor
ĠC o
ĠL ocallyRingedSpace
ors or
Ġus er
Ġnor malized
index ed
Ġprove d
Ġtrans itive
Ġhu v
complement ed
andid ates
d simp
e lem
h M
m ise
o add
u tive
mp to
Ġg ho
Ġm id
ĠâĦĿ âģ¿
áµ ¤
ca y
pri ate
ha us
Ġar csin
Ġabs or
Ġ(* ),
Ġsimpl ify
Ġconven ient
lob al
Ġpie cewise
othe ty
Ġgho st
j or
Ġs phere
su ch
he l
ra tio
ĠS heaf
ĠF lor
Ġ1 0
ĠG alois
si bly
nor malization
Ġsubgroup s
gra m
ĠAn ne
Ġpart rec
defin ed
Ġexist ence
Ġsti ll
ĠFlor is
] ).
f ect
i pschitz
o st
r ofinite
| âŁ¨
Î º
Ġ( )
Ġh Q
ma tic
al gebras
su ffices
Ġe asi
ri ption
Ġwh ile
Ġcons ists
Ġhomo logical
Ġlog b
Ġsequ ences
] },
ĸ £
Ġ( âī¥
er em
al ong
Ġ` _
Ġin ducing
Ġis ometric
Ġex pand
Ġco ord
ft aylor
ad ow
âĪ¥ ,
âĦ ±
Ġmulti p
Ġdiv ide
Ġspec ific
Ġimp lement
Ġstrong er
Ġsa ys
Ġexpres sed
van ishing
y mpto
Ġp ut
Ġin it
Ġsu re
ĠM ass
Ġun used
Ġhf m
Ġequ ation
ĠW itt
Ġhn m
Ġordinal s
tot ally
Ġbox es
man ifold
enum er
pex pr
Ġdup lic
erem y
P ro
s ch
Ġh Î¶
Ġr andom
Ġl b
con fig
lo c
ho le
Ġse arch
Ġcont ent
Ġdi oph
Ġâĩ Ĵ
weight s
Ġnecess ary
Ġrespe ctively
vig ad
n m
n hd
Ġn c
Ġp d
Ġ} ),
Ġw f
po lar
Ġre flection
âĪ «
Ġ< $
Ġo pow
Ġtactic s
exp ort
Ġme an
pot ency
Ġappro priate
Ġru les
âĭ Ĩ
Ġreg ister
L et
Y ou
c ul
r off
s f
s qu
u ring
âĤ ħ
ing s
Ġl iouville
Ġd ir
Ġre ad
)) âŁ©
pl ane
Ġpre vious
âī ł
min or
Ġfunctor ial
Ġdefinition ally
Ġstar t
Ġcondition s
Ġ`âĪ «
Ġsmal lest
ĠSemi Ring
á´ ´
Ġlib rary
ĠMass ot
G Î´
T hen
c b
t orsor
ĠâŁ¨ _
us ive
âŁ¨ (
mi lies
Ġpar allel
Ġ(â Ģ
Ġsplit ting
ĠĠĠĠĠĠĠĠĠĠĠĠĠĠĠĠ ĠĠ
hp q
cof an
continu ants
Ġste ps
mid t
Ġag ain
lexand roff
o c
p attern
ĺ ),
Ġh ÏĦ
de cay
Ġ= =
dd le
fin prod
ĠM ar
ĠE nd
ĠB o
Ġfilter s
Ġcl ifford
Ġval ued
Ġapp lies
Ġtrans pose
Ġmax imum
ust om
T ODO
] (
i pointed
in ators
it ali
Ġx L
mm er
tri ple
Ġsub list
ver al
ur ally
Ġexp onential
gl ued
)^ (
âĮ ī
Ġblock s
ske leton
âĦĵ p
hel per
. ",
ma rtingale
Ġ` âī¤
Ġof ten
Ġth ickening
op t
'' ]
Ġcount p
Ġout put
bl ack
Ġmid point
' ')
h J
p ush
or ientation
Ġp q
simp licial
Ġo ccur
pre trivialization
ha mmer
term s
Ġintegral s
Ġpr f
Ġimp licit
Ġ. _,
ĠRe interpret
c log
r s
s ion
en sto
re str
Ġc ar
Ġg en
ĠA vigad
Ġ* ]
cl ifford
Ġ(( *)
Ġ_) âŁ©,
Ġequ i
que e
itt ing
ment ed
Ġderivative s
associ ative
projection s
Ġsize of
Ġcre ate
stmt s
ensto ck
on ic
le ct
Ġc a
an al
po sed
simp lex
âĪ ĥ
Ġadd ing
non comm
ext reme
Ġext ended
ĠJ eremy
ha hn
dist ortion
Ġwh at
Ġlo op
âĪŀ `
Ġwhen ever
Ġbot tom
Ġla w
Ġaddition al
Ġkno wn
ĠâĨ¥ (
quiv alen
Ġendow ed
quee ze
/ (
S cheme
b c
h and
Ġh ence
Ġs lope
ul o
Ġre du
ot onic
fun damental
cal l
assu mption
numer al
Ġappe ar
l sub
w is
Ġ_ âŁ©âŁ©
Ġr ow
an n
us er
li que
`. -/
ĠS heafedSpace
ĠP i
trans vec
pos itive
deriv ation
ou rier
separ ating
Ġvari ous
Ġcor rect
graph ic
present ation
dense ly
icken ed
Ġcanonical ly
Ġed ge
cul ant
re turn
Ġc artesian
Ġd ite
ĠâŁ¨ âŁ©,
lt ration
ex pression
Ġfinset s
Ġmon adic
tra versable
ĠO ne
Ġ(â¨ ģ
termin ates
Ġrad ical
reduce d
enumer able
f fix
r an
z eta
Ġb ounds
me an
Ġp ps
as c
Ġg rothendieck
ĠâŁ¨ âŁ©
Ġre flexive
Ġre stricted
Ġon ce
ĠS ub
Ġapply ing
pr en
ĠThe ory
Ġnat urally
ag on
Ġassume s
Ġqu aternion
separ ation
ih il
ĠLe besgue
Ġconstruction s
ĠNot ation
converg ents
Semi Ring
` /`
is im
ti l
co induced
ĠâĪ Ĩ
ve lo
Ġin equalities
Ġex cept
pe cted
Ġth ink
pro ve
Ġde composition
Ġle an
Ġpro duce
âĨ Ĵ
cid ence
Ġse veral
Ġcom ma
Ġac ross
Ġsquare free
Ġess entially
Ġkno w
sch midt
Ġ(âĢ ¢
a z
o ds
t on
Ġf an
em ent
mal ga
hi j
Ġnil potent
Ġsy n
Ġbinder s
stab ilizer
u ration
re i
ti t
se c
âĤ ĸ
Ġb oolean
Ġ` #
Ġp attern
Ġcon formal
ðĿ Ķ
ange ments
cof iltered
ram er
Ġembedding s
âŁ« )
Ġmeta variables
Ġ`âĬ ¤
Ġinst antiate
? )
` [
h X
Ġf requently
en ri
it ch
su c
co cones
Ġg ood
Ġre fle
Ġan alo
Ġco variance
ĠâĬ Ĥ
vari ate
non ym
Ġma th
Ġequ alities
Ġlo ok
Ġst andard
Ġhg f
Ġsome times
ell ing
Ġterm inates
hn f
ĠâĪŀ ,
Ġcom bination
Ġsy low
conv olution
she aves
bra ided
Ġdig its
h ickening
r k
Ġ 8
Ġh ÏĢ
Ġf oo
re fle
ct hickening
Ġm b
et ter
Ġcon verg
Ġco cones
Ġpo ly
ĠThe se
str act
Ġgener ates
Ġfact s
tom orphism
^âĪŀ âŁ®
Ġet c
Ġmach ine
Ġprec ise
ympto tics
ihil ator
P i
a verage
f ection
s cale
w hnf
Ġ 7
Ġh is
Ġf l
ti cal
Ġb icategory
ab elling
to tient
Ġg lobal
Ġy R
Ġy n
li ght
ut ually
Ġal ist
ber t
âĪŀ ,
Ġevery thing
ug ates
bool alg
Ġwr itten
Ġprob lem
Ġdifferenti ability
Ġconsist ing
H S
m f
o sed
Ġc er
co lex
st or
Ġm ight
Ġre aches
ex cept
âĪ ħ
ĠâĪĢ {
Ġhas h
Ġhf x
Ġmem bers
ĠÃĹ [
Ġimage s
Ġstructure d
bin om
dim H
bo ur
Ġanti lipschitz
Ġconv olution
Ġnumer ic
Ġpl us
Ġber noulli
c supr
s Inter
s atis
u ch
Î ¾
â ĶĢ
Ġh Î±
Ġp Set
Ġin formation
iv ity
pe d
Ġre fer
ĠF in
Ġun ity
Ġun trop
Ġintros I
ĠĠĠĠĠĠĠĠĠĠĠĠĠĠĠĠ ĠĠĠĠĠĠĠ
conj ugate
pt s
dom inated
Ġalter native
prec ated
Ġspect rum
trichotom y
prob ability
Ġmath lib
c ri
m erge
r ence
Ġs f
âĤ ķ
Ġ` ``
Ġn p
ĠâŁ¨ {
mk pair
support s
vert s
Ġad ded
Ġ(- (
ĠLe wis
Ġtrunc ated
ĠSemi NormedGroup
ðĿķ Ĥ
pol ish
Ġ(âī¥ )
` '
y n
Ġa way
or us
Ġc thickening
co products
Ġn a
ac ent
ser v
mk q
image s
ir st
Ġlo cale
Ġdim ensional
ðĿĴ °
Ġfe w
a v
e omorph
m l
p functor
s or
Ġ` |
Ġd unfold
ĠÎ» x
Ġde dup
ĠS e
ĠE i
il bert
th ere
Ġbe co
rel index
Ġlift ed
The ory
rec ur
Ġcom on
Comm Mon
pen cer
Ġnumer al
ĠâĮ Ī
D e
b sup
f our
r and
w ice
Ġ( _,
Ġh sub
or else
is sible
en at
Ġb etter
Ġy L
sub category
ch hammer
ĠâĪĥ !
rel ations
Ġih n
ĠðĿĴ ¢
pres ents
Ġexample s
Ġbu ild
Ġgl ued
Ġtra iling
Ġvan ishing
Ġdifferenti al
Ġinher it
Ġgre ater
" .
f ic
i b
p kg
s range
âŁ ª
Ġl f
Ġl attices
Ġg auge
ĠM Ë£
Ġcon fig
Ġv ars
Ġpro ving
ad r
Ġhi gh
Ġcommut ator
seu d
Ġsym bol
Ġcom mand
absolute ly
Ġske w
ĠLemma s
) âŁ§
F in
c ase
f oo
h G
l ing
r arily
t gt
in c
er ror
Ġt p
Ġt á¶ľ
Ġf n
Ġ_ )))
co atom
Ġin dic
Ġun ify
ĠE quivalen
log b
Ġpre v
sup s
ener al
ke y
Ġexists i
bit rarily
ĠðĿĴ ¥
Ġdomain s
Ġ(_ |_
cor rect
Ġnontrivial ity
whisker ing
measur ably
pex t
Ġsuper polynomial
Ġdivide s
Ġequi pped
l int
Ġ Â
Ġ /--
on ly
Ġ` <
ĠÎ± Ë£
Ġm sg
Ġre levant
Ġhx z
ĠH e
trans lation
Ġma gma
semi conj
Ġdef eq
Ġor bit
char poly
Ġfr act
sort ed
Ġcheck s
Ġ[* ]
flex ivity
Ġ(+ ),
Ġcentral izer
pren ex
rei man
a ys
t p
u pp
Ġh old
er ior
en v
Ġp kg
de cor
Ġin fix
Ġl r
Ġre presents
ĠM a
ĠA nd
ĠâĬ ¨
val ues
ĠN ow
Ġ" `
tis pan
ĠĠĠĠĠĠĠĠĠĠĠĠĠĠĠĠ ĠĠĠĠĠĠ
Ġfa milies
sol vent
Ġâ¨ ¿
wh en
interval s
vers chiebung
Ġhol or
Ġdivis ors
ðĿĴ ¢
Ġtrunc ate
metriz ation
Ġparame ter
orig in
contain s
^ {
m vars
Ġ ####
Ġa verage
co yoneda
ar ctan
con formal
Ġv iew
ta pe
lift ing
Ġhom s
Ġfile s
multi cospan
Ġgeneral ization
Ġcount ably
Ġimp lementation
Ġrequi red
bl sub
dep th
commut ator
Ġparame ters
bra iding
post compose
Ġden oted
apt ed
Ġ<$ $>
Ġcomon ad
0 1
o v
Ġp qs
ar ts
ar bitrary
end omorphism
Ġg iving
Ġu b
ĠL o
Ġst d
Ġnon comm
Ġgener ally
ym metrization
disjoint ed
Ġmin imum
Ġstar ting
Ġspec ified
Ġcy clic
oper ator
Ġconsider ed
converg ent
adr ant
! )
a way
e il
g f
m range
p at
p airing
u is
re flexive
Ġha ving
Ġpo st
mi ddle
ant or
functor ial
The se
Ġâĭ ĸ
cy linder
Ġsing ular
Ġcontra variant
defin able
hou gh
otonic ity
a malga
f mt
g o
á ĺ
Ġa ug
Ġf ast
ti an
Ġ{ (
Ġr r
Ġp ushforward
if unctor
Ġon to
ĠL ift
Ġpre fix
ob er
Ġhc b
Ġar bitrarily
bor nology
Ġcorrespon ds
Ġdepend s
Ġsection s
Ġlevel s
trop ical
Ġbor el
ĠRet urns
áĺ ģ
! ,
5 0
: =
h Ïĥ
Ġs he
Ġc Inf
Ġr ay
Ġl ong
Ġsu fficient
Ġco product
ut ter
Ġsub structure
Ġma jor
Ġpre term
Ġpre sent
par ame
Ġderiv ation
cof ix
Ġspan ning
Ġcompact s
Ġfraction s
sy low
square free
ske w
Ġhel p
ĠPoint wise
uz zy
ĠDefinition s
Ġinde ed
) },
f resh
h H
l inter
on ment
le y
Ġe a
ce ch
Ġan tis
op timal
Ġde pth
space s
Ġat las
pre mise
ur ther
ir onment
Ġpre fer
te mp
Ġ/ .
not e
Ġor ientation
ĠZ F
mod ify
Ġâĭ Ĩ
hm n
Ġver y
Ġsy nonym
Ġsay ing
colum n
Comp Haus
T M
Ġ ;
Ġs ta
Ġs ized
Ġb sup
of unctor
lt ensor
ction s
Ġo angle
Ġ(( -
ĠB anach
par se
gener ator
Ġ_âŁ© ),
adj ugate
bool ring
lib rary
err ors
ran ch
L hom
M o
h ip
t fae
it able
Ġx t
ar on
un used
end re
der son
ĠA aron
ĠB or
di ces
diff eomorph
Ġmo deq
Ġop lax
ĠĠĠĠĠĠĠĠĠĠĠĠĠĠĠĠ ĠĠĠĠĠĠĠĠĠĠĠ
exp ansion
ĠAn derson
Ġver ify
Ġrepresent ed
Ġpigeon s
Ġbra ided
1 1
in cidence
Ġh meas
Ġ` âŁ¨
ic s
Ġv ar
Ġhx t
ĠK ev
ir d
module s
Ġpre serving
Ġhy x
Ġab breviation
ck et
char acter
ĠâŁ¨âŁ¨ âŁ¨
Ġsemi reducible
Ġdecl are
Ġsa id
Ġapplic ative
Ġsuc ce
Ġrot ation
Ġchart ed
Ġeasi er
ann ihilator
ĠKev in
h N
l ate
n c
r andom
s lice
s pencer
Ļ ¯
Ġr l
Ġl abel
pe ated
Ġw ords
Ġm map
li as
Ġde si
Ġâī¤ [
ĠP rofinite
Ġun f
Ġ_) ;
Ġst ack
count p
Ġtrans lation
Ġbi j
Ġbi products
incl usive
dis connected
Ġresult ing
Ġ. _
âŁ« _
Ġneed s
Ġrespect s
Ġinher its
1 2
c lique
h Î´
k ts
l ass
n im
re striction
ti dy
Ġp seud
con cat
Ġy et
Ġset ting
ut es
Ġk aroubi
ĠH owever
ĠL ipschitz
Ġcl uster
ph er
kernel s
Ġspec ify
la urent
Ġ[( âĪ
atom s
ĠDe fine
Ġcir cum
Ġsy stem
balance d
Ġes ti
âĭ ĥ
Ġnecess arily
ĠAl gebra
T C
g uard
Ġh E
Ġex pl
Ġâī º
ĠC h
ĠP ol
pre sieve
mi tian
di oph
ĠÂ¬ (
vers als
Ġau tomorphism
com bo
ru le
Ġact s
Ġge om
Al g
Ġremain ing
sa lem
ĠTrans fer
âĢ¢ )
suc cess
D ist
g rothendieck
k in
} "
} ;
} ))
Ġs cale
Ġb ased
Î» i
Ġde grees
def s
mo de
smul âĤĽâĤĹ
hf s
ĠIn t
ĠO n
Ġhomo topic
Ġdis j
Ġinfer ence
man ds
Ïī Sup
Ġbl sub
Ġbor nology
Ġconfig uration
upp ose
h ing
} `,
Ġb a
co structured
Ġg i
âĤģ âģ°
et h
Ġ* >
ĠS how
ĠB as
ĠD áµĴáµĸ
au g
am ing
Ġapp rox
fix ing
Ġbit vec
decl s
Ġmat ches
ĠMar k
ober t
n fp
z multiples
â ħŁ
Ġx l
Ġg t
Ġex pect
pe ll
ĠR obert
ĠM ac
ut ing
ĠF irst
neg ative
Ġat tr
Ġma rk
polog ies
Ġhy s
Ġone s
Ġdist inct
Ġadj ugate
igh bour
Ġconj ugate
Ġsepar ation
ĠComp act
Ġtransformation s
Ġrewr iting
ighbour ho
. _
G L
S heaf
U n
Z MOD
[ âīł
b icategory
Ġh mem
ĠÎ ¨
ĠÎ ©
con str
Î» y
Ġco structured
th d
Ġ(( <
ir thd
lift s
Ġtype classes
'' }
Ġelement wise
bin fi
Ġassoci ative
ĠhÎ¼ t
Ġfactor ial
Ġtrop ical
Ġredu cible
[âīł ]
$ .
< ]
[ <]
a ker
c g
g m
Ġ entry
in fin
Ġh ex
Ġf our
en ne
Ġb t
lo at
Î» s
Ġfor ward
ĠL im
Ġfi ltration
hf m
âĪ¥ ^
not eq
Ġindex ing
ĠâĪħ ,
âĢ ¹
bound aries
initial ize
Ġcontinu ed
coequalizer s
ĠâŁ© ,
Ġjoin ed
sent ence
Ġsort ed
Ġinfin ity
P artialOrder
` "]
k ronecker
m var
Ġf rame
se ct
Ġ` *`
ro d
Ġl arger
Ġm l
id ual
Ġcon verse
tr ac
ĠF âĤĹ
Ġcomp ute
ext ends
mi r
ds lope
Ġhs c
par ency
Ġ`( -
Ġih y
Ġcoeff s
Ġ_âŁ© ;
Ġer ror
rot ated
sh ort
argum ent
Al gebra
dir ac
ĠMulti plic
+ }
> .
a ve
b isim
h al
h ang
on t
Ġh int
Ġt re
co insertion
Ġp map
de grees
Ġex tract
Ġm n
ra verse
Ġfin map
ĠB e
for mul
for ward
ere o
Ġnon degenerate
ĠÎł i
Ġ:: :
Ġhj k
Ġanti periodic
element ary
Ġdepend encies
tag ged
hÎ¼ s
Ġpat hs
unk s
light ly
Ġcer tain
$ $
1 00
l st
m sg
q pf
Ġâ ħŁ
Ġs ent
Ġs ampleable
re present
Ġp functor
Ġi hx
Ġin dices
Ġ} .
`. )
ĠS em
Ġfin partition
trans versals
pr f
Ġequ ations
Ġtype in
ker ase
ÏĢ i
rt ensor
Ġcy linder
Ġdistrib utive
---- ----
Ġty p
Ġelab or
ĠFr Ã©
decor ate
) |
g endre
Ĥ [
Ġ_ ]
co graphic
Ġn b
Ġp sq
imp lies
Ġin version
if olds
Ġre solution
gh as
ðĿ ŁŃ
ne ar
ĠH s
ĠH ere
trans fer
par tially
inter edges
af e
Ġclo pen
Ġop t
Ġqu anti
Ġtrans vection
fa iling
Ġtri es
Ġbo dy
Ġoption al
ensional ity
Ġhj i
ĠO rder
âĤĻ âĤĲ
Ġcent roid
Ġinteg ration
rn g
eigen value
Ġweight s
Ġusu ally
ech n
ĠPol ish
irthd ay
) /
V ect
h Î¶
i cov
l b
n iz
p fun
r d
Ġh Î¹
Ġt wice
Ġc eil
se l
ro matic
Ġe b
ar sinh
un ify
Ġ} ]
ed i
ĠA dam
qu eness
ĠN ash
ol Alg
Ġma the
ere st
Ġfilter ed
Ġnon pos
depend s
ĠâĪħ )
âĢ Ŀ
ĠðĿķ Ĩ
ategor ical
Ġpigeon hole
bd as
Ġassert s
Ġcombin ator
Ġdesi red
icov itch
G amma
i lt
k aroubi
l iver
q f
Ġh D
ĠÎ ¾
Ġ` ,
co image
Ġp ick
un bounded
st able
ve q
Ġw ays
fin map
set up
tri ang
Ġint erest
Ġpro pext
pre irreducible
ch ild
Ġwe aker
rib Lattice
iform Space
Ġne ighbourho
Ġinter nal
ĠÏĢ i
depend encies
ĠâŁ¨âŁ¨ âŁ©âŁ©,
ĠO liver
bound ary
ther wise
Ġper form
ĠPro duct
ĠâĹ ĥ
ĠâĹ ĭ
Ġed ges
Ġenv ironment
canonical ly
Ġaxiom s
Ġanalo g
H a
s ki
s rc
} {
Ġ measurability
in ation
Ġh Z
Ġs b
Ġs to
or ith
is hes
re main
Ġex pected
fin ement
ĠâĦ ³
id enti
Ġco chain
Ġth ird
der angements
Ġde compose
ĠâĨĲ (
Ġadd s
âŁ¨ {
ĠB y
Ġhs f
rel abel
Ġtrans port
antis ymmetrization
ak i
Ġpullback s
arith metic
Ġrb tree
special izes
Ġra tio
Ġmak ing
ðĿķ İ
ĠHa ar
Ġinclu ded
ib niz
mir ror
' ll
) !
] âŁ©âŁ©
a im
c ular
s á¶ľ
u ble
v on
y lor
Ķ Ĥ
Ġh Y
er g
Ġb S
Ġb not
Ġb racket
Ġco yoneda
ent agon
Ġde al
hom othety
Ġas ymptotics
ta ylor
Ġab stract
ĠU V
Ġend omorphism
Ġhc s
Ġcl au
ber noulli
ach able
nil potency
Ġtri m
Ġpos sibly
Ġsemi continuous
Ġsubmonoid s
ĠTop az
Ġbound ary
Ġrepresent ing
direct ly
Ġman ifolds
Ġappe ars
== ==
Ġide mpotent
Ġatom s
infin itesimal
orith m
1 0
m op
n cat
o cus
Ġt m
Ġt prod
ma trices
su ffix
co complex
Ġp x
Ġp mf
Ġe ff
Ġis su
Ġl mul
Ġy r
ĠM ic
Ġcon cept
Ġco compact
Ġco herence
ĠA pply
Ġde duce
qu asi
Ġhx b
ch ner
ĠN o
Ġ(( âĢ¢)
ĠB oolean
ĠâĢ ľ
Ġ| (
unit ary
ĠQ u
Ġshow ing
Ġimp lic
Ġinverse s
Ġcof inite
nodup keys
ĠComp Haus
ĠComm Group
Ġact ual
lar ge
á´ ¸
ĠPoint ed
binder s
Ġsqu ares
ĠBor el
pher ical
ncat lab
+ *
b eth
b aki
d f
i ence
l sum
n a
x l
Ġs at
Ġs lightly
is en
Ġf split
Ġc Sup
Ġ_ ],
as ymm
Ġw ord
ĠM at
Ġco vers
inv ol
Ġmo ves
Ġinter pret
Ġcl aim
ak ing
bo dd
ortho center
Ġout side
spect ral
arrow s
Ġ(âĬ Ĩ
la zy
âŁ§ ,
Ġconstructor s
Type s
Ġcategor ical
Ġappro ach
Ġrb map
general ize
Ġhome omorphisms
Ġapplic ations
math lib
test able
hol ds
Ġuni tization
Ġ`âĬ¥ `
ĠMac beth
c u
in ary
le quiv
Ġh in
Ġh div
Ġs ample
re solution
Ġc andidates
Ġ[ _
ar range
mul tispan
Ġl sub
Ġex press
Ġy i
Ġpro g
ĠH im
ĠL inear
Ġpre connected
Ġ| |
ĠJ áµĴáµĸ
âĤĥ âĤģ
Ġname d
ĠâŁ¨âŁ¨ âŁ©âŁ©
Ġunit ary
Ġdis cr
Ġmod ulo
ĠLe ft
áµĥ áµĴáµĸ
Ġgl uing
ĠNot ations
Ġapproxi mation
Ġ& &
functorial ity
ĠâĭĨ [
Ġ((< )
p q
s ites
Ġâ Ļ¯
Ġc are
Ġn pos
ro s
Ġ- >
Ġre peated
sub perm
comp utation
simp l
Ġon ote
ĠC at
ch imedean
Ġq qs
local s
The ta
Ġmulti equalizer
depend ence
âģ ±
Ġqu adrant
pred ic
hb c
dis cr
ĠCon vert
ow ski
Ġcorrespon d
Ġfail ure
man tically
Ġcol um
trunc ated
proof s
Ġimplement ed
ĠHe ather
amalga mation
hal ves
: +
c f
g gest
n lab
} ).
Ġa k
Ġh W
Ġh su
Ġs Union
is es
Ġc log
Ġb ases
it ness
su mes
me l
un i
Ġin sertion
âŁ© ]
ĠR áµĲáµĴáµĸ
Ġre ally
ĠG et
ĠG eneral
Ġun bundled
Ġpro ce
Ġhy per
Ġnor malizer
Ġ_âŁ© )
her mitian
cycle s
multiplic ation
Ġhol der
Ġcir culant
Ġrepresent ative
Ġres p
ĠEx t
Ġsubspace s
Ġsemin ormed
trichotom ous
Ġimport ant
Ġbra iding
Ġprecise ly
ĠMark us
isen stein
ĠHim mel
l cs
p hs
in s
Ġs i
Ġs noc
âĤ Ĵ
Ġl l
Ġl atter
Ġg r
Ġw alk
Ġsimp ly
Î» b
Ġan ce
Ġto pologies
Ġco products
Ġco ordinate
Ġth in
Ġth us
Ġha d
Ġv ers
ĠS o
Ġk ronecker
Ġ< :+
ĠH L
ĠH el
âĪ¥ âģ»
Ġcomplex es
ug ation
gl uing
âĪ¥âĤĬ )
Ġla urent
Ġconstruct ing
atter ns
Ġside s
Ġabsolute ly
tect ing
stab l
Ġhigh er
L in
± ¼
Î ĺ
â ±¼
Ġx gcd
Ġn im
un def
de ps
Ġi mmersion
if ies
Ġm fderiv
Ġre ct
Ġre flexivity
Ġco mes
ĠS tructure
ĠE uclidean
inal ly
Ġlim sup
Ġtrans parency
Ġalg orithm
Ġfactor isation
ĠÏī Sup
result s
Con struct
Ġinfin itesimal
Ġshe aves
e very
l smul
w rt
x L
le is
le vel
Ġs l
Ġs r
Ġf urther
Ġc d
un sat
âŁ© `
comp at
ðĿ ĸ£
ĠC lass
ut ure
comm on
Ġintro I
ci bility
Ġhi k
Ġend omorphisms
Ġpar am
Ġinter sect
Ġse p
Ġelement ary
Ġsome thing
Ġmulti variate
Ġquotient s
Ġreturn ed
Ġchar ts
ĠEx ists
Ġske leton
pol ate
Ġber nstein
Ġapproximat ed
Ġapproximat es
satis fi
leis li
H enstock
I mplementation
r intro
s num
u ra
u ild
Ġa lias
Ġh Ïģ
Ġt echn
ro xi
as y
Ġex tra
Ġâī ¼
ĠR el
Ġy l
ĠM ore
Ġcon cl
Ġsub martingale
ĠâĪĢ (
Ġun sym
trans vection
Ġar chimedean
mon ge
multi equalizer
Ġad apted
âŁ©âŁ© )
expr s
unital ity
Ġmatch ing
âĤĽâĤĹ áµ¢
ĠâĨª [
sh adow
hu v
Ġbu cket
Ġhome omorph
parame ters
Ġbt w
predic ate
> )
e pimorphism
f ound
f rame
g iven
h L
h alt
n p
Ġt uple
en coding
âĤ Ī
Ġp lift
Ġe stabl
ĠâĪ ł
Ġin creasing
ct x
Ġm utually
act ers
id get
Ġha ar
ĠE m
Ġat temp
val u
subset s
Ġpre sheaves
Ġst ated
Ġ(âĪ ĺ),
Ġgener ators
Re p
âĪŀ ))
erase p
Ġterm inated
Ġcalc ul
Ġper fect
fy ing
Ġuniver ses
inst antiate
Ġ9 00
Ġgre atest
Ġspect ral
Ġinclu ding
8 0
: (
c infi
h Î¹
s ider
z ag
Ġh sum
Ġh im
Ġt expr
Ġf b
Ġf apply
ti ce
Ġ` ]
eq s
map p
Ġg u
Ġm d
fl at
Ġto tient
)) ],
pro g
Ġsub category
âĪ ı
fi elds
ho se
ta x
ĠÎ¼ a
ĠN on
Ġext ensionality
ĠThe y
sto pped
âĪ¥ ))
âĤĥ âĤĤ
Ġnor malization
ĠÎ´ pos
gener ic
Ġoper ators
match ing
ĠâŁ¦ (
Ġbu ilt
circum radius
Ġequalizer s
Ġcore c
NF A
Ġ([ ],
Ġ`+ `
haus dorff
Ġabsor b
Ġabsor bs
ĠBo chner
anal ytic
Ġ(âĢ¢ ),
ĠAnd re
Ġesti mate
Ġance stor
9 2
C o
C áµĴáµĸ
x p
Ġf loat
Ġ_ `
Ġx a
Ġx i
Ġp as
imp le
if p
Ġm s
Ġm uch
Ġd enumerable
ĠâĦ ¬
Ġha pp
ĠP ullback
ĠL a
ĠL hom
Ġhi p
ag ain
') ).
Ġnorm s
Ġdefin able
ss age
bi us
hi gh
Ġcor ners
Ġcheck ing
áµĥ âģ±
Ġneighborho ods
Ġinductive ly
eigen vector
ĠCompact um
a der
e approx
s ized
w ork
Ġa ble
Ġt orus
ĠÎ Ļ
it al
at ure
Ġn ice
Ġn olint
Ġp ass
ar ity
ac cept
Ġth ough
)) âģ»
ĠA r
ĠS uppose
ch ment
trans port
let al
pr ank
Ġ(( @
ĠB ipointed
bot tom
ĠD er
enti re
unt rop
ĠÎł a
coeff s
am ental
und amental
ĠIn jectiveResolution
star t
Ġthere fore
cover s
desc ription
hi le
cor respon
Ġexist ing
ĠPro jectiveResolution
Add CommGroup
Ġinvol ving
tit ude
av id
Ġaug mented
ĠHel per
A ction
S ome
` -/
r find
r bt
s kip
Ġh mul
Ġt urns
Ġf ace
Ġ` *
Ġe asy
Ġof f
mm ing
ĠA b
Ġde velo
ĠF inite
Ġint ended
Ġk ee
Ġhx u
pre compose
real izer
âĨ ĳ(
ir rational
Ġwh nf
Ġne ver
per fect
Ġar sinh
ĠâĨĴ+ [
Ġmultiset s
fr ac
lin es
Ġcount er
separ ator
sqrt d
Ġsemiring s
Ġpredic ates
Ġsubobject s
âĪħ ,
Ġantis ymm
ĠSem ilattice
Ġpas sed
rbt ree
' âĪ¥
b not
c end
s co
s queeze
t m
w all
Ġa grees
Ġt k
al an
re vert
Ġc ustom
âĤ ĭ
Ġb ad
Ġm is
ĠâĦ ĵ
ĠT h
op rod
ĠA áµĲáµĴáµĸ
ĠG rothendieck
je c
Ġhx U
trans formation
ĠV itali
rel abelling
ore an
Ġmulti ples
und y
Ġreal s
Ġcom ing
Ġdec or
âŁ§ )
com mand
Ġke ys
Ġwork ing
ĠDe dekind
ifi er
constru ctions
Ġbl ank
ĠUse ful
Ġbeco mes
H ere
b ine
f uzzy
g p
h lt
s m
in to
Ġa lexandroff
Ġs low
Ġt end
ma ry
Ġ` âĨĳ
ar ccos
un failing
Ġ} âŁ©,
pe mpty
Ġd list
lo de
id ent
comp r
Ġco er
Ġth ickened
Ġha x
Ġv on
ne cess
ĠG amma
Ġpro ven
ĠY ou
th ag
Ġ(( âī¤
bot h
Ġhp s
Ġst ating
ig zag
Ġse em
Ġpoint ed
Ġlim inf
Ġsem ilinear
sult s
ht ml
Ġexp R
Ġcalc ulus
Ġcomposition s
Ġconstruct s
ĠComm SemiRing
decl ar
Ġbu mp
Ġnumer als
Ġ``( %%
Ġdenom inators
hol der
squ ares
squ ash
enri chment
serv ation
Ġsucce eds
arrange ment
again st
Ġ((âī¤ )
C at
C auchy
P oint
b ar
b supr
d art
d arts
g old
h Q
i j
s btw
Ġâ ĶĤ
Ġs btw
ar ning
ce d
add ition
Ġcon cat
ĠÎ» a
ĠI s
ra versable
ĠâĬ ļ
ĠP E
ĠðĿ ĸ£
Ġpro cess
ĠH ilbert
trans itive
cl uster
non sing
Ġhf a
Ġ-- -
be cause
ĠZ hou
Ġar ray
res pect
Ġmin or
Ġchar acters
denom inators
Ġ_)) ),
Ġfix ing
mv functor
Ġtra versable
Ġsqu ash
Ġrecursive ly
refle ctive
Ġprefer red
ĠBas ic
remain der
thag orean
B o
] :
c ustom
e c
e k
g inductive
h D
v ol
on ym
Ġs x
Ġs num
Ġt e
is omorphism
Ġ[ ÃĹ
Ġb kts
Ġn z
Ġin s
Ġin dependence
ri g
one s
ĠT est
Ġco eq
Ġde creasing
ĠE valu
ad m
Ġintro duced
Ġpre trivialization
diff erenti
ĠD avid
Ġbe havi
Ġâīĥ [
Ġequiv s
Ġst ab
ĠW equiv
Ġop timal
Ġdi ame
âĪŀ ]
Ġ~ [
Ġmod ify
sh iftr
integ ers
Ġhel per
Ġformul as
Ġreplac ed
hed ral
Ġcoincide s
Ġuni queness
Ġduplic ate
cri min
ĠEquivalen ce
sel ves
uni tization
onym ous
Ġbehavi or
' re
+ +
6 0
B ipointed
S ince
a compact
a lexandroff
c andidates
e ps
g s
i ties
t support
w ord
© ¿
Ġh Î½
Ġs p
is omorphic
Ġc supr
Ġin fty
Ġ} }
Ġ} ))
Ġw ere
sub seq
ĠC re
Ġfin al
Ġas sign
ĠD i
Ġ" ,
Ġhg i
Ġâĭ Ĭ
ak ia
calc ulus
Ġsh adow
stru ctor
ĠâĢ¹_âĢº ,
Ġrecur sion
Ġcoequalizer s
Ġconven tion
fail ure
Ġcurr ently
Ġam bi
Pro j
âĮī âĤĬ
Ġrefle cted
Ġmembers hip
Ġclau se
ĠAndre w
declar ation
' '.
) âĪ¥âĤĬ
H s
_ *
b ors
g auge
i mi
l m
n add
Ġ ]
Ġ entire
le ction
ma s
re param
re plac
Ġc ot
de lete
ĠâĪ ®
ct ure
ce ption
lt hough
ĠM áµĲáµĴáµĸ
)) `.
by she
coe s
ĠY ang
th in
pr int
lf p
Ġpre served
len s
Ġnon archimedean
Ġlift p
Ġar ctan
ie mann
ber nstein
ive s
Ġtrans form
hy z
ĠRe strict
igh bors
ick son
âģĨ ,
)^ [
Ġrequi ring
Ġper fection
Ġadm issible
color ing
Ġremain der
Ġnotion s
Lim sup
Ġseparate ly
Ġ`âī¤ `
Point ed
byshe v
) "
] âĨĴ
h ÏĢ
h meas
k ing
p equiv
t l
u x
w app
y le
Ġâ ©¿
Ġh it
Ġs queeze
Ġf resh
âĤ Ĩ
Ġb d
co ol
co atomic
Ġp fun
ab et
Ġis n
âŁ© |
ce xp
Ġco image
ex ist
ex plicit
Ġun til
Ġle af
Ġpro ject
ĠH f
il on
app roxi
Ġâīĥ .
ang ing
ph abet
embedding s
anti periodic
object s
ĠâĨĴ* [
Ġmv functor
Ġedist ance
Ġtak en
ĠðĿĶ ¼
down ward
under lying
Ġconven ience
infix r
Ġemb ed
lam bdas
Ġcoord inates
rig id
ĠâĭĬ [
Ġambi ent
* ,
L an
O f
T ry
i get
k o
w covby
on gest
Ġh add
Ġh deg
Ġs subset
Ġs rc
re f
re fine
re solvent
âĤ ĵ
it nes
Ġp entagon
de comp
Ġi x
po chhammer
comp ares
Ġco v
ĠS L
ĠS âĤĺ
ĠF undamental
ne ighborho
Ġle gendre
Ġo add
has h
ch romatic
Ġcomp ress
âĪ¥ `.
Ġnot hing
Ġhom othety
Ġen coding
Ġgener ic
Ġshow n
Ġtri dent
Ġbit wise
Ġget s
Ġsur real
element wise
cum ent
Ġ`âĬ ¢
Ġman age
Ġsie ves
Ġdenom inator
Ġlarge st
Ġenum er
Ġproposition s
Ġcomput ed
ĠBounded Lattice
ĠZF A
Ġ[(âĪ ĺ),
ĠMultiplic ation
edi am
identi ty
Ġstab ilizer
Ġcot ri
) âŁ©)
S ch
b oo
e p
e bius
h op
m s
u to
x gcd
¤ ³
Ġâ ¤³
Ġs Inter
is ion
re traction
co domain
an te
ar ante
ul ated
Ġg al
con f
ic ategorical
comp osing
Ġcon nection
Ġco pi
Ġco simplicial
li ou
ĠI I
ra gm
equ ations
th ickened
dist inct
Ġhy ps
Ġwh y
Ġgener ating
Ġcont s
Ġrel ative
Ġdisjoint ed
dim ension
Ġunit ors
ak ov
adj acent
Ġassoci ativity
fraction s
ĠâĨĳ( (
ĠRe sults
Ġbundle s
Ġme t
Ġidenti fi
com ma
Ġwr iting
Ġtest able
ĠPro ve
âŁ¯ )
weak ly
shift l
Ġeigen space
âĬ¥ ,
Ġindic ates
Ġsta tic
Dist ribLattice
Ġanalog ous
Ġdecor ate
crimin ant
ko lem
liou ville
ragm en
K ur
h ac
r en
x n
Ġ @[
in eq
Ġâ ĶĢ
Ġh irr
Ġs it
Ġt mul
Ġc pos
se mantically
Ġ[ [
Ġ[ âŁ¨
âĤ ļ
Ġx z
to ura
Ġl ies
Ġg b
fin ish
Ġre formul
ono metric
Ġ* ;
Ġde st
Ġde comp
Ġun if
Ġun ary
Ġun ification
Ġhx a
ch unks
trans late
ate ll
ĠB ut
Ġ.. âĢ¹
Ġ" "
Ġdo uble
Ġen ri
Ġ... `
Ġ@ @
Ġse lect
ĠĠĠĠĠĠĠĠĠĠĠĠĠĠĠĠ ĠĠĠĠĠĠĠĠĠĠ
count er
ym metric
anti distrib
anti lipschitz
localization s
Ġâ¨ į
Ġmv pfunctor
âĢ ĵ
oper ations
Ġdense ly
** .
Ġ/- "
Ġcolle ct
dig it
Ġcall s
Ġcontrol led
âĶĢ >
âĶĢ âĶĢ>
Ġpsq s
Ġneighbourho od
erg ence
Ġproce du
Ġmanage ment
Ġcotri dent
ĠâĶĢ âĶĢâĶĢ>
) ?)
* âĪ¥
[ âī¥
] )).
b ifunctor
c ut
g onometric
i k
n norm
r ability
Ġh ca
Ġh itting
Ġs can
Ġf ocus
ti te
un til
ing uis
Ġl am
iv ative
ĠâŁ¨ [
Ġy our
ĠT urn
ĠM ou
gh ost
pac k
ĠS ome
ne ighbors
ation ary
ĠP artialOrder
order ing
ĠE ach
Ġmap ped
ĠL attice
cal ate
non inc
pos sibly
ol l
Ġma ss
ĠB uild
Ġq pf
par tite
Ġring ed
Ġhp x
Ġinv olutive
Ġar ccos
ang er
mod ular
Ġdesc ription
ry st
Ġeval n
ak es
cur r
Ġchange s
che t
mat es
home o
unction s
ĠCon sider
ategor ies
att en
ĠðĿĶ ł
change d
Ġac cess
trunc ation
bt wn
integ rand
Ġge ometric
Ġcoercion s
Ġexpres ses
Ġ<+ ~
Ġinvol ve
Ġevalu ating
Ġcar ries
Ġsyn tax
Mo ore
Ġcircum center
aug mented
Ġmark ed
Ġml list
trac tible
atell ite
[âī¥ ]
inguis hed
ĠMou ra
k y
p sum
v s
y thagorean
Â »
on ard
is imple
ti fic
Ġ_ *
ĠâĨ ĵ
Ġp ur
Ġp pred
Ġe e
de termin
ĠâŁ¨ @
ot a
ĠT ho
Ġde sign
Ġ$ \
`. ",
es icovitch
ĠH enstock
non archimedean
ĠB art
Ġmem ber
for med
integral ly
)] ;
ĠW ith
Ġht u
Ġpar sed
bit raverse
ĠĠĠĠĠĠĠĠĠĠĠĠĠĠĠĠ ĠĠĠĠĠĠĠĠĠ
ĠO therwise
Ġequivalent ly
ĠRe id
game s
cokernel s
ĠLe onard
ðĿĵ ĺ
Ġcharacter ization
Ġsol vable
our baki
ĠNot es
Ġparame triz
Ġinst anti
color able
Ġfl at
Ġexpect ation
Ġquanti fi
Ġabsorb ent
Bo olAlg
Ġdiame ter
Ġenri ched
anger ous
ĠTho mas
ĠBart on
ĠLeonard o
( `
) âŁ©âŁ©
A ny
O n
[ âī¤
_ âŁ©,
a mon
b ag
c ramer
c ryst
f reiman
l map
in comp
Ġs z
Ġs format
re achable
ri ed
Ġl c
con vert
ĠR âĤĺ
Ġd art
Ġre t
sub traction
Ġcon tracting
li er
)) }
)) )).
ĠC opy
ĠS um
ĠS imilar
Ġu a
stance s
ĠG L
Ġj acobson
Ġas c
mo ving
Ġhx i
Ġz s
cl ar
ĠÎ¼ H
Ġcomp ose
Ġext erior
inter s
ĠD eg
ome tri
sc an
Ġdist ortion
Ġmo de
ĠZ hang
elim inate
Ġmon otonicity
Ġgener ator
tra il
subgroup s
Ġpr ac
Ġmv qpf
Ġdis k
Ġadj acent
Ġzpow ers
Ġextend ing
Ġbu ffer
Ġsatisfi ed
Ġelim ination
Ġexpres sing
Ġduplic ates
Fin Vect
Ġunf olds
Ġimplic ation
satisfi able
[âī¤ ]
F TC
d enumerable
d Rep
g nor
h Î±
p sigma
z ard
Ġh re
se val
Ġb Inter
Ġb ranch
Ġx b
co eq
Ġin habit
able d
Ġm erge
ĠR ight
ĠR HS
Ġre duced
Ġre solve
Ġsu itable
ĠM ap
li ze
pro vi
ari ant
tri dent
Ġat t
pre form
with out
Ġhf c
ĠB er
ĠB uz
ir ror
Ġhs m
prime s
no dot
Ġhg m
vert ex
Ġdi amon
Ġbo dd
Ġconst ra
Ġperm uting
Ġnew ton
ub ic
Ġlin es
Ġthem selves
ðĿĴ Ħ
Ġdistance s
Ġact ing
Ġvan ishes
Ġ<+ :
van ta
ĠHa hn
Ġide a
anal ysis
hand ler
Ġ`âĬ¤ `
enri ched
refle cted
Ġrect angle
Ġcov by
ĠBuz zard
( -
4 2
M ore
a ti
e isenstein
f ast
f ourier
m foldl
r ences
s p
s lim
w w
Ġa x
Ġh Î¸
er ve
Ġf t
Ġf ourier
Ġc ramer
Ġ_ }
Ġr x
co lim
Ġn add
Ġp ell
Ġi gnor
om ent
Ġex cl
Ġw log
fin partition
Ġm irror
Ġre ver
Ġco span
ĠA ction
ĠâĨĲ @
ĠH b
ĠL iouville
Ġhas se
Ġpre quotient
inter calate
Ġeq s
Ġ" (
Ġdo cument
Ġpar tially
Ġar ity
Ġsemi quot
Ġexp onents
Ġexp ansion
âĦĿ âģ¿
00 1
wh ile
Ġ(âĬ ĵ
Ġme ssage
Ġkernel s
Ġspecial ized
Ġ(âŁ¨ _,
gc f
Ġmost ly
Ġgeneraliz es
dest utter
!" {
velo ping
recur sive
go to
Ġvers chiebung
ĠDer ivative
correspon ding
conf usion
) *
) ?
i i
i cographic
l of
l xor
u el
Ġ( ))
of t
at owski
Ġr pos
if ically
Ġ} `
Ġg a
Ġre duction
comp ut
ĠM o
)) )),
pro ver
ex posed
ort un
Ġle xi
ĠH g
Ġz c
ho les
Ġhf n
Ġcomp let
Ġpre topology
te ctor
âĦ ¬
ig n
abs or
Ġdesc r
)` ;
ĠIn stead
row ing
cent ric
Ġunit al
Ġcommut ing
are d
Ġcos pherical
Ġnil potency
âĢº ,
Ġdepend ing
Ġcir cular
âĮ Ĭ
Ġac cept
Ġcycle s
Ġabelian ization
Ġwhisker ing
Ġsimpl ifier
attr s
Ġweak ly
seminorm s
Ġloc ation
ðĿĶ ¸
ĠÂ «
Ġsto pped
invol ute
Ġ(âĬĨ )
Ġgu arante
$ ,
' m
[ `:
d prod
i ces
i ke
l congr
¸ áµĲ
Ê ¸áµĲ
in its
on wall
Ġh ull
Ġh dvd
er n
Ġc prank
st ed
Ġl x
Ġl int
ĠR Ã©
ĠâŁ¨ âĬ¤
Ġre traction
Ġre moving
ith ub
sub graph
Ġcon f
Ġth ings
Ġsub ordinate
ĠG H
Ġle ibniz
top ies
th m
Ġhf f
ĠB row
ĠB âĤĻ
ĠâŁ¶ [
Ġdef s
Ġ" -/
Ġse en
vector s
ore lize
hg f
Ġmulti coequalizer
ĠIn equality
rt ho
Ġcho ices
lean prover
ĠhU o
com bin
uc as
proper ties
Ë¢ Ê¸áµĲ
ifi eld
áµĩ áµĥ
Ġnumer ator
Ġfac es
Ġformul ate
ĠâŁ¨- ,
process or
Ġgame s
Ġagain st
Ġrefle ctive
Ġproblem s
Un iformSpace
Ġparam s
Ġmet ho
Ġprocedu re
ĠDeg enne
ĠRÃ© my
1 3
A ll
L q
R et
S how
U se
_ )
a ma
u ations
w op
y ers
in separable
Ġa âĤĻ
Ġh inj
Ġ` âŁª
Ġx or
Ġr ise
Ġp atterns
Ġ- âŁ©
id s
sub cover
comp ress
der mon
ĠA pp
ĠC heck
ĠP o
Ġle ad
Ġpro duced
ĠÎ¼ b
Ġpo chhammer
ate ly
ext erior
Ġcontinuous ly
ĠJ acobson
ĠD ist
ag ma
ang ular
bit vec
bi map
Ġany thing
Ġno etherian
incl u
Ġvari ance
cof inal
Ġimp artial
Ġbin omial
wr iter
Ġgra phs
Ġsepar ating
Ġlocalization s
Ġres cale
Ġprob ably
Ġrecur rence
Ġintersection s
ai red
Ġdetermin ed
Ġra ised
ĠAs sumes
Ġinvol ute
bd a
Ġreason s
Ġsuccess or
Ġdir ac
Ġconverg ents
Ġ`< `
Ġmathe ma
Ġtechn ical
dermon de
B e
C oprod
H owever
L projection
N o
a fter
b ex
e ctor
n mem
in stead
Ġh card
Ġh pi
Ġs s
Ġs cheme
er o
or iz
Ġt c
en ough
Ġ{ })
Ġb ex
st ack
ĠÎ± áµĥáµĴáµĸ
mul ler
Ġl iter
Ġg ram
Ġd y
Ġd ue
ĠT aylor
ĠT hat
ĠA t
up ling
th an
ĠN eg
Ġcomp ares
orp or
ĠJ ose
hs c
Ġhb d
Ġst ereo
per fection
ich muller
Ġmulti fork
Ġpri vate
multi ple
spec ific
power ed
nn f
nontrivial ity
tag s
Ġbu il
ĠâĢ¹_âĢº )
ĠConstruct s
sequ ent
Ġdetermin es
Ġ(+ ))
Ġevalu ates
Ġsimilar ly
ĠSt ated
constructor s
ĠMa ps
Ġview ed
character istic
Ġpseud ometric
Ġsent ence
Ġcombinator ics
Ġkee p
hop ital
scan l
ĠJose ph
2 3
M M
[ [
g ithub
k s
r pos
v iew
y ou
Ã ¤
in version
on enti
le igh
Ġh zero
Ġh cont
Ġs m
Ġs pe
ma g
re mum
it eness
Ġx u
Ġx á¶ľ
un nel
un cture
Ġex pan
Ġd ickson
Ġre solvent
id ue
Ġco d
ĠA lex
ĠA áµĢ
pro ject
ĠC ha
Ġo wn
Ġpro m
ĠN e
const s
Ġrel abelling
ord ing
âĪŀ `.
row s
âŁ©âŁ© âŁ©,
trib utes
Ġnatural s
cir culant
continu um
Ġsubst s
ĠComp osing
Ġdiagram s
Ġwr iter
sequ ences
Ġensure s
Ġcar ry
recur rence
Ġsymbol s
Ġpseud ofunctor
Ġexpl ain
Ġtyp ically
Ġeff ect
respect s
Ġatt ach
uncture d
" ),
6 7
@ `(
S t
] âŁ©)
^ .
b ranch
e an
t as
x R
} )).
Ġ mp
le af
Ġh ft
Ġh ker
er mat
Ġt aylor
en nnorm
Ġp sigma
Ġe ta
Ġe ps
de finite
imp artial
eq n
Ġl xor
âŁ© ],
pp s
Ġd uring
Ġd angerous
Ġre duces
Ġy x
Ġco lim
ĠF P
Ġsub perm
Ġsub classes
Ġsub tracting
equ i
ĠP ri
Ġj i
ĠH om
Ġal phabet
Ġcomp lic
âŁ¨ @
Ġintro v
Ġnot ations
ĠV ector
nd insert
Ġalgebra ically
Ġlift ing
ord node
expr form
perm s
itt le
Ġhv w
Ġprime s
la p
Ġcof an
Ġinfer red
bl ame
ĠDe clar
Ġcre ated
Ġsheaf ification
ĠâīĪ [
Ġpseudo element
ĠHÃ¶l der
integ ration
Ġtriangle s
Ġpl ace
Ġts ze
â¨ Ĩ
Ġrewr ites
Ex ists
Ġam ong
Ġmultip lying
serv ative
Ġyi elds
Ġmis sing
adm issible
neighborho od
cryst al
Ġconstra int
vanta ge
ĠBrow ning
oriz ont
ĠDeclar ations
' `:
- >
1 5
B ounded
C D
F âĤĻ
R an
R iemann
T hat
[ `
b ad
c n
o ccur
p ass
w hose
z d
} \
} âŁ©
Ġh fin
Ġh Î¦
Ġh ÏĪ
Ġs lim
Ġt space
en tion
al ist
re finement
Ġc r
Ġc seval
he x
Ġn ative
Ġp deriv
mul ation
Ġin eq
Ġm foldl
ĠC orpor
Ġu v
ĠP artial
Ġj k
Ġpro gram
`, `
type d
ĠK g
ĠB ourbaki
ĠD up
Ġbe have
Ġmk pair
point ing
Ġrel ating
Ġtri v
maliz ing
mple tion
Ġvari ants
Ġdis cus
Ġ(âĬ Ķ
Ġnew ord
Ġme triz
ĠCon tinuous
Ġsmooth ness
Ġidenti ties
`) :
Ġdepend ency
ess entially
Ġang les
Ġho wever
Ġdirection s
Ġallow ed
Ġim mediate
Ġpigeon holes
Ġske letal
Ġgo to
Ġmean ing
yn kin
Ġbeco me
Ġ(_|_ )
ĠFrÃ© chet
ĠMic ros
ĠNo etherian
ĠCre ate
Ġdest utter
ati bility
ĠCorpor ation
ĠMicros oft
: "
_ "
_ `
b irthday
e a
g rowing
h cd
m utually
p w
s mal
t orus
z ify
Ġ( âŁª
Ġa a
Ġh Î¨
Ġs ites
Ġs afe
Ġs wapp
Ġf x
al most
al titude
Ġc pow
Ġb ifunctor
ro mo
Ġe p
un cast
Ġco ur
Ġco bounded
ance stor
ĠC lo
coe valuation
Ġsub goals
Ġpro v
pre haar
Ġcomp ar
ĠB esicovitch
Ġcoe valuation
Ġintro duces
joint ly
ĠU sing
') `
and le
Ġst or
Ġstr uct
Ġ(â Į
ll ap
Ġtrans ition
hy pothe
ĠâĪŀ `
Ġcardinal s
separ ates
forget ful
Ġdis c
âĤĺ g
ulift able
del Ã¶
ĠðĿĵ ķ
Ġprim codable
Ġconj ugates
Ġ(_ |
Ġcontinu ation
Ġ`âĪ ĥ
Ġtrunc ation
ĠAdd ition
Ġge ometry
ai re
â¨ ħ
new ton
Ġstmt s
Ġreplac es
Ġsolution s
ĠCo ercion
Ġsufficient ly
Lin delÃ¶
itnes ses
ĠDup uis
romo v
LindelÃ¶ f
L ipschitz
P re
W ith
[ (
b ug
f z
h mul
h div
i ct
k son
l abel
m or
p lying
Â ²
er ing
is i
re g
Ġc infi
Ġ{ _
Ġr find
Ġe ar
lem s
Ġd ensity
ĠâŁ¨ âĪħ,
ic card
Ġy z
Ġco me
Ġco algebra
Ġth ou
Ġha S
Ġha u
hom omorphism
ex ing
so ber
ĠâĬ ĩ
the y
ĠP ech
Ġk erase
Ġle s
has se
ĠH D
ĠK exing
ĠY ing
ĠY akov
Ġext reme
âĪ¥ ),
âĤĥ âĤĦ
ers ky
cid ability
') ]
ĠProp er
Ġen toura
Ġht Î¼
Ġhg x
Ġhn k
pair s
ĠĠĠĠĠĠĠĠĠĠĠĠĠĠĠĠ ĠĠĠĠĠĠĠĠ
exp onential
ĠâĬ¤ ).
Ġelse where
Ġhk l
âŁ©) ;
dic kson
Ġaffine ly
Ġdis criminant
âĢ ł
Ġ(âī¤ ),
fac es
Ġspecial izes
Ã¶ n
Ġ`âĪ ı
Ġmonomial s
Ġcau se
numer ic
ĠRet urn
Ġ`â¨ Ĩ
Ġoccur rences
Ġlaw s
Ġinterpret ed
Ġcolum n
ĠEm bedding
Ġdevelo p
cend ence
Of Types
Ġcopi es
Ġdocument ation
Ġcour se
iccard o
Ġthou ght
ĠPech ersky
I D
O rtho
P rofinite
e ach
h im
i re
o x
Ġs tri
ti p
Ġb orelize
Ġ` â
me tas
Ġp B
Ġp g
Ġp airing
an onymous
Ġi ds
Ġl iftr
âĤģ 0
Ġy t
du plic
Ġsu ffix
ĠM il
ĠM yers
Ġcon sequence
ĠA dding
ĠG romov
Ġj ordan
Ġun less
Ġpro posed
Ġat tributes
group s
ĠÎ¹ b
ol tip
ĠB ae
Ġhs v
ĠV ersion
for man
semi reducible
ĠD a
Ġor else
ces sible
.{ (
ense lian
-- >
]) âĪ¥
ĠĠĠĠĠĠĠĠĠĠĠĠĠĠĠĠ ĠĠĠĠĠĠĠĠĠĠĠĠĠ
Ġhz s
ath Ã©
Ġassoci ators
Ġassoci ating
Ġ%% `(
ĠCon tinu
Ġcover ed
Ġcontinu ants
Ġmodel led
rb map
Ġgo ing
Ġcomparison s
Ġevalu ated
Ġreplac ing
Ġ`â¨ ģ
ĠâŁ¨_ âŁ©,
sec utive
ĠSe ul
ĠMa ke
Ġdeclare d
Ġinterest ing
von N
Ġattemp t
sco ped
Ġseem s
Ret urns
orizont al
ĠBae k
athÃ© odory
) `:
) ::
H f
O ne
d Ã©
e ff
g monoid
g ci
h itting
h ragmen
l c
p id
p comp
y low
ma c
re levant
âĤ ĳ
Ġb xor
Ġb irthday
it ary
Ġ` âĨ
Ġr id
he byshev
Ġn linarith
Ġp w
an o
Ġl ittle
Ġw itness
Ġm i
ĠR iccardo
Ġd f
Ġd g
)) âĪ¥
Ġha y
ra w
Ġ+ âĪŀ
ĠF unctor
ĠF TC
ĠF inally
Ġint ent
Ġfin ish
ĠType class
Ġun zip
Ġhx p
ĠH i
Ġfor med
ĠL ex
Ġfun c
cal ing
Ġz L
Ġz R
ĠK yle
ur th
Ġcomp osed
ĠB undle
ĠB ras
Ġpre t
si ded
lift q
lift ed
ĠÎ³ áµĴáµĪ
Ġhp m
') ),
Ġ" ]
Ġ(âĪ ĺ
Ġnon discrete
Ġ`( (
ber g
ĠIn stances
vi a
depend ency
Ġqu ite
expr term
ĠâĪ¨ *
Ġlimit ing
Ġgeneral ised
lin fty
ust ed
ĠRe cur
hm er
Ġme q
sem isimple
Ġcof inal
Ġper forman
ĠDe precated
Ġmeta variable
ĠhA B
art an
Ġextension s
Ġpartition s
Ġcontext ual
Add itive
Ġshift l
ĠUn iform
Ġevalu ate
Ġ([ ]
Ġ(| (
Lim inf
Ġeasi ly
Ġsure ly
Ġfunctorial ity
De fin
ĠZF C
represent able
ĠFrÃ© dÃ©
Ġissu es
ĠTh us
necess arily
differenti al
ortun ately
Ġ"-/ ]
Ġcomplic ated
Ġmetriz able
ĠMil ler
ĠBras ca
ĠFrÃ©dÃ© ric
! `
' +
' âŁ¯
A uxiliary
M at
S imilar
h pos
k union
l ongest
n z
p ter
p aired
r match
s ample
u v
u max
Ġ om
Ġ( >)
Ġh li
Ġh norm
er ar
or iginal
Ġf âĤĹ
Ġp comp
Ġi k
âŁ© |âŁ¨
Ġex ec
con struct
Ġd x
Ġre ader
Ġcon tr
Ġco set
simp a
hom s
ĠC an
ĠF ix
es ymm
ine ering
ring s
ĠP âĤĹ
Ġhx r
ĠH y
pre bundle
Ġz igzag
ĠN um
Ġcomp are
Ġ(( âŁ¨
erm ore
par ity
Ġus age
inter est
inter sections
class ified
ĠâĪ¥ âĪĳ
Ġtr ack
Ġend ofunctor
Ġinter edges
Ġlocal ized
inl ine
ĠĠĠĠĠĠĠĠĠĠĠĠĠĠĠĠ ĠĠĠĠĠĠĠĠĠĠĠĠĠĠĠ
)` -
Ġrel index
redu cibility
inj l
Ġsubtype s
submodule s
ĠâĪŀ `.
Ġhomo topies
Ġdis char
Ġ(âī¤ )).
arith m
Ġcondition al
Ġtest s
Ġmaximal s
Ġsimpl ified
Ġemb eds
Ġrun s
Ġeigen values
Ġden ote
ĠAl so
sor ry
Ġfast er
ĠâŁ¨[ ],
pack age
Ġprac tice
Ġmetho d
mag inary
urth ermore
erar chy
' :
) âģº
+ `
F q
S MOD
` ?
g comm
h Z
i hom
i ota
s afe
Ġ !
in equality
le ave
Ġh comm
or ry
al ity
Ġc antor
su ally
su ggest
Ġr n
Ġr tensor
Ġr xy
ĠâĨ ¿
de fine
imp l
ĠÎ± Ë¢Ê¸áµĲ
ve lope
Ġ} `.
âŁ© )),
Ġm foldr
Ġre f
Ġre alizer
Ġde cidability
ĠF intype
ĠF uture
Ġ1 2
Ġpro ducing
nat e
ĠH c
ĠH x
ĠL HS
ĠK f
ĠN ormed
Ġcomp utations
all ing
Ġhs U
Ġhs x
finite ly
lift p
Ġhb i
ers enne
Ġsum mand
Ġid x
arg max
Ġhm s
out put
Ġmulti cospan
âĪŀ `,
Ġrange s
'] ;
Ġtrans l
Ġmin imi
ht s
Ġexp lode
sin ce
ĠIH f
Ġir refl
associ ativity
âŁ« `
sem ilinear
Ġspecial ization
Ġinteg rability
Ġnodup keys
fiber wise
ĠMe asu
ĠThere fore
Ġerr ors
Ġ`âĪĳ '
Ex ample
Ġconcl usion
Ġliter ature
duplic ate
' },
8 7
: \
F r
H mul
_ (
b anach
f low
o le
w p
Ï ĸ
Ġ( /
Ġa lthough
Ġh O
ma jor
Ġf ar
en abled
su me
Ġx eq
co monad
Ġe c
an ion
Ġi o
Ġ- âŁ©,
Ġd matrix
sub terminal
Ġde tail
so hn
ĠS ch
ĠS calar
ĠF i
vari ation
Ġk ind
ĠL ike
ch a
non compact
non uniform
ta uto
hf f
Ġ(( +)
Ġext ent
Ġ[âĨĲ (
div ergence
Ġpre mise
ĠJ ordan
ĠâĪ§ *
Ġhi erarchy
ĠW hile
Ġht m
no wn
Ġhn p
ĠâĦ¤ Ë£
]) âŁ©
Ġdescrib ing
ĠIn verse
Ġhr n
ĠâĦĤ âģ¿
conj ugates
Ġhk n
Ġform er
ĠâĪŀ `,
ĠðĿĴ Ł
are st
Ġsequ ential
Ġinfinite ly
atem ent
ĠhI J
Ġcomput ability
Ġdig it
Ġmach in
Ġmultip lied
Ġconverg ent
ĠLo cal
Mo del
Ġissu e
eps ilon
Ġsit uation
Ġrever sed
comput ably
Ġstri p
ĠLex icographic
) âĪ¥)
. "
F A
W equiv
c antor
e ither
h re
p lt
} ",
Ġh Î¾
ĠÎ Ķ
re wr
Ġr Î²
co p
co closed
Ġp ull
ul ip
Ġin duce
Ġl ot
Ġw idget
âĤĤ 0
Ġd id
Ġsu ggest
ĠM áµ¢
Ġco induced
ĠA d
ĠA lter
Ġha p
ĠC NF
ra ph
ĠS ylow
ĠF rom
ĠF robenius
Ġsub sequent
ĠE n
ĠH o
pre term
ch arger
Ġz sqrtd
ĠÎ¹ a
non unit
log ic
Ġ(( âĬ¤
mi ano
ha el
not her
Ġor ig
Ġbe st
Ġhb t
Ġab brevi
Ġsum mands
Ġ" )"
max imum
)] `
âĦ į
Ġhg t
Ġhn s
Ġcomm en
Ġse c
mon otonicity
Ġch anging
cre ate
Ġih p
gener ators
hb a
os ites
âĤĦ âĤĥ
sem ifield
Ġunfold ing
Ġidenti fic
Ġcha ar
col lection
Ġcontinu um
sive ly
Ġsuc ces
Ġra w
Ġcall ing
Ġsuper set
ĠBounded Order
Ġrev zip
Ġregister ed
ĠCh ange
Ġtyp ical
triang ulated
jec tivity
ĠTest a
provi ded
ĠDa miano
* (
3 4
A t
G s
I mp
T h
X Y
d x
e fixed
e match
g n
h add
h mem
h cont
i er
l single
s tit
s kolem
u ma
Ġ ),
Ġ ##
in definite
Ġ( =
le hmer
Ġs atellite
Ġf uzzy
al ind
Ġc top
Ġc lean
Ġc md
of ork
Ġx âĤĻ
Ġp c
ar acter
un ary
st ereo
Ġi maginary
mul ate
Ġin its
as ymptotics
Ġl hopital
pp osites
Ġw ra
Ġre state
Ġre finement
ist ent
comp s
Ġsu mming
Ġco p
Ġco lex
Ġde g
up les
ĠS te
ĠS ymmetric
ĠP r
Ġj s
ĠE qu
mo ebius
nat ole
Ġz orn
ĠK áĹ®
áµ ĸ
ĠN i
Ġ(( âĪ
all s
tic ofork
not in
ob tain
univ s
Ġhp n
âĦ Ļ
Ġend points
Ġst ore
Ġdist inguished
Ġht t
empty c
hx z
Ġhc r
Ġdiff ic
Ġ`( Â¬
Ġexpr term
multi fork
âĪŀ ),
Ġad vantage
ank s
Îł i
ĠâŁ¨âŁ¨ (
âŁ©) âŁ©
Ġunique ly
desc ending
wh at
wr itten
Ġsimple r
pushout s
ĠDe dec
Ġstring s
Ġmodel s
Ġscalar s
Ġess ential
âĭ Ĥ
Ġtrivialization s
Ġproposition al
ĠMulti plying
Ġcolor ing
Ġinherit ed
Ġ(_|_ |_
correct ness
Ġautomorphism s
ĠInt egral
aug ment
Ġ`(- âĪŀ,
Ġscan l
Ġ(âĮ Ĭ
llap se
alind ro
ĠDedec ker
1 7
9 0
G ener
b Riemann
e f
h irr
m filter
s hould
on ize
Ġh top
Ġh min
Ġs orry
or ov
Ġt support
Ġt alk
is ot
Ġc ross
Ġc ubic
Ġb re
Ġ` Â¬
me x
co inductive
Ġp prod
Ġi V
as sert
Ġ} âŁ©âŁ©
Ġm gf
ĠâŁ¨ âĭĥ
lo ok
ot es
ĠT urns
et s
sub family
ĠM od
Ġth unk
)) `,
op lax
ĠÎ» n
ĠA natole
Ġde ps
ra ise
Ġâī¤ *
ĠS S
ĠS h
ĠS áµĲáµĴáµĸ
coe v
ĠP ID
cal led
Ġhf p
Ġma rtingale
Ġq c
Ġpre functor
Ġpre haar
ĠV al
ĠJ ens
inter polate
name d
rop ic
Ġ" !"
ack age
Ġnon units
Ġdi hedral
bi partite
Ġad ic
inj r
Ġhr s
join ed
ĠâĬ¥ _
Ġoption s
Ġer ased
Ġpreimage s
sym bol
ĠhÎ¼ m
Ġconj ugation
man gold
Ġsh iftr
Ġ`âĪ ħ
Ġho le
Ġ(` (
Ġ`âĬ ĵ
Ġjo int
Ġulift able
ĠAdd itive
ĠEx ample
Ġminimal s
Ġ``( @
Ġpl ay
mpot ents
emb ed
Ġreg ard
Ġcomput es
Ġcombin ations
Ġacc ording
expression s
Ġ(âĢ¢ )
Ġanalo gue
Ġrefer ence
ĠMic hael
determin ant
Ġdiamon d
Ġimmediate ly
ĠProper ties
Ġpret ty
Ġperforman ce
isot ropic
mangold t
1 4
S ep
b b
e L
f A
h ad
h sum
p filter
s r
u mann
x add
Ġh alt
Ġs c
Ġb isim
Ġb icategorical
Ġ` >
su rable
Ġx j
Ġr ack
Ġr ig
co ords
Ġp e
an ds
un zip
ĠâĪ Ĳ
Ġi hs
Ġw covby
po p
Ġm m
Ġre str
zer oth
Î» f
lt on
ĠM ono
Ġha us
ĠI ts
ĠC ho
ut ed
Ġsub family
ĠG âĤĹ
ĠG CD
Ġun like
trans cendence
non units
Ġhy t
ĠD iv
ĠâĪ¥ âĪ«
ci ve
Ġeq n
Ġst u
Ġen c
Ġen co
Ġne ighbor
sc ri
In t
Ġhc f
Ġâĭ ¯
ĠIn duction
Ġder angements
tactic s
divis or
Ġcommut ativity
Ġperm s
Ġlog arithm
ĠRe arrangement
ĠCon verts
cir cu
hd f
Ġfollow ed
od ym
Ġcom bine
ts ze
ĠTop CommRing
gre ss
Ġdivis i
Ġcre ating
Ġâģħ (
bu f
Ġdimension s
ĠSpec ial
Ġsuper martingale
Semi group
ĠPre order
ĠPre fer
ssubset s
Ġformul ation
Ġassert ing
bc f
ulo wer
Ġrow s
Ġaug ment
Ġlong er
Ġexpl an
Ġcolum ns
Ġestabl ish
ĠSemilattice Sup
Kur atowski
ik odym
curr ent
Ġexcl u
Ġlexi cographic
compress ion
ĠCha pter
Ġear lier
plt Sep
pltSep UniformSpace
' ve
C NF
` {
a vi
a áµ¢
d list
f range
h iding
l and
m M
n ally
s ity
v itali
en gth
Ġ[ ``
Ġ_ |âŁ¨
Ġx v
Ġp n
Ġe k
Ġe v
Ġe fficient
de s
de cess
de tecting
st one
ab stract
to gether
Ġ} },
con traction
Ġm oment
Ġy v
ĠT uring
ĠT aking
Î» m
comp are
Ġcon servative
Ġco upling
Ġde cre
ex pl
ĠC U
ĠC a
ut z
ut or
ĠS ection
ver tices
ĠG r
Ġun pair
ĠE u
Ġhx v
Ġpro gress
pre servation
Ġapply c
ĠK ee
ĠK Ë£
Ġpo l
ĠN âĤĹ
Ġcomp osite
Ġcomp atibility
gr ange
Ġfunction al
Ġpre s
diff er
dist ance
Ġlo w
nd union
obj s
action s
Ġht c
Ġpar acompact
Ġlt ensor
Ġmon omorphisms
mon adic
res idual
Ġbi map
bo sity
Ġ(â¨ Ĥ[
Ġcompact ness
iter ion
Ġcast s
ick ly
Ġidenti cal
Ġup grade
Ġbound aries
Ġaddition ally
Ġtry ing
Ġnonneg g
Ġes akia
Ġavoid s
Ġcs ring
ĠUn iformSpace
Ġremove d
Ġredu cibility
De fine
Ġpost fix
ĠCh aracter
triang ular
Ġdeal ing
Ġ<:+ :
Ġintersect s
Ġhapp en
ĠSemilattice Inf
ĠEvalu ate
Ġenumer ate
ĠBer noulli
Ġprov iding
ĠBundle d
ĠNi col
look map
- )
A B
F un
F intype
G eneral
O rd
b kts
e b
g er
h Y
p a
p ens
w seq
w ill
w idget
Ġ( ),
Ġa tomic
Ġh al
Ġh us
Ġh root
is ing
Ġf A
re duct
re qui
âĤ ĩ
Ġb r
at ural
Ġ_ |_
co separator
Ġp ot
Ġp ythagorean
de precated
mul ated
Ġis ometri
Ġl ive
pp red
Ġg old
Ġm ere
Ġd u
Î» c
Î» h
Ġto do
tr ack
Ġ$ >
ex pected
ĠC hebyshev
ĠS plit
fi le
Ġfor malized
Î± áµĲáµĴáµĸ
Ġfi ll
Ġfi bers
Ġz I
ĠK app
hf x
el mann
Ġ(( âĬ¥
Ġext remum
iz ing
len berg
Ġor ient
ob vious
hs f
Ġ" _
Ġst one
Ġne ither
Ġinter polate
Ġdiff e
arg min
am ification
hg i
ĠĠĠĠĠĠĠĠĠĠĠĠĠĠĠĠ ĠĠĠĠĠĠĠĠĠĠĠĠ
Ġexpr form
Ġrel ates
Ġrel abel
distrib utor
âŁ©âŁ© ),
Ġqu andle
res cale
Ġ[] ),
Ġhz y
Ġsur jection
mat ches
Ġcor oll
Ġme ant
Ġ201 4
ĠCon structor
ĠâŁ¨( ),
ĠhU V
com b
Ġobj s
ðĿĵ ķ
Ġdivis or
Ġ`âĬ Ķ
Ġsol n
ĠTo pological
Ġadm it
Ġsemiconj ugates
Add ition
Ġbl ack
âĪĳ '
Ġhand le
ĠPre dic
Ġformul ated
close ds
definition al
ĠCo mpletion
ðĿĶ ¼
ĠEi lenberg
ĠEquivalen t
Ġtre at
na tization
Ġcorrespond ence
Ġgr undy
ĠZhou hang
print able
boo le
inclu ded
alindro me
Ġrig id
Ġhaus dorff
Ġexplan ation
ĠKee ley
Ġpres ence
ĠKapp elmann
B y
T rans
e lt
g b
h inj
m b
o ses
r ather
w ar
w itness
Ã ²
Ä Į
ĩ ĳ
in h
le ri
Ġh ard
Ġh max
Ġf uture
Ġb its
Ġ` âī
Ġr amification
co separating
ac cu
ĠâĪ ļ
Ġi X
Ġi Z
tion s
ri gue
as suming
Ġis eqv
ge lian
Ġm r
ĠR od
add r
add ress
Ġre ly
Ġre moves
Ġan n
li ces
ĠA ffine
ex change
ex tract
ĠC f
ĠF u
tri eve
tri gonometric
ine se
ĠG e
the ore
ĠP ushforward
fi ltration
mo unt
Ġhx V
ĠH t
Ġfor malization
val leri
ad apted
ĠÏ ĸ
ho lor
ĠY oneda
ur r
Î¼ s
div idual
Ġpre lax
ĠJ ean
Ġhp a
Ġst able
ĠW Ã¤
Ġht f
eval n
bit wise
Ġneg ations
ĠâĬ¤ `
conj ugation
Ġtri ple
ste ps
Ġarg max
Ġcomplete ly
âģĨ )
âŁ§ '
ĠComp lete
Ġcol linear
ĠMon ge
Ġproj s
Ġhome omorphic
ĠTo pology
Ġrecur sor
Ġ(# (
ĠInter pret
Ġstalk s
Ġremain s
Semi NormedGroup
ĠBounded DistribLattice
Ġdown ward
Ġhex agon
trac ing
ĠBe cause
Ġperform s
high er
replac er
Ġpur pose
Ġquantifi ers
Ġignor e
ĠHo ek
ĠCa valleri
Ġpol ish
ĠNicol Ã²
war z
ÄĮ ech
rigue z
ĠRod riguez
ĠWÃ¤ rn
' ])
) -
0 9
2 1
2 4
> >
C O
E very
H b
H i
N ikodym
T wo
W hile
Y Z
` âĪĢ
f ollow
g ing
g semiring
g ges
g ood
h deriv
k leisli
l child
m foldr
n aming
p Set
p mf
r child
w itnesses
x a
} :
Ã ¡
Î Ļ
in creasing
Ġa mount
er y
Ġf meas
Ġf dRep
en veloping
al sum
re q
re served
Ġc mem
Ġc ut
Ġ` âģ»
Ġ_ `.
Ġr and
Ġe y
Ġe diam
un paired
ac c
de creasing
st ationary
Ġi Y
Ġ= *
Ġin dividual
po ses
Ġm ix
Ġre port
Ġy N
fl atten
ĠM áµĴáµĪ
Ġcon ne
Ġcon tract
Ġcon version
Ġco ol
Ġco ind
Ġco sets
Ġth anks
)) ^
)) âŁ©,
Ġde ci
Ġha i
qu es
Ġv ice
ĠS mooth
ĠF ree
Ġ1 6
Ġu o
es c
Ġfin e
ĠG ab
ĠP F
ĠP ull
def n
Ġo y
ĠE b
pre processor
ad on
hf a
pl ay
Ġ(( >)
Ġ[âĨĲ @
str ass
Ġus able
onempty Fin
lement s
ces sing
Ġne sted
Ġhn z
Ġstr uc
cancel lation
Ġnon sing
Ġnon ote
bit raversable
Ġmulti variable
ner ve
Ġdescrib e
multi variate
count ing
Ġih q
Ġtrans late
term ine
Ġarg min
lin del
Ġbit raverse
Ġindex es
che mes
Ġ(âī¤ ))
Ġlin k
atom istic
Ġper iod
Ġver tical
abelian ization
Ġpreorder s
ĠhV U
Ġdoc string
Ġ5 0
Ġexist ential
ĠEx tract
ĠPro position
Ġallow ing
ĠĠĠĠĠĠĠĠĠĠĠĠĠĠĠĠĠĠĠĠĠĠĠĠĠĠĠĠĠĠĠĠ ĠĠĠĠĠ
metriz e
Ġtan h
Ġsimpl ification
Ġdifferenti als
projective s
Ġconver ge
Ġcomplement s
Ġgo es
Ġinput s
Ġ(Â¬ *
Ġshrink ing
âĭĨ [
Ġ`âĪ« âģ»
Ġ`âĬ¤ `.
Ġlook s
Ġconverg ing
ĠFin Vect
ĠShow s
Ġtre es
Ha ze
==== ====
Ġrepresentative s
Lin Ord
ĠLa urent
Ġpass ing
cofinal s
Ġmathema tical
Ġbuil ding
velope d
ier strass
scri pt
ĠPredic ate
onemptyFin LinOrd
lindel of
' âģ»
( _
* .
7 0
< |>
F inally
L emma
M agma
d nf
j ian
k nown
l ative
o y
p unctured
r ull
s l
u jian
Ġ oth
Ġ orthocenter
Ġ( âŁ¦
Ġa i
Ġh ut
Ġh deriv
Ġh Î²
ma ri
re st
re flexivity
Ġc at
Ġb âĤĻ
Ġ` @
Ġ` âģħ
me li
co chain
Ġp A
Ġp th
Ġe f
Ġe âĤĻ
ar k
de z
Ġl cs
end o
Ġw on
ce ux
con tractible
fin sum
po u
ĠâŁ¨ âĬ¥
Ġre order
Ġy a
id i
Ġth ing
ĠA âĤĻ
Ġde lete
Ġde termine
ex pres
Ġsub algebras
the ir
ĠType s
Ġk s
ĠH p
ĠH as
Ġcomp osing
Ġq x
Ġpre decess
te ichmuller
ĠJ ujian
strict ly
ĠU áµ¢
do set
Ġpar ent
'' âŁ©
Ġname ly
Ġbi limit
anti comm
Ġhz x
hb dd
Ġhd f
dis c
code tecting
Ġâ¨ Ĥ[
Ġimp ly
cos pherical
Ġ_)) ).
ĠFor mulated
ĠhÎ¼ Î½
Ġgra ding
Ġlin fty
Ġcom mands
Ġcof iltered
Ġ# {
decl are
Ġdiffer ences
Ġdistrib utes
tiv ization
Ġsheaf ify
Ġsubring s
Ġmonad s
Ġcancel lative
Ġpseudo emetric
Ġparticular ly
Ġlike ly
Ġmain ly
bes icovitch
Ġpl ane
clopen able
Ġlinter s
constru ction
hI J
van dermonde
Ġmove d
relation al
Ġcurry ing
Ġhel ps
Ġgc f
andid ate
19 6
Ġprint s
ĠSheaf OfTypes
ĠBo olAlg
Ġinfix r
Dist ortion
ĠâĹĥ âģ»
simpl ification
Ġconcl ude
jec tivization
approxi mates
Ġ(âĬĵ ),
Ġconf used
combin ator
Ġ`âŁª `
Be cause
Ġbehave s
Ġenco ded
Ġoth ers
* `.
, âĨĲ
- `
. >
B anach
I I
L e
M e
O therwise
P O
a ke
b ose
c sinh
g npow
h ps
j es
n ed
n dez
p ull
t unnel
} $
Ġ ?
Ġ ortho
Ġ( âīł
Ġh er
Ġh ar
Ġh surj
Ġh orizontal
is ations
Ġf low
Ġc lique
Ġb and
Ġ` âĭĥ
su ring
Ġx f
he ight
Ġn mem
Ġp is
un if
un mop
st on
Ġi l
Ġin tr
ri de
ri el
to oltip
Ġex posed
Ġex ception
Ġw g
con tract
âĤĤ âĤĦ
mm y
ĠT ry
ĠT wop
ĠÎ» p
ĠA ut
up to
ĠI xx
ĠâĪĪ +
âĪ §
Ġmul tispan
Ġmul ticofork
ĠP ar
ĠP ost
Ġk l
Ġun changed
Ġo x
Ġo pp
ĠH mul
ĠL iving
ty p
Ġz multiples
ateg y
ard inal
ol ded
ĠB aire
gr onwall
Ġq b
Î¼ H
par acompact
ĠV ar
pri mary
ĠD ynkin
Ġhb s
)] )
âĦ µ
Ġen able
ies z
Ġhc g
Ġassu med
Ġmon ge
ĠĠĠĠĠĠĠĠĠĠĠĠĠĠĠĠ ĠĠĠĠĠĠĠĠĠĠĠĠĠĠĠĠĠ
Ġpri med
Ġrel ate
sheaf ification
ĠâĬ¤ _
ĠâĨĴ+* [
Ġbo ard
Ġnone mp
hn m
Ġhd g
os en
proj s
ĠRe place
ĠâĬ¢ ;
leph ant
sem ble
Ġnormal isation
Ġ~ >
Î½ n
Ġrepresent able
rev zip
Ġ(âĬ¤ _
encode k
cs ring
cat alan
Ġelim inated
Ġsolve d
nf ortunately
Con s
Ġrestriction s
Ġ`- `
Ġsubtraction s
Ġinvariant s
Ġrec F
Ġcomput ing
elem s
Ġoccur s
Ġloop s
Ġlaw ful
bc nn
ĠFin PartialOrder
Ġinherit ance
)âŁ§ ,
Ġspecify ing
âħŁ 2
ĠLim sup
Ġelabor ation
Ġelabor ator
Ġcombinator ial
ĠQu otient
df lt
ced ence
Ġcomplet eness
absor bs
ern Ã¡
ama rd
ĠVector s
mac ro
Ġmi ddle
Ġdischar ge
Ġorig in
Ġbre ak
circu it
elt jes
ĠGab riel
meli a
ĠLiving ston
ernÃ¡ ndez
' âŁ©âŁ©
3 5
C PO
E R
E qu
a mp
c cosh
e li
e ves
g fp
g ives
h sub
h comp
m N
m Î²
o pposites
p x
z sqrtd
Ġh ri
Ġh et
Ġh fl
Ġh neg
Ġh all
Ġh Î·
Ġt b
Ġt x
en gelian
re ps
re aches
Ġb ar
Ġ` \
Ġ_ `,
Ġr f
co ercion
Ġn h
Ġn k
Ġp sum
Ġp tendsto
un changed
Ġin separable
Ġm X
Ġm range
ĠR adon
Ġd arts
Ġre achable
int ent
Ġy j
Ġy á¶ľ
ĠM in
ĠM akes
Ġde als
qu ilinear
qu adrant
ĠI mage
Ġv is
ex ception
ĠC b
ĠS p
Ġfin iteness
comm unity
the se
Ġj y
Ġ< .>
pre groupoid
ch osen
Ġz x
Ġz eta
ta king
áµ £
hf c
hf p
di hedral
Ġit actic
Ġhs i
congr uence
Ġhb dd
ĠU sed
nd inter
Ġen suring
Ġhg g
'' _
subtype L
Ġsome what
coeff ic
bi comp
ry sohn
ĠâĬĹ '
ip ul
structure s
hy per
Ġhk m
hc g
Ġconstru ctive
Ġhe ight
diagonal ization
Inter nal
ĠO pen
epi graph
ĠRe striction
aus s
Ġ201 5
ĠCon vex
ĠðĿķ Ŀ
Ġunion s
Mon ad
orth and
Ġcokernel s
Ġadjoint s
Ġman ually
can onize
ĠĠĠĠĠĠĠĠĠĠĠĠĠĠĠĠĠĠĠĠĠĠĠĠĠĠĠĠĠĠĠĠ ĠĠĠĠĠĠ
Ġpl ac
!" (
ĠSemi group
Ġconsider ing
Ġprincip les
Ġcovering s
Ġclose ds
ĠAs sume
Ġ![ ![
Ġshort er
âĬ¤ ,
Ġprop ortion
Ġimport s
Ġepimorphism s
19 9
Ġnode s
definition s
âĤĸ âĤľ
satis fying
Ġrefer red
ĠFin BoolAlg
Ġâ¨¿ [
simpl ify
Ġak a
every where
ĠRel ation
Ġhapp ens
Ġinvolve d
Ġ"( "
onenti able
Ġdiscus sion
smal lest
isi mulation
Ġentoura ge
Ġdevelop ment
ĠContinu ity
Similar ly
cha ar
Ġmachin ery
ĠAlter native
Gener ally
ĠVal ue
ĠMono id
ĠCho ose
ĠâŁ¨âĬ¥ âŁ©
) $
2 7
3 7
H d
Q u
S ort
U sing
a ight
d enti
d matrix
f alling
i ler
m ore
p atterns
v b
y p
z c
| =
â Ĺ
le gendre
Ġh ge
Ġh pow
Ġs chemes
ma ke
Ġc andidate
Ġb m
Ġ` âĨĴ
Ġ_ [
Ġr ation
co trident
Ġn ic
Ġp op
Ġp format
ar ded
un sym
de ed
ĠÎ± áµĴáµĸ
Ġi i
Ġl fp
Ġg m
fin al
âĤģ âĤĢ
Ġm Y
Ġm op
ĠR eg
Ġd k
Ġre ify
Ġre use
sub additive
Ġcon cer
Ġcon tractible
ĠÎ» f
ĠÎ» m
ĠÎ» s
pro cessing
ĠF reiman
ari ate
Ġsub additive
Ġfin er
Ġhx m
ĠL ore
trans ition
Î¼ a
par ent
ĠV M
ĠJ ire
ha ps
ĠD iff
Ġtr ac
Ġ-- --
Ġhn i
Ġstr ength
Ġstr aight
rel ated
Ġnon compact
ideal s
ĠÏĢ âĤĵ
Îł a
res idue
Ġtri chotom
Ġunit or
Ġcolimit ing
bor esc
Ġspec ifically
âĬ ¢
condition al
vers al
Ġrestrict s
uc s
over lap
Ġmod ulus
âĢº .
est ley
man tics
ðĿĵ ¡
Ġrepresent ations
Ġalter n
Ġalter nate
half space
Ġerase p
Ġrad ii
Ġtail s
alter natization
Ġadjunction s
hA B
Ġinjection s
Ġencode k
numer ators
Ġeigen value
Ġctx t
Ġden otes
think N
Ġquasi convex
Ġquasi concave
Ġ`âĬ¥ `.
Ġcorrect ly
Ġneighbourho ods
Ġbracket s
Ġimplic ations
ĠâŁ¨âŁ¨âŁ©âŁ© ;
Ġrepeated ly
accept s
sm ith
ĠEvalu ates
Ġsp ans
ĠâŁ¨âĬ¤ âŁ©
Ġspe ed
St acks
ĠClo sed
hypothe ses
Ġ+âĪŀ )`
Imp l
Ġjoint ly
Ġ_|_ |
ĠEb ner
ĠLore aux
ĠJire h
$ \
' âŁ©âŁ©,
, ...
- *
A áµĢ
C f
F unctor
M any
R cr
S han
S uppose
b Distortion
c pkg
c artan
c Shan
d z
f Î¹
g an
g ather
h ir
h min
k ell
l apply
m orph
n g
p image
u tivity
y L
y l
z ed
z igzag
| ,
} },
} ^{
£ )
Ġ zeroth
Ġa ge
Ġa ut
Ġh pp
Ġh left
Ġh Î³
Ġh Ïķ
Ġs izes
or i
is hed
Ġf c
re es
Ġ[ '
at us
Ġx o
Ġr oth
Ġn aming
Ġp t
Ġp conts
ac ency
mul tan
map L
Ġl ucas
Ġg f
con n
con ver
âĤģ âĤĦ
Ġm ut
ĠâŁ¨ âŁ©âŁ©
sub quiver
comp anion
Ġcon fl
tr usted
Ġ* ],
pro pext
Ġde signed
ĠI mp
ex falso
ĠC ategory
ĠC ardinal
ut put
ĠS ud
ĠF unction
Ġu f
Ġfin ds
ver bosity
ĠG ener
ĠG roupoid
ĠP R
ĠP all
Ġo cc
ĠH d
ĠH n
non linear
ur istic
Ġhf y
soc i
Ġcomp r
ext ent
Ġ(( âĪ«
Ġpre cedence
Ġlist ed
app r
si an
pi geon
Ġhp c
nonneg g
Ġequiv ariant
Ġdo ing
Ġst ud
ary centric
Ġstr ategy
Ġinv olution
Ġinv oc
min imum
some times
Ġhm l
Ġexpr s
Ġdescrib es
multi p
index es
Ġuniv s
Ġtri gonometric
Ġbounded ness
cur ried
dition al
tensor ing
Ġconvex ity
}) "
ĠðĿĴ ŀ
Ġproper ly
ĠIH g
Ġcount ed
cof rame
hi many
Ġforget ting
aus sian
Ġadj ust
cir cular
ĠâŁª (
Ġsubst I
Ġmod ular
Ġmod ification
Ġmod ified
ĠComm ut
Ġ(< ),
Ġsh orthand
ðĿĴ ª
ĠâŁ¦ âŁ¨
Ġpseudo elements
bu cket
Ġman ipul
Ġtime out
âĮĭ ,
system s
ĠĠĠĠĠĠĠĠĠĠĠĠĠĠĠĠĠĠĠĠĠĠĠĠĠĠĠĠĠĠĠĠ ĠĠĠĠ
ĠĠĠĠĠĠĠĠĠĠĠĠĠĠĠĠĠĠĠĠĠĠĠĠĠĠĠĠĠĠĠĠ ĠĠĠĠĠĠĠ
Ġcenter ed
ĠConstruct ing
special ly
Ġelim inate
rb node
alt hough
Ġfe ature
ĠTrans port
19 7
asc ending
Ġlook ing
Ġ7 5
cri m
Ġindic ating
amalga mate
ĠLift s
Ġpresent ed
Ġ[(âĪ ĺ
-------- --------
Ġinterest ed
ĠAb himany
Ġembed ded
Ġreformul ate
tific ate
ĠWith out
Ġinstanti ates
ĠDist ribLattice
equi partition
Ġ`âĬĵ `
theore tic
urr ently
mari ly
Ġration als
boresc ence
cShan e
multan eous
ĠSud hir
ĠPall avi
ĠAbhimany u
' d
) (
) =
) [
E ach
F G
H c
K f
M f
M ost
O L
R G
V R
\ ,
` âĪ¥
` âŁ«`
b a
b ases
b áµ¢
b icategorical
e y
f âĤĹ
f ocus
g lobal
h ca
h rec
h Î½
o om
p deriv
r g
s comp
Ġ lem
Ġ ÄĮech
Ġ( :
le ta
Ġa chie
Ġh ct
Ġh prime
Ġs hr
is om
al ac
re stricted
ti y
Ġ[ {
Ġ` ?
co er
co graph
Ġn q
Ġp ds
Ġe g
an der
de lta
de tector
de bug
Ġi a
Ġin cre
ri d
map ping
âŁ© }
Ġw ff
ce eds
con tr
con erve
lo ad
Ġre trieve
Ġto wer
ĠÎ² áµĲáµĴáµĸ
ĠÎ» e
Ġde duced
Ġde precated
Ġde veloped
Ġha z
ĠI denti
Ġv o
ĠC y
ĠC alle
ĠC pltSepUniformSpace
mono vary
Ġ+ *
ĠS T
ĠS tone
ĠS Ã¶n
ĠF unctions
Ġsub terminal
ĠâĬ Ļ
ĠP alac
Ġun mop
ĠH P
ĠH u
ĠH le
ĠH ernÃ¡ndez
Ġfor malize
ĠL u
type vec
Ġhf b
ĠN Ë£
Ġ(( âĨĳ
oun g
Ġhs p
ĠV io
orphism s
Ġhy u
do uble
') `.
Ġlet ter
Ġst ationary
Ġne ar
be have
Ġhg c
tric k
ig nor
Ġinter nally
per se
hx r
Ġdiff ers
The y
Ġhm b
Ġch ild
Ġch romatic
hg g
Ġval uations
io s
Ġinf o
multi coequalizer
exp lode
cont rol
Ġdiv iding
Ġdiv ided
Îµ pos
Ġqu ickly
ak a
gra phs
gra mming
Ġmultiplic ities
hc s
ĠðĿĴ ¯
Ġsupp lied
code tector
os sible
Ġ(â¨ į
Ġdis card
Ġcos ine
Ġlength s
ĠCon stru
Ġhw f
Ġsepar ates
ĠðĿĶ ĸ
Ġdistrib ution
Ġ(âĪ¥ (
Ġtest ing
direction áĹ®
Ġapplic able
ĠâĮĬ (
Ġclose ly
dedup keys
ĠDefin ed
Ġeigen vector
Ġnd inter
Ġimport ed
As sumes
Ġsuccess ful
Ġreflect ing
haus tion
ĠSub traction
Ġsyn the
ml list
pat hs
parame ter
Ġunf olded
ĠInt ro
ĠInt eg
Ġfour th
ĠMultiplic ative
Ġpsq qs
Ġsto pping
Ġeff e
ĠApply ing
ĠLinear Order
Ġ`* `-
Ġcoer ced
necess ary
Ġte mp
Ġnz snum
approxi mation
Sch warz
Ġlam bdas
Ġlam bda
tific ation
ww w
Ġstereo graphic
ĠNe umann
Ġconstraint s
occur s
Defin ition
output s
Ġcommen surable
Ġidentific ation
Ġdiffic ul
Ġ"!" )?)
Ġisometri es
obvious ly
Ġcat alan
Ġintr on
morph ic
Ġconfl ict
Ġstud y
ĠSÃ¶n ne
ĠPalac ios
ĠVio leta
' [
' âŁ©)
) âĭĨ
* `,
0 4
@ @
C ar
C om
F ermat
M ulti
N ame
P F
P hragmen
S trict
] )))
` âĪ«
a min
c artesian
c ategories
f b
f dRep
g g
h ft
h ence
k et
l arger
u f
u mp
u ent
w q
z we
| `
¹ áµĴáµĸ
Î Ķ
in ction
in ating
on ac
le ibniz
Ġa li
Ġh cc
Ġh ðĿĴ¢
Ġs ty
Ġs Set
Ġt ell
ma ker
Ġf Î¹
re ader
se lect
Ġb ic
me q
at at
Ġr comap
Ġn g
Ġe specially
âŁ ¶
ĠâĨĴ âĹ
dd en
âŁ© `.
ce ll
Ġm ention
ĠâŁ¨ âŁ©;
Ġy c
mem bers
ĠM ink
ĠM ost
ĠM á´´
ĠÎ» c
ĠA fter
ĠA melia
Ġha v
ex pect
ĠC pos
ĠS ame
ĠF ind
Ġsub t
Ġsub stit
es quilinear
Ġk m
Ġhx f
Ġhx n
ĠH ence
ĠL ist
ĠL am
Ġal titude
ial ly
ĠK leisli
ĠN onemptyFinLinOrd
iso crystal
Ġequ ip
Î¼ n
Ġpre process
ĠJ ust
ĠD ual
Ġhi a
Ġst acks
ĠW age
Ġdist inction
Ġhn pos
In dep
Ġunder st
'' `
ĠâĨĳ âĪ¥
Ġ`( *)
Re call
Ġpri o
âĪŀ ).
bin i
Ġmin us
Lp L
bo dy
itt ed
Ġ%% (
Ġvari ations
Ġcho osing
ĠO ur
denom s
ĠâĨĳ( -
sym b
Ġsequ entially
$> )
Ġiso crystal
ĠðĿĵ ¢
ĠhS R
Ġ[( <
ĠComp lex
** ,
Ġcol ors
Ġadjoin ed
Ġrevert ed
^( -
ĠhN O
disj s
Ġra ise
Ġsubsemigroup s
ske letal
á´ ¹áµĴáµĸ
Ġ![ ]
she ll
ail s
Ġgroupoid s
Ġnd insert
Ġfe wer
Ġ`â¨ ħ
Ġlook map
bour baki
ĠAlgebra ic
Ġconfiguration s
ĠLim its
Ġframe work
resolution s
Ġvers a
level s
ĠAr tinian
sco pe
60 25
ĠII I
Kur zwe
Ġpur poses
ĠMo del
absor b
ĠPo lynomial
ĠAlex ander
Ġcompar able
ĠNum ber
)âģº )
Ġpot entially
Ġmere ly
Ġorient ed
Ġ`âĬĶ `
accu mulate
Ġconne ct
Ġopp osed
Ġnic er
Ġstraight forward
conver ges
coer cive
cograph ical
onac ci
atat ype
ĠâĨĴâĹ ĥ
ĠWage maker
Kurzwe il
+ ),
/ #
A âĤĻ
E lephant
I N
K áĹ®
M E
M s
] ],
` "
a ul
b p
b xor
h ker
h deg
h ðĿĴ¢
j i
j k
k amp
m ersenne
p entagon
s b
s ending
t ends
v a
z ulip
{ \
Ġ upd
Ġ measurably
Ġ ulower
le cted
Ġa symm
Ġa á¶ľ
Ġh inv
Ġh Ïī
Ġs ha
ma y
en c
al low
al ts
Ġb last
Ġ` .
Ġ` ~
Ġ` âī¥
Ġ` '`
Ġ` /`
Ġx p
Ġr Î±
co ind
Ġn B
Ġp filter
Ġp eval
Ġp ackage
Ġp alindrome
Ġe âĤĺ
ac tification
imp lementation
Ġin cidence
as hed
to do
Ġl sum
Ġ} âŁ©)
end er
pp rod
Ġw a
con secutive
ĠR a
ĠR ot
ĠR em
ĠâŁ¨ âŁ©âŁ©,
ĠâŁ¨ âŁ¦
lo op
Î» t
Ġsu gges
Ġcon traction
Ġco cycle
Ġth m
ent kamp
op s
op han
Ġde finite
Ġha o
ĠI Î±
ĠC ast
ĠS trict
tin e
Ġsub boxes
es akia
ĠG Î´
Ġpro xy
ĠH ne
ĠH Î´
pre topology
ĠL an
ch at
mk âĤĲ
cl au
th unk
sum mand
hf n
ĠN áµĲáµĴáµĸ
Ġ(( ^
Ġ(( ),
ol ated
ĠB entkamp
ass ign
all p
Ġequ itable
ĠJ ak
ĠD isjoint
bas h
hs m
âī Ī
Ġeq elim
Ġ" [
Ġdo set
Ġen veloping
ĠW r
Ġht U
Ġobtain ing
Ġinter action
Ġmon om
eval u
]) ),
cont ents
ĠIn dep
ĠâĬ¤ ),
Ġreturn ing
fa milies
cur sor
hy s
Ġgeneral isation
ĠðĿĵĿ Ë¢
Ġstar ts
Ġsupp ose
ĠIH r
Ġpr ofinite
Ġ%% _
Ġdis connected
Ġta iling
Ġincl usive
Ġinner SL
ga ve
âĪŀ) ^
Ġfail ing
ĠhS c
continu e
Ġsymm od
ĠDe pend
Î£ âĤĹ
ray leigh
Ġpushout s
ĠCar tan
Ġac cessible
Ġadjoin ing
ĠhK c
Ġ(âĬ¥ _
Ġres idual
Ġnumer ical
ĠhP Q
ĠEx pand
Ġsemigroup s
Ġcau ses
Ġlanguage s
!" [
Ġapproxi mate
Add Mon
Add CommMon
ĠInter val
Ġseminorm s
Ġreg arded
implicit ly
Ġpie ces
Ġcombin ed
Ġrespe ctive
Ġinde finite
Ġcolor able
Ġmultip ly
Ġpd f
Ġcorrect ness
Ġpps qs
ĠÂ §
Ġpost compose
Ġhelp ful
Ġantis ymmetrization
Ġsucce ed
Ġcircum radius
ĠOrder ed
Ġ(âĬĨ )]
Ġapproximation s
ĠExt end
Ġgr onwall
ĠLa grange
ĠDi ophan
ĠSimilar ly
Ġguarante ed
ĠâŁ¨âĬ¤ ,
ĠCheck s
Ġlead s
ĠNeg ation
ĠNeg ating
Ġswapp ing
Ġswapp ed
eff ect
Ġtrack ed
Ġsec ant
Ġdivisi bility
Ġexclu ding
eli de
coeffic ients
Ġsty le
Ġbic ategories
zulip chat
ĠJak ob
ĠDiophan tine
1 6
1 8
9 001
C an
C heck
C lass
E i
F irst
H y
N ot
R áµĲáµĴáµĸ
S T
S RG
T wop
] ^
b eta
c p
h ilbert
j amin
m n
n arrow
p sub
t á¶ľ
Ġh to
Ġh ind
Ġs g
Ġs modeq
Ġt uples
ma rk
Ġf y
en jamin
Ġc lim
Ġ{ âĪŀ}
Ġ` ]`
Ġ` ![
co cycle
he aves
Ġp sub
Ġe apply
an es
ĠâĪ ¼
as ilinear
Ġthe or
end points
âŁ© },
âŁ© âŁ§
Ġg ave
pe ek
con ven
ĠâŁ¨ âĬ¥,
int ain
ĠâĦ °
ist ory
Î» l
comp L
Ġan onymous
ĠM áµĢ
ĠM cShane
)) )))
ĠÎ² Î±
ĠA á´´
ĠI F
ft en
ĠC as
ĠS pace
ĠS atis
ĠF act
ĠX áµ¢
Ġsub sequence
Ġsub fields
ring er
ĠP G
ĠP Î±
fi ll
ĠType classes
Ġk f
Ġk union
def eq
ĠE lements
Ġhx j
Ġhx l
ĠH eq
pre local
pre lax
mk er
ĠÎ¼ s
ĠN atural
âŁ¨ [`
Ġ(( âĪ¥
ĠB enjamin
ir rel
âĪ¥ `,
Ġhs A
Ġhs b
for ce
ha v
Ġhy v
stri p
ĠD is
Î¹ s
do es
Ġ" #
Ġend s
Ġmo ving
Ġhn x
In stead
In jectiveResolution
Ġbegin ning
Ġcongr uent
Ġdi ct
ĠQ PF
cre ated
Ġany way
hb d
core pr
Ġadditive ly
hc f
dis charger
Ġ(@ @
meas M
bind ing
Ġbit raversable
ĠO ver
ĠO ther
hi bit
Ġadj acency
ĠFor mal
âŁ« ,
ĠCon vergence
Ġ(âŁ¨ âŁ©|
ĠMor gan
match ings
Ġcharacter ized
ĠâŁ© âŁ©
ultra product
ĠCar athÃ©odory
ĠhK L
Ġhead s
Ġwr ong
Ġres idue
ĠhB int
example s
Ġhome o
ĠAdd CommMon
Ġmay be
cardinal ity
abel le
Ġauto matic
hÎ¼ t
ille gal
_{ |
ĠAs soci
Ġ(+ +)
ĠhÏĥ ÏĦ
Ġinvol ves
ĠTheorem s
^âĪŀ `
ĠGroup s
lob ally
lam bda
clear able
Ġposition s
âĮĭâĤĬ ,
ĠâŁ¨_ âŁ©
Ġpq qs
Ġappear ing
Ġfl ag
Ġexpect s
Algebra ic
ĠMat ch
Ġrect angular
Ġbucket s
Ġattemp ts
Ġdevelo ps
cend ental
Ġcompress ion
Ġparametriz e
Ġexpan ded
Ġprom oted
ĠHom o
Ġsucces sive
Ġ((âĪ £)
Ġpredecess or
Equ ality
Ġtrichotom ous
Ġmut ual
Car athÃ©odory
" `
) /(
6 5
A ffine
A fter
A nother
D f
F rom
L O
P so
T yp
W arning
a âĤĻ
d cases
f loat
f req
h fin
h left
h dvd
i ans
k es
l id
p itch
q qs
r map
r Î±
w ra
x t
y R
z es
} )))
Ġ ],
Ġ meas
Ķ )
in ds
in jection
Ġ( &
Ġa z
Ġh if
Ġh succ
Ġh nd
Ġh dir
Ġs ine
Ġs range
Ġs cri
Ġt mp
Ġt uring
en sive
re order
Ġc cc
se lection
Ġb range
Ġb ran
Ġ` "
Ġr ound
co sets
co simplicial
Ġn y
an isotropic
ul ian
ac cessible
imp erg
Ġin c
ly pitch
map q
ge l
Ġg h
Ġg rows
Ġ- )`
Ġex hibit
pe s
con cept
Ġm U
ĠR iou
Ġd slope
ĠâŁ¨ âĪ¥
Ġre lies
ĠT r
ĠM agma
ĠM orphisms
Ġco ar
pro m
Ġv i
ex haustion
by pass
ĠS impl
Ġsub goal
âĪ ¨
ĠP ythagorean
ĠType check
Ġk inds
Ġo e
Ġas semble
trans form
il ast
ad c
Ġz J
type class
ĠÎ¹ s
th rough
th unks
non dep
Ġcomp actification
ext ended
Ġ(( âĬ
measure s
Ġpre servation
Ġpre processor
Ġhs a
Ġhs d
Ġhs Î¼
ĠV er
ĠJ ulian
semi quot
app ing
dist inguished
Ġhy U
Ġhy f
si eves
lift Ë£
injective s
Ġcases m
lement ed
ers istent
cid ent
ag ate
ces sed
Ġ" .
Ġne arest
be ck
Ġht A
Ġmo ebius
Ġhg a
Ġpar ity
Ġse mantically
subtype âĤĹáµ¢
eval s
hg c
hg m
bi jection
Ġpri marily
ph en
io ur
Ġclass ification
âĪŀ `-
Ġdiv p
char matrix
Ġfintype s
res pe
Ġord set
bin op
Ġintegral ly
ht tp
Ġ_âŁ© );
Ġgeneral ity
core flexive
bo d
Ġassoci ate
Ġhe uristic
Ġcount ing
Ġanti chain
Ġhxy D
Ġdis play
nn abs
Ġimp ro
che byshev
denom inator
Ġfix es
present able
maximal s
ĠJo Ã«l
Ġ(âŁ¨ âŁ¨
pseudo element
ĠÏī CPO
Ġsingleton s
Ġcur ried
ĠMon ad
general izes
Ġcompletion s
Ġpp conts
ough ly
ĠTo do
ĠĠĠĠĠĠĠĠĠĠĠĠĠĠĠĠĠĠĠĠĠĠĠĠĠĠĠĠĠĠĠĠ ĠĠĠ
ĠMe as
Ġsimpl ifies
ĠCom bine
tan h
Ġsupre ma
car ded
Ġcg f
Ġeigen spaces
Ġguard b
orbit s
ĠAl gebras
^âĪŀ `.
Ġrec ord
Ġturn ing
Ġmat ched
eigenspace s
definition ally
ls b
matic ians
Ġput ting
Pro ve
Ġregister ing
Ġoutput s
^{ -
ĠOn ce
ĠBas ically
Ġattr s
pq r
ĠGeneral ize
Ġcounter part
Ġconcat en
ĠDavid son
Ġassign ing
Ġentire ly
boo k
Ġidentifi ers
Ġparametriz ing
ĠSum mary
Ġasc ending
Ġcr iterion
reg ion
Ġ`âĨ ¥
ĠMeasu re
rewr iting
Ġabbrevi ations
Ġcoroll ary
Ġann ihilator
>> =
Me asu
Ġbreak s
ĠSp ringer
ĠCardinal ity
ĠMink owski
hav iour
Ġccc r
, (
, -
, _
, `
. `
/ )
2 2
8 8
A lias
C T
F ree
H D
O ften
P ar
S em
Z ero
[ {
` #
a gree
b al
c se
c ross
e let
g algebra
h Î²
j áµ¢
m Î³
m dense
n b
p âĤĻ
t áµ¢
w log
x pr
z kin
} )),
in her
Ġ( ^
Ġ( ::
on entially
Ġh not
Ġh bot
Ġh ilbert
Ġs caling
Ġs esquilinear
Ġt Î²
Ġf V
Ġf z
Ġf alsum
Ġc star
Ġb supr
it self
Ġx e
Ġx m
Ġr tendsto
co algebra
co llapse
Ġn x
Ġn tac
Ġp equiv
Ġp att
Ġe lems
un o
st andard
st yle
st atement
ri ch
ab out
Ġl ongest
Ġg âĤĻ
Ġg lobally
Ġw p
Ġw or
fin ishing
ĠâŁ¨ âĨĳ
ic ard
Ġre tain
ot zkin
act um
ĠT actic
ĠT ak
et ze
Î» e
ĠM iz
Ġset up
Ġde structor
Ġha a
Ġv itali
ĠC C
ĠS tr
ĠS hing
ĠF l
ĠF ilter
ĠF ourier
ĠG raph
the less
Ġun ordered
Ġas k
Ġas ks
Ġpro jectivization
ĠH an
ĠH ce
pre functor
pre transitive
monoid s
ĠL utz
ĠL imperg
Ġfi re
trans l
ĠY uma
ĠN ak
Ġma intain
gr undy
ir k
Ġ^ <
Î¼ b
Ġnot ably
ĠV ari
ĠJ ann
app s
inter leave
Ġbe haviour
ci pro
Ġlet s
ĠW ell
Ġnon linear
Ġar en
functor s
Ġcl s
ast e
Ġ`( +
ĠQ âĤĹ
Ġdiv ergence
Ġconvert ed
Ġquotient ing
function al
ĠâŁ¨âŁ¨ âŁ©,
Ġqu iv
Ġuniv ariate
Ġ[] `
Ġ[] âŁ©
fa iled
Ġhz t
Ġhab c
Ġâīħ [
Ġhd c
other wise
Ġchar poly
Ġspan ned
ĠCon st
ĠCon version
Ġâĩĳ( -
)^ {
com mands
Ġper haps
Ġinteg rand
ific ant
drop n
Ġcontinu e
ðĿĴ Ł
Ġcheck ed
Ġsheaf ed
Ġregular ity
Ġdom ineering
Ġrevert s
Ġcomputation al
side s
formal ly
Ġpl ug
rename s
Ġcollection s
Ġgerm s
Add Group
ĠâĨ¥ ((
ĠInter mediate
Ġcodomain s
Ġ9 80
20 19
ĠUn like
Comp actum
Ġrun ning
Ġeigen vectors
Ġnd union
Ġmapping s
Ġsqu ashed
ĠNF A
Ġprint able
Ġprevious ly
Ġsta ge
Ġverify ing
Ġesti mates
Ġscale d
Ġresolution s
child ren
ĠProduct s
Ġclau ses
Ġyi eld
ĠMore over
transport ed
replac ement
Ġreformul ation
Ġmathema tics
Ġeps ilon
Ġ(âĬĶ )
Ġstor ed
Ġ(âĪĺ )],
Ġom itted
Ġwra pper
Ġ`âĪħ `
Int ro
ĠCharacter istic
Ġdiffe omorphism
ĠComplete Lattice
Ġmix in
idi rect
hyper filter
ĠIdenti ty
Ġchild ren
ĠIntro duce
Ġunderst and
Ġ((^ )
ĠInterval s
ĠSpace s
Ġbran ches
cse xpr
ĠMiz uno
ĠJann is
" ],
' ->
) âŁ©âŁ©âŁ©
- (
6 9
= >
? `
B âĤĻ
C L
C h
D V
E quivalen
F S
F urther
G al
L inear
M ario
O P
O ver
P artial
R el
U V
W itt
[ ])
b ased
c star
c prank
d en
f w
g u
g res
h E
h W
h su
h zero
h all
h not
h ÏĪ
i etze
j ust
k insert
m Î±
m closure
n pos
o cc
p X
s hammer
s atellite
t snd
u sually
x z
| `.
} ],
Ġ ).
le ase
Ġa malga
Ġh se
Ġh gh
Ġh smul
Ġh mk
Ġh sup
Ġh nonneg
Ġh rec
Ġh sur
Ġs co
Ġs ne
Ġs ite
Ġs top
Ġt unnel
en sed
re set
Ġc z
Ġ{ {
Ġb b
Ġx U
Ġr q
Ġn an
ĠâĨ ¾
Ġp y
Ġp unctured
an eous
ar b
ul led
Ġi D
Ġin comp
tion ary
as ic
Ġl m
âŁ© )).
Ġg mon
Ġg fp
Ġ- -/
Ġ- âĨĳ
ĠR o
Ġd p
ĠâŁ¨ âĮĬ
ic tionary
Ġre fin
Ġre cover
Ġre lying
ot s
int h
id ence
Î» r
ĠM f
ĠM s
ĠM et
Ġcon secutive
ĠÎ» h
Ġ* -
Ġv u
Ġv ary
ex s
ĠC antor
ĠC oprod
ne arest
Ġfin ally
equ itable
Ġk y
Ġun defined
ĠE valuation
mo s
Ġhx B
Ġhx J
Ġhx g
Ġmap âĤĹ
smul g
ĠH z
pre measure
.. (
apply c
ad ict
Ġz t
Ġz ag
ĠK uel
âĤĢ âĤģ
ate ver
um er
Ġ(( +
ol der
ol Ring
Ġ_) `
iso s
Ġpre compose
str action
Ġhs s
Ġhy i
Ġhy j
mal ity
ens en
Ġhp I
Ġhp k
ĠU rysohn
Ġhi x
Ġ" :"
and les
Ġ(âĪ ŀ
Ġen counter
be ing
Ġht ml
Ġmo tiv
min us
Ġinter act
Ġinter face
hx a
Ġcont ents
ject s
Ġâĭ Ī
Ġdesc ends
wa ps
rec F
Ġ`( _
ĠQ x
und ant
Ġover lap
ĠIn sert
ĠIn version
ĠIn deed
Ġ20 00
Ġneg ates
âŁ©âŁ© ;
anti vary
tom orph
Ġtri angular
Ġ\ "
)} )
hn p
ĠâĪŀ )`
Ġhd b
form s
ide mpotents
Ġpure ly
Ġhj p
cond ensed
os able
Ġspec ifies
Ġ(âĬ Ĥ
Ġâĩ Ķ
Ġfr ac
Ġsym metrize
hm s
Ġrestrict ing
Ġidenti fy
Ġiter ations
ĠhS T
Ġrepresent ably
col s
Ġclear s
sy nonym
ĠhK U
super polynomial
Ġbase points
ĠhF c
Ġsol ves
Ġpresheaf ed
âŁ¨âŁ¨ âŁ¨
âŁ¨âŁ¨ âŁ¨_,
Ġpush ing
Ġvan ish
square d
ĠĠĠĠĠĠĠĠĠĠĠĠĠĠĠĠĠĠĠĠĠĠĠĠĠĠĠĠĠĠĠĠ ĠĠĠĠĠĠĠĠĠ
iki pedia
ĠhÎ´ pos
): =
Ġdenom s
Ġred undant
_{ \
Ġback track
Al so
lead s
Ġtransfer red
Ġ`â¨ į
Ġsimplify ing
Ġimplement s
Ġput s
Ġdecomposition s
hX Y
yn am
Ġmsg s
Ġdisj unction
Ġtre ated
Ġtransvection s
Ġmathe maticians
Ġsi multaneous
Ġimmersion s
Ġestabl ishes
Ġte ichmuller
_* _
Ġsit uations
Ġdiamon ds
ern ary
Ġbuil ds
Bounded Lattice
hypothe sis
Pre order
Ġplay er
expl ain
ĠEquivalent ly
ĠFu bini
Ġortho centric
,... ,
bucket s
control led
ĠJust us
Ġ`~ `
Ġimpro ve
Sem ilattice
ĠKuel shammer
) \,
/ ~
2 00
4 5
9 9
A pply
C urrently
E S
E ven
H g
H Ïĥ
L ie
M áµĲáµĴáµĸ
P á¶ľ
S um
U áµ¢
X áµ¢
b range
c ubic
d g
f do
g mon
h top
h la
h Ïķ
m X
m Y
m th
m gf
m oment
q p
r f
r comap
s low
t c
u a
u ition
v ic
y z
z orn
{ }
â ĶĤ
ĩ ĳ(
in put
in equalities
Ġ( $
Ġa y
Ġh ma
Ġh tr
Ġs S
er ti
er ased
Ġt u
Ġt de
is su
Ġf li
Ġf ermat
en cing
Ġc apt
Ġc pkg
se sq
Ġ{ ..
Ġb N
Ġb ug
Ġ` =
Ġ` âŁ¦
me tr
ro pping
Ġp h
Ġp age
Ġe fixed
Ġis olated
Ġl mm
Ġl ives
âŁ© `,
Ġg row
Ġ- ((
Ġm c
Ġm join
ĠR un
ĠR pos
ĠR oth
Ġd ynam
set âĤĽâĤĹ
ĠâŁ¨ âĢ¹
Ġre p
Ġre cor
ed itary
one l
act ually
Ġy b
et erm
sub rel
comp osed
Ġsu pply
Ġan e
Ġto ol
ĠM atri
Ġco es
Ġco llapse
li g
li ers
)) ;
ĠÎ» y
ĠA nother
pro ps
Ġha f
ĠI Î²
Ġv comp
ase vic
ĠC ore
ĠC hen
ĠC á´¹áµĴáµĸ
ĠF G
ĠF âĤĻ
ĠF rame
ne sted
Ġsub expressions
vari es
ĠP rob
ĠP aul
fi mum
Ġun failing
Ġle ave
ĠE âģ¿
Ġhx I
Ġhx K
Ġpro ductive
Ġpro tect
ĠH inh
Î± Î²
Î± áµĴáµĪ
Ġfi g
Ġz w
Ġz y
ĠK ur
ur ch
ĠÎ¼ c
pos sible
log ies
Ġhf d
ĠN ext
Ġ(( _
ĠB it
ĠB oth
ĠB inary
Ġ^ [
Ġintro ducing
Ġlist Îł
Ġhy d
ĠD FA
ĠâĪĥ (
âĤĥ âĤĥ
Ġtype d
ag raph
') ],
Ġ" )
Ġ" **
Ġ-- ----------------
)] `.
Ġ(âĪ ª
Ġmono chromatic
Ġht v
Ġhn b
Ġinv ok
Ġclo pens
Ġse mantics
Ġar tinian
The orem
ball s
Ġdesc ending
Ġpri ori
ph ragmen
cy c
Ġreal ized
Ġdiv mod
ĠâŁ¨âŁ¨ âŁ¨_,
Ġclosure s
ide s
Ġchange d
ĠWe ak
adj ust
Ġhe f
Ġpr j
ay ama
inner SL
âĤĲ z
pres sing
ĠO per
tail ing
Ġir reflexive
Ġme x
Ġinsert ing
Ġ100 0
Ġidenti cally
Ġidenti fying
âĪ¥âĤĬ }.
over ride
ache d
Ġ(_ ::
ĠComp ose
ific ations
Comm SemiRing
For malizing
col on
Ġdistrib utivity
pf s
default s
Ġ[* ],
Ġnumer ators
Ġsa mp
âŁ¨âŁ¨ {
ĠEx tra
ĠEx plicit
Ġheq v
lip tic
ĠCommRing áµĴáµĸ
Ġcomponent wise
she lf
numer ator
Ġshort cut
Ġshape s
Ġhand led
ĠPre composing
Ġcontrol s
Ġseg ments
Ġreplac ement
ĠTrans lation
bol ic
Ġacc u
Ġapproximat ing
Ġmat ter
ĠhH K
Ġ`+ `,
Ġ`+ âĪŀ`
Ġ`âī¤ `.
Ġsyn tactic
suc ceeds
Ġfl atten
De precated
ib onacci
coatom istic
ĠÂ ©
env ironment
Ġlr l
Ġlr r
áĺģ X
ĠBor ceux
ĠBe ing
Ġ`, `
}{ \
remain ing
Ġcare ful
Ġhyper plane
Ġcalcul ate
_* .
Ġ[[ ]]
Ġdecomp osed
Ġscan r
Ġlexi cographical
inclu ding
Ġdy adic
Ġprom ote
ĠPartial Fun
Ġ(âĬĶ ),
smal ler
Ġcompar ing
Ġstor es
Ġexec ution
Example s
rewr ites
Ġ(_|_|_ ),
ĠiV U
Ġdecre ased
differ ent
ĠAffine Scheme
expres sed
Ġaltern ation
Ġinvoc ation
ĠCommut ative
behave d
ĠDepend ent
Ġtheor ies
Ġquiv ers
Ġamalga mation
Ġencounter ed
erti a
metr ify
! âģ»
) âŁ«
) âģĨ
* ]
* ](
: ",
A T
B uild
M il
U nfortunately
[ âĨĲ
\ |
] ];
a a
a ff
a round
c z
d n
e i
h comm
h pi
h ind
i hs
i queness
l attices
n in
r cons
t wice
v comp
x r
} ^
Ġ lying
Ġ omit
Ġ ultraproduct
in duce
Ġ( ![
on to
Ġa h
Ġa p
Ġa ctive
Ġh unit
Ġh prim
Ġh âĤĻ
Ġs w
Ġs mt
Ġs YZ
er re
Ġt fst
Ġt snd
ma r
ma the
ma ch
ma bility
is m
Ġf u
Ġf ra
Ġf ounded
Ġf mt
Ġf reiman
Ġf uel
al mos
re serve
ti lt
ti eltjes
Ġc ne
se ls
Ġb infi
Ġb idx
su al
Ġr g
Ġr ll
Ġr oughly
Ġn erve
Ġp X
Ġe of
Ġe symm
an other
un opposite
ac y
ĠâĪ ¯
Ġi hf
Ġi hg
Ġi ota
Ġin correct
ing u
ri age
ab surd
Ġl map
Ġl smul
Ġl and
Ġg int
Ġg cont
Ġm im
Ġm cond
ĠR an
ĠR iemann
Ġd atatype
Ġre ps
ot ing
et er
Î» j
Î» pd
sub multiplicative
ĠM congr
ĠM athe
Ġcon sequences
Ġco insertion
ĠÎ» b
pro position
ðĿ ĳ
Ġde bug
ĠS á¶ľ
ĠF old
Ġ1 1
Ġ1 7
tin ess
Ġsub rel
Ġsub expr
Ġsub graphs
es ign
Ġfin itary
ĠG in
ĠP ell
ĠP hragmen
fi ve
Ġj x
Ġk n
Ġle besgue
Ġo k
Ġas sertion
Ġas ympto
Ġhx x
nat s
ĠH I
pre quotient
pre complete
inv o
ch an
Ġal one
top sp
ĠK rull
ift ing
ur ated
Ġhf ga
pl anes
ĠB i
ĠB ry
Ġq r
ĠâĢ ¦
âĪ¥ *âĪ¥
Ġpre local
pri med
ha i
not ations
ĠD eterm
univ ersal
Ġhb v
Ġhp d
ĠU á¶ľ
Ġ" ?
Ġ" \
and book
Ġend ing
ĠW repr
be lian
cons ider
Ġht d
Ġpar agraph
Ġ... ]`
ÏĢ âĤĺ
rel s
ĠZ orn
hx t
oo k
ang ulated
hg a
Ġnor malizing
Re arrangement
ali ent
bi compl
uniform izer
exp onentiable
ĠIn fimum
Ġapp ends
index ing
Ġeval s
Ġtrans p
fr ont
Ġ[] ).
Ġ[] ))
Ġtri ck
)} .
Ġexp onentially
Ġhk i
maliz es
Ġmultiplic ations
Ġhl n
Ġhl x
âŁ©) âŁ©,
ĠðĿĴ «
Ġhq p
Ġem it
Ġvari ation
Ġdis charger
Ġimp lied
âĢ ĸ
ĠRe peated
ĠFor get
fer ence
Ġ`[ (
Ġme et
Ġme ets
Ġme chan
Ġ201 6
ĠCon j
ĠCon gr
Ġhw x
Ġcof rame
Ġiter ates
Ġiter ating
exact ly
Ġ(âŁ¨ (
atem ents
Ġchain s
Ġbasic s
Ġdepend ently
decl ared
Ġsign ificant
(( (
Ġdistrib uted
component wise
Ġ`âĪ Ĥ
ĠhC F
Ġinl âĤĹ
Ġwr ites
defin ing
ĠâĪ¥( âĨĳ
dec ision
Ġsa ve
Ġpp A
Ġpp B
ĠEx pressing
ĠPro of
Ġge ometri
Ġadm itting
ĠMe an
alter native
Ġultrafilter s
Ġtauto logical
Ġ-( -
Ġshort est
ðĿķ Ĩ
âŁ¦ -
Ġhand les
Ġcs b
20 15
Comp osition
^âĪŀ (
Ġcache d
Ġrewr itten
Ġreason ing
Ġensure d
Ġsuccess fully
ĠSt ar
Ġmultip lies
assumption s
derivation âĤĹ
return s
ĠSub tracting
Ġquaternion s
ðĿĶ ĸ
ĠSe cond
decor ations
Ġlr x
hÏĥ ÏĦ
linter s
Ġlabel s
ĠLim inf
edi ous
Ġmathe matically
Ġtrim med
quasi convex
Ġhyper real
Ġ`* `,
Ġremainder s
ren aming
inters perse
sp ans
Ġaccept s
combin ed
ĠDist ance
Ġentoura ges
ĠFunctor s
ĠRecur sion
Ġcontr adict
ĠFix ed
ĠðĿĴŁ áµĴ
ĠSte phen
ĠDiv ision
ĠEu ler
Ġ`âī ĥ
Ġdeci de
Lemma s
Ġher mitian
typ ical
ĠQuotient s
pigeon hole
Ġachie ve
ignor e
Ġeffe ctively
ĠRa umer
ĠRem ove
clau se
respe ctively
Ġplug in
occ s
onel li
ĠKur atowski
ĠBry an
' .{
' ::
) +
) âĮĭ
) $.
H p
H add
J áµĴáµĸ
J ensen
L o
O T
W p
] ]`
` âĪĳ
b N
c ity
f R
g ies
h it
h li
h bot
h surj
h off
h enselian
i tiv
l diff
m join
n dist
n linarith
p ital
r Î²
s le
s hr
t X
t ext
t expr
u ses
w ers
w hether
y x
| ),
} $.
â Ļ¯
le gal
Ġh mp
Ġh one
Ġh id
Ġh comp
Ġh diff
Ġh abs
Ġh triv
Ġh Ïĩ
Ġh ðĿĴľ
Ġs end
Ġs gm
Ġs XY
or ial
Ġt f
Ġt ernary
Ġf p
Ġf range
Ġf xy
en haus
Ġ` âĢ¢
Ġ` âĪŀ`
Ġx âģ¿
Ġr c
Ġr map
Ġr are
Ġr rs
co upling
Ġp ort
Ġp asses
Ġp ulled
un bundled
un less
ac le
Ġin duct
Ġin discrete
Ġin variance
Ġl or
Ġl fa
pp ow
Ġg npow
Ġw ants
Ġd m
Ġd n
Ġre pe
ĠT uma
us akov
sub basis
Ġan isotropic
fl ag
ĠM apping
)) :
ĠA Ë£
ĠA belian
ĠS to
ĠF ox
Ġu x
right âĤĹ
ĠX áµĴáµĪ
Ġint ention
Ġint uition
Ġfin v
ver tical
ver bose
comm en
ĠG o
ĠG re
ĠG á¶ľ
the m
Ġj ump
Ġk ill
Ġun necessary
Ġle aves
Ġo i
ĠE isenstein
Ġas signed
Ġhx c
neg ation
ĠH l
ĠL S
ĠL attices
il son
Ġz neg
cl ick
ĠY our
sum s
Ġ(( âĪĢ
Ġ(( âĪĥ
ass enhaus
clo pens
Ġq a
ir y
div p
Ġpre list
Ġpre vent
Ġpre irreducible
ĠV an
inter p
Ġhy q
si rel
ĠD VR
Ġwh atever
Ġhb x
singleton s
Ġhp t
Ġhp df
ĠU pd
Ġhi q
ative ly
Ġend point
Ġst atus
verse ly
Ġen orm
ĠW hy
ĠW arning
be fore
cons istent
Ġht V
Ġht b
Ġht l
Ġhg s
Ġhn f
Ġclo ses
ization s
ĠZ ang
'' ],
Ġhc x
Ġhc y
num bers
ie hl
Ġlocal ity
sur real
sur ator
ĠĠĠĠĠĠĠĠĠĠĠĠĠĠĠĠ ĠĠĠĠĠĠĠĠĠĠĠĠĠĠ
)` )
Ġrel s
Ġrel ax
uniform s
ĠIn finite
vi de
Ġih l
Ġhr p
Ġsem idirect
Ġbas ically
Ġqu es
fa ult
Ġmax imi
ht Î¼
Ġgeneral ise
spec ified
ĠâĪŀ ),
dis continuous
adjoint s
Ġassoci ation
power lt
Ġcardinal ities
We ierstrass
Ġhv t
00 2
os per
ĠO f
Ġpower lt
Ġ_)) âŁ©,
mat ed
)âŁ© âŁ©,
Ġ`[ ]`
]` )
âĬ ĵ
ĠCon ven
Ġlin exp
Ġhw s
ĠSup remum
ĠðĿĶ ¹
ĠDe von
ĠComp uting
ðĿĴ ŀ
faithful ly
Ġinclusion s
ĠAdd Mon
Ġvan dermonde
âŁ¯ âŁ¨
ĠâĢ¹_âĢº ))
Ġpl ain
Ġrequire ment
hU o
hÎ¼ Î½
Ġdetermin ants
Ġelim inating
Ġprojective s
Con ts
model s
Ġ`- `,
ĠDefin es
Ġhand ling
ĠUn der
Ġ([ (
hK L
post fix
Ġide mpotents
ĠhX Y
ĠâŁ¨- [
Ġuncurry ing
Ex t
Ġprint ed
Ġconsist ent
Ġread able
ĠâŁ¨_ |
Ġimplicit ly
Ġmonadic ity
pren ndist
Ġcer tificate
ĠSe par
pat ts
Ġray leigh
11 34
Ġrl r
pher es
formul ated
Ġelabor ate
Ġtransport ing
Ġtransport ed
ĠQu iv
simpl ified
Ġintersect ing
Ġcalcul ation
Ġabsorb ing
high light
Ġ`* `.
differenti ability
ĠDi rect
_* _*.
Ġsurreal s
Ġcopi ed
ĠSome times
ĠBer nstein
Ġ(âĬĵ )
Ġguarante es
ĠApp lies
ero geneous
Ġexpan ds
Ġcarry ing
Ġexplain ed
branch ing
Bounded DistribLattice
Fq t
ĠSch ur
Ġabbrevi ated
Ġreference d
had amard
Ġstu ck
differ ence
Ġgold en
Ġdu mmy
follow ing
Ġstruc tomorphism
Ġil legal
Ġhet erogeneous
coercion s
ĠDiff erenti
Ġ[(âĪĺ )]
tiy asevic
Ġ`? `:
Ġdifficul ty
cell aneous
ĠWr ite
prom ises
Partial Fun
Ġsco pe
ĠMet ric
Ġcapt ure
ĠâŁ¨âĢ¹ _âĢº
ĠMatri ces
ingu ish
ĠYour ong
sirel son
' )))
' `."]
' âŁ¯)
) !)
, _âŁ©,
3 2
B or
D áµĴáµĸ
G rothendieck
H Ã
M áµ¢
O ur
T aking
] ].
` ".
b and
d support
e ball
e lect
f c
f x
g on
g ar
h in
h gh
h succ
h card
h max
h prime
h áµ¢
h Î¦
i ly
i hn
l n
l led
l iftr
n et
p ong
q x
s cc
s format
t able
t fst
t uples
u k
u ous
w ink
y i
y t
y ing
z p
z neg
| ))
} (
} ")
´ pital
Î ©
ĺ )
Ġh co
Ġh es
Ġh cast
Ġh len
Ġh istory
Ġs waps
or es
Ġt Î±
Ġt ending
Ġt edious
Ġf alls
al ysis
al phabet
re presentation
Ġc u
Ġc filter
Ġ{ âŁ¨
Ġ{ âĪħ
Ġb M
Ġb v
Ġb x
Ġb á¶ľ
Ġb family
Ġb mex
it auto
of ten
Ġ` âĭĤ
Ġ_ },
Ġx mem
Ġr d
co li
Ġp m
Ġp âĤĻ
Ġe L
Ġe mem
Ġe li
Ġe approx
un typed
un safe
imp lic
Ġi U
Ġ= âī«
ri e
Ġis elect
Ġl rs
Ġ- *
Ġw arning
Ġw itnes
fin iteness
ĠR âĤĽ
Ġd Gamma
Ġy eq
ĠT X
ĠT hom
ĠT ake
et t
sub algebras
Ġan notation
Ġto oltip
ĠM is
Ġco st
li ties
li ques
Ġ0 0
ĠA len
ĠA uto
pac ed
pro duces
ĠI ter
Ġv a
em er
em ents
ex tra
ĠC g
ĠC l
ĠC ategorical
`. "
ĠS uch
Ġ1 100
Ġfin sum
Ġfin ding
ĠâĪĢ '
ĠG u
ĠG usakov
ĠP utz
Ġj n
Ġk replace
Ġun rev
Ġun known
symm L
symm âĤĹ
ĠE R
ĠE ven
mo use
Ġhx T
Ġmap q
Ġpro vable
ĠH J
ĠH all
ĠH os
equiv ariant
ĠL ists
ch anging
trans parency
Ġz ify
Ġz oom
cl s
top her
ĠK V
ĠK ol
Ġadd itiv
Ġhf C
Ġhf q
Ġhf r
ĠN x
Ġ(( âĪĳ
Ġma c
ĠB ound
Ġ_) }
div mod
âĪ¥ /
âĪ¥ }
Ġpre pend
Ġpre groupoid
Ġpre processing
Ġhs n
Ġhs r
ĠJ ac
Ġhy n
ĠD ue
class Name
ĠâĪ¥ -
Ġhb j
Ġhb u
rib ed
Ġhp deg
ĠU p
nonneg ative
Ġ-- >
Ġ-- -->
âĦ ĭ
ĠW hat
lex i
Ġht wo
Ġobtain s
ense l
Ġhg n
Ġpar sing
Ġinter pre
Ġ(â ĩĳ(
Ġnon commutative
Ġmk q
per ner
Ġar borescence
Ġhm t
bit s
polynomial s
Ġover view
ord set
sig nat
Ġapp r
ry ing
vi ce
Ġconvert ing
ĠâĬĹ âī«
ĠâĬ¤ ))
ĠâĬ¤ âģĨ
Ġqu asilinear
term g
Ġbi partite
anti period
Ġderiv ations
Ġ[] .
sol n
Ġtri angulated
Ġclassical ly
Ġterm inate
factor isations
Ġpos si
prop agate
ĠâĪŀ }
dis join
Ġarg ue
Ġhl s
ĠIH l
Ġhq r
ay ley
rou pes
Ġcho oses
ĠO utput
Ġâĩ ī
Ġtrivial ly
Ġ`` ((
sym metrify
Ġir relevant
Ġtensor ing
ub tree
wr iting
ĠCon ditional
equal s
Ġinfi ma
Ġâĩĳ( âŁ¨
Ġnil radical
Ġdec ision
Ġdefault s
element arily
Ġ[( _,
Ġver ifies
Ġ(âĪĥ !
Ġbig ger
Ġrespect ing
Ġcompl ain
Ġclear ing
Ġ`âĪ Ĳ
Ġac count
Ġac cessed
ĠMon otone
Ġformal ly
zy gies
Ġsatisfi able
ĠEx p
Ġrequire ments
math bb
minimal s
Ġsemiconj ugate
hU V
ĠCom bin
check s
Con vert
Con sider
ĠChris topher
Ġ9 90
Ġerr p
ĠDefin ing
Ġshift ing
zel a
20 17
car neiro
dia mon
Ġrename d
Ġcomput ably
Ġshrink s
othe tic
Ġreason able
use ful
Ġag gres
hint s
âĮĭâĤĬ )
Ġ`â¨ Ĥ[
ĠCo er
ĠBo olRing
HS H
Ġ`< `.
Ġmagma s
Ġpresent ation
Ġscale s
Sheaf OfTypes
represent ative
Ġpick ing
Ġinterpret ation
Ġsample s
Ġresp on
ĠStructure s
ĠEm b
Ġrelative ly
Ġidentifi er
Ġinstanti ated
Ġprac tical
More over
Ġmessage s
)* (
Ġguarante e
ĠPo wer
onenti ation
@`( @
hex t
Ġstruct ural
With Zero
Ġ(âĪĺ )]
Ġcontr ast
Ġendofunctor s
Ġref ers
Ġminimi ze
Ġ(= )
Ġstu ff
requi re
ĠGe ometry
Haze wink
ĠHas se
196 6
combinator ics
Ġ(âīł )
ĠPost composing
Ġnonemp tiness
Ġvis it
!"( {
Ġconcer ns
Ġtemp or
Com melin
ket ch
absorb ent
ĠRot ating
ĠCas per
ĠSatis fying
Ġ(âŁ¨âŁ©| âŁ¨âŁ¨
cipro city
Ġfli pped
Ġdynam ics
ĠProb ability
ĠBit wise
ĠDeterm in
ĠCongr uence
1134 88
Bor el
HÃ ´pital
ĠThom son
ĠAlen a
ĠHos kin
Hazewink el
" ))
' âģĨ
( "
* )`
+ ,
+ `,
, }
. -
3 9
A N
A lexand
D E
E E
F P
F urthermore
H eq
H OL
M R
M ing
M Ë£
N ow
S o
S hould
S uch
S pencer
T ietze
V M
W U
[ |
\ "
] )]
` ",
a lem
a ving
b Henstock
c st
e w
e es
f meas
g ence
g orov
h smul
h inv
h last
h Ïĩ
i app
k t
k en
k ward
l ating
l ucas
m fld
n tra
p bind
p seud
t u
t de
t Î±
t Î²
u change
w kward
x eq
z s
z in
¾ °
Ã ¯
á ¾°
Ĩ )
in duct
in stein
Ġa counit
Ġh de
Ġh map
Ġh pe
Ġh ack
Ġh extr
Ġh ident
Ġs lower
Ġs pheres
Ġt ext
Ġt Î³
ma bs
Ġf d
Ġf ans
Ġf olds
Ġf urthermore
en ing
Ġc N
Ġc e
Ġb z
Ġ` âĮĬ
at temp
Ġr k
Ġr t
he ses
Ġn in
Ġn space
Ġp hr
Ġp ersistent
an ity
st er
st ra
Ġi ll
mul ating
eg endre
Ġl ga
Ġl ls
âŁ© "
âŁ© )))
Ġg g
Ġg has
Ġg monoid
Ġex s
Ġex traction
Ġw rt
Ġw itnesses
Ġm or
Ġm filter
Ġm Î²
Ġd ynkin
ĠâŁ¨ âĨĳ(
ĠâŁ¨ âĭĤ
Ġsimp lices
Ġrw s
Ġre ce
Ġre interpret
Ġy S
ist ant
sub goals
sub exprs
du mmy
ent er
ction al
ĠA ux
Ġexact ness
Ġde p
Ġ$ (
ĠC oun
Ġ+ âĪŀ)
ĠS uc
ĠS hrink
ĠS imple
ĠS trick
ĠF urthermore
Ġ1 9
ari zation
ĠX u
tri es
Ġsub tract
Ġsub tree
Ġsub terms
Ġfin est
âĪ ®
equ ation
ĠG ra
ĠP er
ĠP os
Ġk x
Ġun sat
Ġun curried
Ġun primed
Ġo l
ĠH N
ĠH k
ĠH enselian
Ġfor ce
ĠL inter
ĠL ocally
Ġfi ve
apply ing
trans num
il liary
ĠY áĺģ
ur ces
hf d
um ber
âŁ¨ "
theorem s
Ġcoe v
norm s
Ġpre f
Ġpre sc
Ġ| âĪ¥
Ġhs g
Ġhs l
Ġhs at
Ġus ers
name ly
ĠD om
hs x
Ġhb p
Ġlo ck
Î¹ âĤľ
Ġhp b
Ġhi de
Ġfilter ing
Ġdist inguish
Ġhn l
Ġ... )
Ġ... `.
Ġcomm ent
rel ator
Ġse ed
hx i
Ġdiff eomorph
mod ulo
compact ly
Ġhm c
Ġch inese
wa re
ck mann
ĠIn dex
ĠIn ductive
ĠIn put
Ġconvert s
ĠÏĢ X
ĠÏĢ Y
Ġsem ifield
ĠâĬ¤ `.
'] âŁ©
Ġtrans cendental
Ġ(- âĪ¥
Ġtri ples
Ġhu a
Ġhu man
Ġterm ination
ht u
ĠâĬ¥ `.
Ġ> =>
Ġhk x
hc b
Ġhd n
Ġso le
Ġ(@ _
ĠðĿĴ ª
option s
Ġhomo gen
Ġdis able
Ġdis continuous
Ġdis crim
equivalen ces
Ġfr ont
Ġimp ossible
ify ing
che cker
iter ator
ĠRe flection
dom ineering
âĬ Ķ
hd g
present ed
âģĨ âģĨ
Ġconj unction
Ġconj unctions
âŁ§ ))
Ġup graded
initial s
hl b
Ġcent ers
âĢº )
Ġver bose
ues s
ĠComp are
'âŁ© ).
Ġ(< $>)
iver gence
col lect
col lected
Ġdistrib ute
Top CommRing
ĠMon adic
Ġtotal ize
)âĪ¥ ,
Ġ5 00
ĠhA U
Ġind ent
Ġsol ving
law s
rough out
âŁ¯ `
cs r
ĠâĢ¹_âĢº ).
eigen values
Ġthrough out
gi ble
Ġelim inates
test ing
Ġweak en
check ed
new ord
Con stru
Ġencode s
Ġprepartition s
Ġnamespace s
mate ly
Ġshift s
ĠUn bundled
ever al
ĠhX disj
Ġcombin es
ĠBa zin
Ġrest atement
Ġ(âī¥ )]
Pro jectiveResolution
Ġrandom ly
config uration
âĭĨ -
âĭĨ âĪ¥
ĠâŁ¨_ |âŁ¨
Ġpq r
ĠPi erre
Ġthink ing
Ġpoly morphic
Ġindic ate
ĠEquivalen ces
Ġgeneralization s
hH K
Ġsynonym s
Ġrl x
msg s
ĠSem in
Ġcylinder s
Ġpick s
Ġconcept s
quasi concave
Ġcare fully
ros ser
Ġhsu v
Ġhyper bolic
Ġhyper planes
Ġestabl ished
Co mpletion
Ġins pi
neighborho ods
Ġidentifi ed
Ġquantifi er
Ġasc ription
Ġrever sing
Show s
Ġmp os
equi pped
ĠPri estley
hex tr
ĠClo sure
Ã¶n wall
Ġ`â ¬Ŀ
Ġ`â ĩĳ
ĠContinu ed
mac ros
ĠRecur sor
ĠCan onical
Ġtransl ating
Ġ(/ )
Ġidentific ations
Th us
ĠPr incipal
ĠSh ort
ĠSh ifting
ĠExample s
bb W
Ġ`> `
ĠGr Ã¶nwall
Ġhal ting
Addition ally
Trans fer
Ġhar der
ĠReg ister
ĠGener ate
expect ation
Ġsubt le
IN G
Ġsugges tions
âīĪ )
conven ient
Affine Scheme
Typ ically
Ġscri pt
ĠVer ify
Measu re
rich let
irk hoff
ĠConst ant
Ġyield ing
Intro duction
Equivalen t
arb age
Ġfig ure
ĠOper ations
Ġmechan ism
Alexand re
ĠStrick land
" ).
( \
) >
, },
3 0
3 1
3 3
3 8
4 7
5 5
A la
A lthough
A âĤĵ
B ut
C U
C p
C âģ¿
D ata
D FA
D esign
E D
E CT
G roupoid
H om
I X
K leisli
M otzkin
N eg
P D
P R
R Ë£
R iehl
S e
T actic
V I
V S
V itali
[ âĪĢ
_ ]
a lex
b âĤĻ
b isimulation
b arycentric
c gf
c ategorical
d rec
e as
e âĤĺ
e âĤĻ
f u
f ra
f lypitch
g non
h mono
h mo
h funext
h inst
h sep
h ðĿĴľ
h orizontal
i ors
k m
k replace
l curry
l hopital
o gl
p n
p mul
p tendsto
r us
r wa
s x
s ay
s modeq
s XY
s YZ
s paced
t hose
u sual
v ity
w g
w arning
x áµ¢
y on
y et
z ne
| âŁ¨âŁ¨
| ))))
} '
} =
} ];
} `;
Â ł
Ġ ))
Ġ áĺģ
in o
in dices
Ġ( >
Ġ( )))
Ġ( %%
Ġa wkward
Ġh mo
Ġh equiv
Ġh pr
Ġh pri
Ġh rw
Ġh domain
Ġh match
Ġh inst
Ġh Ïĸ
Ġs U
Ġt n
Ġt as
ma tical
is se
Ġf R
Ġf it
Ġf taylor
Ġf encing
al id
re port
Ġc artan
Ġb oo
Ġb are
Ġb arycentric
Ġb kt
Ġ` /
Ġ` âĨĳ(
Ġx c
Ġx q
Ġr match
Ġr ls
co me
co gn
Ġn u
ĠâĨ Ĺ
Ġp iv
Ġe u
an i
ar r
st ors
Ġi b
Ġi hom
mul ator
Ġin e
Ġin jectivity
eq áµ¢
ri end
to ine
Ġl W
Ġ} )),
). .
ĠâŁ «
ct ually
pp o
Ġw orth
Ġm ist
Ġm ker
Ġm replace
ĠR ab
ĠR ational
Ġd ri
int s
id ire
id istant
ist ing
Î» Îµ
us in
comp osable
mem ber
Ġan s
Ġto wards
Ġco induction
)) },
/-- `
Ġde coding
], [
ĠI deal
hom omorphisms
ĠC p
ĠC x
Ġ+ -
ĠS k
ĠS quare
Ġ1 4
ne y
right L
ĠX áĺģ
Ġsub s
Ġsub canonical
ĠP ut
Ġj unk
Ġle aving
Ġo u
ĠE l
ĠE lim
ĠE áµĴáµĪ
Ġhx A
Ġhx S
ĠH R
pre serve
inv alid
ĠL ucas
fine st
il attices
ad hp
Ġz a
Ġz l
Ġz r
prod âĤĹ
âĤĢ âĤĢ
ca vity
hf ga
ĠN s
ĠN eil
ĠN pq
Ġcomp anion
pr l
ext ensional
Ġ(( {
Ġ(( ((
mi lton
ol le
ĠB est
ĠB ru
ĠB ai
Ġq p
ir red
Ġequ ational
Ġpre p
Ġpre triangulated
Ġ.. @
ĠV b
ĠJ alex
ha x
inter section
Ġhy a
Ġhy b
Ġob lig
ĠD oll
ens ation
hs p
hs at
hs Î¼
ĠâĪ¥ âĪ¥
Ġlo ad
Ġlo cat
Ġab c
Ġtype check
ĠU sually
ĠU nfortunately
ers ally
ag onal
ag rees
') âŁ©,
Ġ" *
Ġ" <
Ġ" âŁ©"
Ġ" âŁ¨"
âĦ °
âĦ Ĳ
ĠW ill
Ġht x
Ġht ne
Ġht endsto
Ġhg b
Ġhg o
Ġhn a
Ġhn r
empty set
Ġ... `,
Ġinter p
Ġinter leave
Ġcomm ents
Ġ(â ĩĳ
Ġnon computably
'' '
'' ).
'' âŁ©,
some thing
Ġuse less
hx V
Ġhc Îµ
Ġar ise
Ġar ises
Ġsome where
plic ation
mon om
mon otonic
bi ased
Ġreal ization
Ġ20 0
Ġapp ending
Ġ:: =
Ġsem isimple
ĠâĬ¤ `,
Ġno tice
Ġtrans formed
res sed
Ġbi compr
sol id
Ġhz v
Ġhu x
Ġterm g
Ġabs K
hy x
Ġhk j
star ting
dis crim
ĠIH xl
ĠIH xr
Ġhe a
Ġhv a
âĤĲ r
bor ceux
ĠAn alo
ĠAn toine
OD E
Ġ_)) âŁ©
ĠâĨĳ( âĪĳ'
sym metrize
ĠRe p
ĠRe al
Ġcast ing
áµ¢ â±¼
condition s
hd c
ĠhÎ¼ U
âģĨ `
equal izes
Ġanal y
monomial s
âŁ§ `
Ġmore over
`) ;
ĠMor itz
Ġdual s
Ġdual ity
hl u
Ġbind ing
atom ise
'âŁ© ),
Ġsqrt d
ĠÏī b
ĠHausdorff ification
Ġcharacter isation
Ġsign s
col linear
ultra homogeneous
contra pose
super sets
triangle s
Ġho pe
)âĪ¥ âģ»
defin es
Ġ`âĬ Ĩ
auto matically
Ġ[* ];
Ġmaximal ity
Ġjoin ing
Ġcode s
Spec ial
Spec ifically
ĠAdd Group
ĠPro jection
ĠâĹ «
ĠĠĠĠĠĠĠĠĠĠĠĠĠĠĠĠĠĠĠĠĠĠĠĠĠĠĠĠĠĠĠĠ ĠĠĠĠĠĠĠĠĠĠĠĠĠĠ
ĠhM l
Ġcore presentable
Ïī b
ĠÏģ V
ĠÏģ W
Ġdrop n
Ġavo ided
equivalent ly
Ġbelong ing
Ġafter wards
applic ation
ĠFq t
âģº `
Comp osing
ĠGroup WithZero
Ġhat Î±
Ġrename s
ĠhX nonempty
Ġsti eltjes
contain ing
ĠSt acks
ĠSt ark
Ġprint ing
ĠFr ac
ĠCo lex
Ġfunctorial ly
oc used
ĠMar tin
ĠMar riage
ĠBo lton
Ġ_âŁ©âŁ© âŁ©,
rei er
ĠhÏĢ p
satis fy
ĠFin set
Ġshe lf
Ġsubstructure s
Ġunf ortunately
negative s
Un like
Ġelabor ated
Ġperform ing
Ġanalog y
Ġapproach ing
Ġproce ed
satisfi es
Ġtechn ically
ĠRel ations
ĠRel ating
Ġcalcul ates
Ġcalcul ations
Ġms U
Ġcoer ce
ĠIs omorphic
ĠCre ates
Ġcharacterization s
ĠMo ore
ĠApp roxi
ĠPri me
Ġamong st
Ġbehave d
ĠFi elds
ĠEn gel
Th roughout
Ġdiffic ult
ĠJens en
had p
Ġdivisi ble
Ġexclu ded
Ġcoroll aries
Ġamount s
Ġreport s
ĠHas kell
Le ft
Ġher editary
Ġexception al
typ ically
ĠImage s
Ġplac ed
Ġtrac es
ĠImp ort
Ġshr unk
Ġincre ase
members hip
Ġsha red
wra p
Ġvi ol
)^{ -
Ġsimultaneous ly
issu es
Ġ(_:: _)
mach ine
Ġrepe ating
ĠSto ll
ĠâŁ¨âĢ¹_âĢº ,
ĠPos itive
Ala ogl
fra isse
yon d
Ġpiv ot
idire ctional
ĠBai ley
Alaogl u
" )]
' ^
' |
' ",
) âĮĭâĤĬ
* -
+ (
+ )âŁ©
- "
. \
2 8
5 6
C g
D l
E n
F reiman
H E
H le
H inv
H andbook
I s
J ew
L ean
N T
N a
N e
O utput
R âĤĺ
S OP
T ensor
U S
V ari
W repr
Y M
] /
_ *`
` ]
a h
b S
e ight
f alsum
g ain
g âĤĻ
h O
h ma
h co
h ard
h nonneg
h Î¨
h ident
h ackage
i D
i hp
i tially
j x
j in
k áµ¢
m fold
m first
n áµ¢
o e
p B
p c
p format
q âĤĻ
s ory
s imilar
t esian
w in
y an
| }
Ï ħ
Ġ ly
Ġ dd
Ġ mpr
Ġ '`
Ġ( %
Ġ( )),
on s
Ġa U
Ġh op
Ġh right
Ġh prod
Ġh dist
Ġh inf
Ġh cos
Ġh sep
Ġs d
er nal
or ne
or malize
Ġt T
Ġt alking
Ġf m
Ġf orth
Ġf constructor
Ġf alling
Ġf lexi
en sible
en toura
al a
re m
Ġc x
Ġ{ }.
Ġb V
Ġb g
Ġr en
Ġr prim
Ġr âģ¿
Ġr iesz
co assoc
Ġn f
Ġn r
Ġn pf
Ġn cs
ĠâĨ Ł
Ġp v
Ġp us
Ġp ast
Ġe match
an on
ar borescence
ul sory
un yan
ac cum
imp lemented
Ġin ertia
Ġl up
Ġ} )))
Ġg n
Ġg osper
Ġg arbage
Ġex change
Ġw b
Ġw s
con servative
Ġd ictionary
Ġre factor
Ġre ferences
Ġre arrange
ed er
ĠT erm
ĠT im
ĠT echn
Î» k
sub expr
sub box
comp R
lt l
ĠM Ã¶
ĠM any
ĠM aking
Ġco algebras
Ġth row
simp lices
ĠÎ» i
ĠA i
ĠA lthough
Ġ* )
Ġde let
Ġde generate
Ġde duces
Ġde tect
Ġde signat
Ġha I
Ġha q
Ġha max
qu andle
ĠC op
ĠC all
ra Ã¯
so lete
ĠS imp
ĠS equ
ĠS eries
ĠS tieltjes
ĠF a
ĠF ails
ĠF ibonacci
Ġ1 3
ne mp
ne ed
ne eded
Ġu cs
Ġsub sheaf
es pec
lim inary
ĠâĬ Ľ
ĠG s
ĠP l
ĠP s
ĠP erm
Ġun re
Ġ< *
Ġas king
Ġhx W
has kell
ĠH U
ĠH add
pre metric
ĠL egendre
ĠL usin
Î± áµĥáµĴáµĸ
ad apt
Ġz p
cl ude
type classes
ho ld
ĠK alle
ĠK yt
ĠY m
ĠY p
ĠY áµ¢
Ġadd itivity
non strict
let I
hf C
Ġhf xy
ĠN ame
el f
Ġma ter
Ġma rg
ĠB R
di ct
linear ly
ĠThe ir
Ġnat s
ir ch
Ġit em
Ġhs ne
ĠV á¶ľ
ĠJ unyan
ha o
inter cept
si x
Ġob solete
ĠD r
lift able
local ity
local ize
Ġbe hind
Ġhb o
integral s
Ġtype checker
ĠU pper
ĠU â±¼
list Îł
ag ing
Ġsum mability
Ġtr c
Ġ" ",
ind ent
Ġen vel
Ġen abled
ĠW u
Ġhn t
In put
Ġop ti
Ġnon uniform
Ġnon dependent
ĠZ ero
'' ))
Ġelement arily
Ġlift able
Ġlt l
Ġgener ation
Ġhm z
Ġdesc ent
hg k
ss Ã©
bi compr
bi lities
Ġpri mary
Ġrel ator
ĠÎ´ s
âĪŀ )).
âĪŀ )))
Ġad c
Ġad apt
Ġneg ating
Ġquotient ed
Ġhr m
Ġany where
ĠâĬĹ âĭ
ĠâŁ¨âŁ¨ âĬ¥,
Ġconstr s
Ġuniv ersally
hp c
Ġtri ed
Ġhu U
angle s
gener ating
ĠâĬ¥ `,
Ġ_âŁ© ).
Ġexp lo
Ġexp onentiable
Ġexp ensive
Ġso on
Î´ s
âŁ©) ],
ĠWe ierstrass
Ġchar matrix
poly morphic
Ġhq c
Ġ3 7
Ġcount s
Ġhv p
Ġhv x
curry ing
rou ble
ĠO rd
ĠâĪħ `
tail ings
hi k
)`. "]
Ġsur jectivity
âĤĦ âĤĤ
Ġ_)) ]
Ġ_)) ))
Ġoper ate
ĠâĨĳ( âĪĳ
chain s
ĠðĿĵ Ĵ
regular ity
oper ation
Ġinsert s
Ġhw eq
ĠâŁ¨( (
ĠâŁ¨( *)
Ġâĩĳ( âĪĳ
mv qpf
Ġnormal ly
Ġdec s
Ġup ward
ĠJo hn
Ġ[( (
Ġ[( âī¤
Ġke pt
Ġper formed
ĠLe ast
ĠLe ather
Ïģ V
ĠDe fault
ðĿĵ ŀ
ĠComp arison
Ġ(< ))
Ġ(< *>
âĮ Ī
Type class
doc s
ĠCar tesian
Ã© chet
ury sohn
tac tically
Ã¶l Ã¤
ĠhV f
ĠhV o
ĠMon otonicity
general ization
general ised
Ġ(âĨĳ( -
ĠhB C
ĠhP M
null homotopic
padic s
Ġtra ditional
âĮĭ `
weak en
ĠĠĠĠĠĠĠĠĠĠĠĠĠĠĠĠĠĠĠĠĠĠĠĠĠĠĠĠĠĠĠĠ ĠĠĠĠĠĠĠĠ
ild card
Ġauto mation
Ġrelations hip
Ġra ises
hS R
fig uration
Add Semigroup
Ġback wards
corec F
Ġ9 6
infix l
ili zes
cr iterion
Ġ' {
ĠUn iqueness
Comp are
ĠPre serving
ĠDo es
Ġgrade s
ĠRing edSpace
Ġ(âĪĪ )
") ?)
Ġassert v
Ġide m
19 92
ax ler
hR S
ĠRet ri
Ġmy and
Ġinde composable
Ġ`âĬ¥ `,
Ġcolor ings
ĠCo q
Ġmultip liers
Ġduplic ation
Ġcar atheodory
Ġknow s
az ur
yn tax
av o
av ailable
ĠSe an
Ġ(_|_ ),
ĠÂ ±
Ġorbit s
upp ort
when ever
ĠâĭĨ -
Ġdesi rable
Ġsetting s
100 0
represent ed
Ġinterpret ations
ĠGeneral ise
ĠExt ension
ĠExt ending
ĠExt ended
Co ercion
work flow
correspon d
ĠAb breviation
ĠAb solute
Ġcoer cing
Ġcoer cive
Ġsp lice
Ġassign ment
Ġconvention s
Sch ur
Sch midt
Ġidentifi es
Ġreformul ated
Ġcollect s
)? `
ĠApp lic
Ġexpan ding
Bounded Order
Ġprov ably
Defin es
nz snum
ĠNum bers
Fr Ã©chet
cha o
tauto logy
Ġmachin es
Ġpull ing
Ġcommen surator
stereo graphic
ĠSte p
obtain ed
ĠIntegral s
Int egral
ĠGr undy
ĠSmooth ness
ĠPull ing
Ġstruc tomorph
ĠMin chao
Ġvis its
Ġtrac ing
Ġ---- ->
multip ly
Ġtimeout s
ĠConstru ction
Ġtell s
Ġsubstit ute
Ġpreprocess ors
may be
ĠHomo topy
Ġ(:: )
Ġretain s
Ġvary ing
Ġ(âĪª )
Ġintention ally
ĠConven ience
uk irch
rie hl
pseud ofunctor
ĠAux illiary
Ġpresc ribed
Ġhomogen ous
Jew ett
ĠMÃ¶ bius
raÃ¯ ssÃ©
espec ially
ĠKyt Ã¶lÃ¤
Ġmater ial
ĠâĬĹâĭ Ļ
ĠOrd inal
urysohn s
' `-
' âĪ¥)
( âĪ¥
) âĢº
) âĮīâĤĬ
+ `.
, @
4 3
8 1
8 9
A b
A á´´
B er
B ourbaki
B asic
C ur
C pltSepUniformSpace
D ual
E F
E m
F D
H x
H all
H inh
H almos
I V
I Î±
I Î²
L ike
M akes
N x
R S
R em
R iesz
S te
S ub
T or
U sed
V U
Y W
Z assenhaus
] `:
] /(
^ *
^ `
_ âŁ©
` !
a I
b aire
c top
c filter
d Gamma
e mp
e uc
e format
f V
g y
h Î³
h conn
i ma
i liary
k sh
l ify
m is
n rpow
n cs
n rs
o ke
o des
p m
p alindrome
q c
s ite
s wapp
t G
t d
t uring
u o
u ine
u ff
v or
w ildcard
x xs
y r
} )`
in variance
on ce
on ote
Ġa im
Ġh ti
Ġh mm
Ġh ci
Ġh no
Ġh hx
Ġh Icc
Ġh ÎĽ
Ġh enselian
Ġs le
Ġs am
Ġs pell
Ġs alient
Ġs ketch
Ġs ensible
er w
or ing
Ġt able
ma kes
Ġf ab
Ġf int
en orm
ti fy
Ġc ech
se quently
Ġ{ âĪŀ
Ġ{ âĬ¤
Ġb p
Ġb en
Ġb low
Ġb az
Ġ` ...
su gar
me ssage
Ġ_ ];
Ġx âĤĸ
Ġx bar
Ġr p
Ġr cons
co kleisli
Ġn w
ro duct
ro pped
ĠâĨ ĺ
Ġp u
Ġp image
Ġp la
Ġp ts
Ġp lease
Ġe ase
Ġe mulator
ar ing
ar ches
ac ker
st atus
Ġi y
Ġi Î±
Ġin gre
Ġin accessible
Ġin itially
ri ashov
to pologies
Ġl n
Ġl ay
Ġl ctx
Ġ} ).
Ġ} âŁ©âŁ©âŁ©
pp name
Ġ- `
Ġw q
ce ded
con tracting
po graph
ĠR ename
Ġd l
Ġd ropping
ĠâŁ¨ âģħ
Ġsimp set
Ġsimp lic
Ġre ified
Ġre mark
Ġre cogn
ot stra
ĠâĦ Ĳ
Ġy pos
Ġy oung
ĠT wice
ĠT onelli
id th
ist or
Î» q
sub str
sub martingale
Ġsu it
li psch
ĠA x
ĠA ctions
Ġ* `
pro duce
pro ducing
pro jectivization
Ġv x
ex pan
ĠC al
ĠC of
ĠC ase
ĠC ur
ĠC HSH
ĠS ne
ĠS áĹ®
ĠS alem
ĠF S
ĠF raÃ¯ssÃ©
ne eds
ne umann
ari ksh
Ġu M
Ġu g
Ġu Î¹
Ġsub presheaf
Ġsub families
es ti
es se
ver sing
âĪ Ĥ
âĪ ī
ĠG ram
ĠG áµĲáµĴáµĸ
ĠG aussian
ĠP rom
ĠP ariksh
fi bers
Ġj âĤĻ
Ġk insert
Ġun signed
Ġle g
ĠE d
Ġhx F
Ġpro ver
neg ations
nat ure
ĠH st
ĠH cg
pre inclusion
pre compR
Ġfor ever
ĠL abelle
ĠL YM
ĠL acker
Î± Ë¢Ê¸áµĲ
ch inese
apply âĤĹ
ad vantage
ĠÏ ħ
ho tom
ĠK an
ĠK han
ta u
ĠÎ¼ o
ĠÎ¼ u
hf b
hf q
Ġhf v
Ġpo or
ĠN pos
Ġcomp s
Ġcomp ared
pl ain
pl ays
âŁ¨ âĪħ,
Ġ(( âĪı
Ġ(( â¨Ĩ
Ġ(( /)
ĠB áµĢ
ĠB ST
Ġ_) âŁ©âŁ©
Ġext ensional
sto od
Ġequ idistant
Ġintro duction
Ġpre liminary
Ġ| -
Ġ| âĪ«
str uc
Ġ.. };
Ġhs V
ors ors
ĠV a
ĠV ers
ĠJ esse
Ġlist en
Ġlist Î£
ĠD ou
ĠD ickson
ĠâĪ¥ âĪ®
wo uld
Ġhp f
Ġhp u
ĠU s
ĠU ses
Ġsum sq
Ġ" -"
Ġ-- ----
âĦ ³
Ġend os
Ġ(âĪ Ĥ
ĠW here
ĠW ikipedia
sc ores
Ġht S
Ġht n
ĠÏĥ b
ae fer
aux iliary
Ġhn N
Ġhn n
Ġhn eq
Ġ... )`
Ġinter t
Ġinter iors
ÏĢ âĤĵ
hx u
Ġmon otonic
Ġlocal s
ich ala
Ġhm f
`: =
inl âĤĹ
hg b
inr âĤĹ
onal d
Ġnor malizes
)` ).
und ling
ĠâĪĳ _{
ĠIn dependence
âĪŀ },
Ġih b
Ġel liptic
ĠâŁ¨âŁ¨ âĬ¤,
Ġqu andles
Ġtrans versal
bin omial
Ġbi imp
Ġbi compl
Ġ[] }]
Ġhz I
gener ally
Ġbo otstra
ĠâĬ¥ `
)} âŁ©
Ġabs R
like ly
hy pograph
Ġstrict er
Ġgeneral ises
Ġsig nature
dis carded
Ġso urces
Ġhl c
Ġhl ast
âĤģâĤĤ âĤĥ
homo topies
Ġperm its
Ġhq f
Ġhq s
Ġhe G
Ġhe lem
Ġhj s
Ġbit vector
Ġhv V
Ġhv s
have I
ay leigh
'` )
00 0
ĠO b
ĠO DE
ram ification
Ġdis carded
Ġimp l
hi lton
hi dden
chart s
Ġ(âī¤ )),
Ġ(âī¤ ))]
Ġ_)) ],
ĠRe present
ĠRe ification
fer red
Ġnew ly
Ġ(âĨ Ķ)
ĠCon crete
ĠCon cat
Ġfinsupp s
Ġconstant ly
Ġprim orial
Ġconj ug
Ġhw y
Ġhw z
ĠâŁ¨( +)âŁ©
âĪ¥âĤĬ ,
mv pfunctor
continu ant
ih q
Ġ(âŁ¨ âŁ©|âŁ¨
ĠhT T
Ġ[( âĢ¢
ĠhJ l
]âŁ© ),
ĠDe structor
Ġdeclar ing
ĠComp ute
Ġ`âĪ ®
ĠhC f
sy n
ĠÏķ y
state less
ĠKud riashov
ĠhK K
bu ild
Ġ(` (@
Ġ(âĨĳ( â¨ħ
Ġsol id
Ġpp name
ĠhP Îµ
âŁ¨âŁ¨ _,
ries z
Ġparser s
ĠPro j
âŁ¯ .
eigen range
Ġvalid ity
ĠhN F
ĠhÎ´ Îµ
Ġoriginal ly
ĠhM p
hT T
Ġavo iding
Ġdifferenti ation
hA F
fail s
Ġ(+ +
she ar
Con tinu
Ġcomplement ed
Ġcomplement ary
Ġbijection s
Ġreg ion
Ġcommon ly
Ġcs a
Ġpa per
prec ise
ĠUn its
ĠUn fold
ane eth
Ġhyz D
ap ter
Ġimport ing
Ġide as
ax imum
Ġcombin ing
ĠSt atements
cer tificate
Ġfactorization s
ĠMulti variate
ĠFr actions
Ġrev deps
dsimp lify
Ġmid points
haus tive
loc ation
Ġsearch ing
Ġreflection s
Ġread s
ĠâŁ¨_ |_
Ġgen uine
Ġloop less
Ġsyn tactically
Ġ`âĬ¤ `,
Ġ`| (
Ġ`| `
ĠâĮĪ (
Ġ(_|_ );
ĠMa tiyasevic
ĠLo wer
ĠLift ing
Ġprefix es
Ġsucce eded
hN O
constr L
Ġ((< $>)
ĠBe ck
Ġquanti ty
boundary less
Ha milton
Ġhyper filter
Ġsi len
Ġalgorithm s
Ġcalcul ated
ĠNon computably
ĠLa w
Ġnice ly
ĠFinite ly
Ġkee ps
Ġslow ly
addition al
ĠIs omorphism
ĠTest s
Ġassign s
ĠDi richlet
Ġ", "
ĠRestrict ing
Sch reier
curr ently
Ġquantifi ed
On ce
provi des
Ġrectangle s
Ġexpansion s
recursive ly
Ġconf use
Ġmetho ds
Use ful
Ġspe aking
hex agon
reg ister
eff e
Ġtransl ations
ĠAd j
ĠPr aneeth
ĠEqu ation
Ġ((âĪ ĺ)
Ġregard ing
Ġev idence
AB C
Ġdeci ded
expres sing
Ġparent heses
Ġplac es
Ġ((âĪ« âģ»
Ġfeature s
Ġmention ed
Ġupd ated
Ġpackage d
assign ed
Ġhnd f
Ġcoar se
Ġcoar ser
inher it
transl ates
ĠNak ayama
Rel ated
Ġ(âĬĤ )
Ġbacktrack ing
Apply ing
Ġrecor ded
Ġasympto tic
ĠForget ting
Ġrare ly
Ġintuition istic
commen surable
ĠGre atest
Ġ{âĪħ }
implic ation
ĠMis cellaneous
ĠCl ifford
Ġzoom s
ĠKol ichala
Ġmac ro
Ġpossi bilities
ĠEmb ed
ĠDetermin ant
ĠShrink ing
Ġsole ly
Ġinspi red
Ġ`â¬Ŀ `
Equivalent ly
Neg ation
Ġboo le
riend ly
Ġ+- +
Ġtypecheck ing
Ġviol ation
entoura ge
Ġpus hes
Ġmarg in
odes ic
Ġ{âĪŀ })
Ġingre di
Ġsimplic ity
ĠPariksh it
hotom y
ĠKhan na
ĠVers chiebung
ĠDou ble
ĠConcat en
! ))
' (
) âģĨ,
, âŁ¨
, _,
4 6
5 1
5 9
7 7
A R
A nd
A dding
C C
C re
C antor
D i
D o
F ai
F undamental
F ails
H J
H e
H z
H Ã¶l
I F
I dx
J eremy
J ECT
L a
L at
L complement
M p
M ain
M ark
O JECT
P ullback
R un
R ight
R ender
S S
S imp
S acks
S kolem
T r
U â±¼
U sually
V a
V x
X Z
Y X
Y oneda
Z W
Z X
] "
] âŁ©âŁ©,
^ -
_ :
` _
` âŁ¨
a ded
a wa
b M
c has
d áµ¢
d angerous
e Î±
e apply
f d
f áµ¢
f orth
g ous
h se
h cl
h conv
h Î¸
h indep
h covby
h dir
h Î¾
i UV
k an
l arg
m P
m ust
m locus
n i
n l
n x
n eq
o lean
o ler
p ur
p áµ¢
r x
r on
r ase
r tendsto
s ne
s ense
u cc
u itive
w en
w ich
w ords
y a
y b
y áµ¢
z out
z emer
{ ..
| ^
| âģ»
} âŁ©,
} )}
Ġ ut
Ġ ];
Ġ: )
in car
in cident
Ġ( \
le ar
le wis
Ġa f
Ġa in
Ġa pos
Ġa ff
Ġh by
Ġh sing
Ġh indep
Ġh covby
Ġh cop
Ġh ðĿĵķ
Ġs n
Ġs ch
Ġs ober
Ġt i
Ġt orsor
Ġt rouble
is ki
Ġf o
Ġf eq
Ġf all
Ġf older
al ready
re duction
re insert
re arrangement
Ġc xt
Ġb info
Ġb isimulation
Ġb idirectional
it actic
Ġ` )`
su ite
Ġx x
Ġx áµ¢
Ġr mode
co uld
co incide
he im
Ġn t
Ġn buckets
Ġp aired
Ġe ver
ar iski
un ame
un checked
de ad
st ub
ĠÎ± Î²
Ġi WU
mul t
Ġin formal
Ġin valid
Ġin cident
to o
Ġl comp
Ġl congr
ĠâŁ §
âŁ© ::
âŁ© âŁ§)
ct s
Ġg ot
Ġg auss
Ġex i
Ġm ersenne
ĠR ayleigh
Ġd go
ĠâŁ¨ âĪħ
add itivity
Ġre try
Ġre construct
Ġre ached
Ġre arr
int l
ĠâĦ ĭ
Ġy O
Ġy m
ĠT ri
ĠT ensor
ĠT akes
ist ers
ist ence
sub relation
sub stit
comp iler
comp ulsory
Ġsu ff
Ġto wers
Ġto ken
ĠM N
Ġco ll
Ġco inductive
)) |
)) )]
ĠA B
ĠA sh
ĠA gain
Ġha ven
qu ickly
ĠI g
ĠI nd
ĠI some
Ġv w
Ġv ir
Ġ$ $
ĠC or
ĠC ol
ĠC ategories
Ġâī¤ ,
ĠS zemer
ĠF ili
ĠF IX
Ġu i
ĠX m
Ġsub box
Ġint ers
ver flow
âŁ©, _âŁ©,
ĠâĨĲ _
ĠG l
ĠP eter
Ġk pos
Ġun able
Ġun ified
Ġun conditionally
Ġun paired
Ġun safe
symm od
Ġhx C
Ġhx o
Ġhx q
ĠH M
ĠH mem
ĠH ow
ĠH xy
ĠH cf
pre process
Ġfor ces
inv olution
ĠL Ã¶
ĠL ater
ĠL ax
ame s
il s
Ġz N
ĠÎ¹ F
ho verflow
ĠK ont
Ġadd r
ĠÎ¼ d
ca p
Ġhf u
ĠN OT
ĠN ucc
Ġcomp iler
âĨ ĵ
Ġ(( *
Ġma te
ĠB ig
ĠB orn
Ġext ernal
Ġq âĤĹ
âĪ¥ |
Ġpre composition
Ġpre condition
Ġpre lists
Ġit auto
Ġ.. ((
Ġhs S
par ticular
ĠV ariant
pri estley
app lies
Ġhy V
Ġhy r
Ġhy y
ĠD E
class ification
Ġbe ck
ĠâĪ¥ ((
congr m
Ġhb Îµ
Ġlo ss
Î¹ a
Ġzero es
nor malizing
ener gy
Ġsum mation
Ġtr usted
Ġhom othetic
Ġ" ")
)] },
inf ul
Ġst ands
Ġ(âĪ ©
Ġen nnorm
cons isting
ise instein
exists i
Ġhg k
Ġhg u
ĠÏĥ a
Ġhn le
Ġhn mem
In valid
ig ma
Ġinv oke
ĠâĦ¤ âĤĺ
Ġunder stood
Ġnon dep
Ġnon positive
ĠÎł b
Ġse arches
hx A
hx b
Ġcongr m
-- -
mod ulus
abs R
ll ing
ll comp
]) ^
Ġsmul g
am s
Ġhm g
Ġ`( â¨
bi imp
Ġpri mality
ĠâĪĤ `
ĠÎ´ áµĴáµĪ
âĪŀ )âģ»
Ġneg m
Ġneg ated
Îł âĤĹ
âŁ©âŁ© âŁ©âŁ©
ĠâŁ¨âŁ¨ âĪħ,
res sing
res sively
))) âŁ©
Ġ[] `.
sol ving
Ġhu f
ĠâĬ¥ }
ĠâĬ¥ ),
Ġhab cd
Ġpos m
Ġexp onentiation
from c
Ġhd is
inverse s
dis criminant
divis i
Ġhl m
Ġwhere as
infi mum
Ġconstru ctively
lin k
ĠIH yl
ĠIH yr
Ġhj q
Ġpr inter
Ġhv u
Ġhv y
Ġget ting
'` ;
'` ).
Inter mediate
Ġsupport ing
her ent
ĠO X
Ġdis plays
nn rpow
ĠAn alysis
ĠâĪħ âŁ©
ĠâĪħ ))
ĠâĪħ `.
âĤĺ A
Ġ(âī¤ )`
Ġ(âī¤ )`,
mat hoverflow
â¦ ĥ
ĠRe flect
ĠRe plac
ĠRe call
ĠRe presentation
ĠRe ference
Ġtensor ator
fer mat
]` ;
Ġ(âĭĥ (
Ġme ss
ĠCon versely
ĠhÎ¼ n
respon se
vers a
âĪ¥âĤĬ }
âĪ¥âĤĬ ))
Ġiter ator
âŁ§ âŁ©
Ġfold ing
Ġ(âŁ¨ âŁ¨_,
termin ate
ĠhÎµ s
presheaf ed
Ġhol ors
ĠâĪŀ) `,
ĠDe composition
ðĿĵ £
ĠComp atibility
Ġ(< )`,
terminal s
ĠhC p
sy zygies
Ã© di
Ġcur ves
hv w
Ġreverse s
Ġâģħ âģħ
Ġsquare d
Ġ`âĬ Ĺ
py thagorean
Ġ(âĨĳ( âĬ¤
Ġderive s
aco bi
Ġman ual
Ġpp qqs
hk m
Ġprob ab
Ġhh h
ĠTo gether
ĠĠĠĠĠĠĠĠĠĠĠĠĠĠĠĠĠĠĠĠĠĠĠĠĠĠĠĠĠĠĠĠ ĠĠĠĠĠĠĠĠĠĠĠ
ĠĠĠĠĠĠĠĠĠĠĠĠĠĠĠĠĠĠĠĠĠĠĠĠĠĠĠĠĠĠĠĠ ĠĠĠĠĠĠĠĠĠĠĠĠĠ
Ġcond ensation
Ġcore cursor
alter n
Ġelim inator
ĠAs sert
hB A
shrink ing
Add Magma
Con t
Ġsuper sets
xy z
dy n
Ġreg isters
Ġerr q
but ton
stab ilizes
ĠPresheafedSpace s
20 11
Ġevalu ations
ĠHa les
hj k
}. ",
") ?
To pological
ĠTrans itivity
19 67
hat g
Ġendow s
Ġ`âĪĳ `
ĠSt ub
Ġ#( âĭĥ
Ġinde terminate
Ġreindex ing
ĠFr action
Ġtransfer ring
Ġ`+ âĪŀ`,
Ġstart ed
usive ly
ĠSub groups
Ġthink N
Ġna ive
Fin PartialOrder
Ġindic ators
Ġprev ents
Ġantis ymmetric
Ġsystem s
ĠOn ly
ĠCompact ness
Ġconverse ly
short est
ĠBe ware
Ġsent ences
Ġeff ort
ĠQu aternion
Ġprog ressively
ĠCat alan
ĠExt ensionality
ĠRel ated
work ing
ĠAr g
Ġkee ping
adm its
ĠDi agonal
Ġtransform s
ms b
Ġinstanti ating
Ġexcl ude
stack exchange
view ed
Ġpseudofunctor s
St ate
cn st
Ġdiscus s
Ġ`âĪı `
Ġattempt ed
Ġ"] "
ĠFix ing
ĠâĨ¿ (
Fr ac
Ġdid n
ĠAd joint
orov ich
pop n
Ġdecre ase
ĠCharacter ization
Ġpot ential
sl nil
idi ary
Ġenable s
Ġeg orov
debug ging
Ġsynthe size
ĠInteg ration
Ġdifficul ties
Ġsubt rees
absorb ing
Ġ`âī¥ `
Ġsugges tion
evalu ate
Ġtailing s
Ġinclusive ly
Can not
ĠSimpl ification
Ġwor ld
ĠStr ong
ĠVari ous
Semilattice Inf
Ġ($ ),
Ġaccu mulate
Mil gram
Ġsw itch
Ġincorrect ly
proposition s
ðĿĳ ³
Ġdebug ging
Ġachieve d
hit ney
ĠLS B
Ġques tion
Ġmaximi zed
Ġeli gible
Ġadditiv ized
Ġcomplain s
diamon d
ĠCoer ce
Ġrespon se
Ġtempor ary
Ġtas k
Ġmist akes
Ġsubs idiary
ĠBru jin
ĠImport ant
ĠTechn ical
ĠName ly
Ġben ef
Fai led
HÃ¶l der
wen heim
incar Ã©
ĠâŁ¨âĪħ âŁ©
Ġvir t
ĠSzemer Ã©di
ĠFili ppo
ĠFIX ME
ĠLÃ¶ wenheim
ĠKont orovich
ĠNucc io
' })
* ),
* ];
, *];
2 6
3 14
4 0
9 3
B ased
B irkhoff
D g
E u
E uclidean
F l
F rame
G et
G our
H N
H k
H l
H ne
I O
I deal
J D
K an
L S
L ab
L ift
L ater
L iouville
M T
M a
M an
M athe
N umber
P B
P E
P o
R E
R olle
S ne
S ous
S tone
T uring
T hose
U lam
V T
V er
V áµ¢â±¼
W x
[ âĪĳ
\ \
] `-
] ))))
] âŁ©âŁ©âŁ©
^ ((
_ ),
` ]`
` â¨
` ](
` âĢĿ
` âĪı
a ro
a vigad
b lob
b orelize
c N
c as
c sh
c info
d v
d low
d go
d onald
e Î²
e iseinstein
f older
f ocused
f riendly
g ring
h one
h pr
h norm
h pri
h inf
h tendsto
h udon
h orne
i C
i max
i á¶ľ
i eta
i ency
l ude
l ater
m U
m c
m itive
m ble
n unit
n Lab
s am
t f
t ed
t hough
v ens
w ff
x j
x m
x âĤĻ
y eq
y ne
z w
z en
z oom
| `,
§ ı
Ä ĥ
Ġ Ċ
Ġ '_
Ġ ulti
Ī `
in omial
in side
in accessible
Ġ( '
Ġ( ÃĹ
Ġ( âī«
on off
Ġa N
Ġa o
Ġa q
Ġa lt
Ġh an
Ġh mono
Ġh so
Ġh ring
Ġh nat
Ġh âĤĹ
Ġh exp
Ġh os
Ġh hd
Ġh monic
Ġh ret
Ġh áµ£
Ġs and
er di
or acle
Ġt X
Ġt fin
Ġt ent
ma tics
is crete
Ġf xs
en able
en nrpow
en larg
al ing
al ign
re ciprocity
ti os
Ġc t
Ġc he
Ġc ame
Ġc nonneg
Ġc á¶ľ
Ġc npos
se ed
se veral
Ġ{ -
Ġb n
Ġb q
Ġb ag
Ġb esicovitch
Ġb undling
Ġ` %
su pre
su gges
Ġx M
Ġr congr
Ġr ender
co pullback
Ġn X
Ġn eq
Ġp k
Ġp ay
Ġe ty
Ġe tx
un rev
un curried
un elide
de si
de ci
ĠÎ± s
Ġi C
Ġi e
Ġi ic
Ġi Î²
mul ticofork
Ġin spect
as coli
Ġis ubtree
Ġl q
Ġl of
Ġl id
Ġl apply
Ġl coeff
end ow
end rus
able s
âŁ© )]
ct l
Ġg comm
Ġg pos
Ġex N
Ġex haustive
Ġw E
Ġw U
ce ed
con c
con g
Ġm f
Ġm Î±
Ġm zip
Ġd b
Ġd v
add ing
Ġre ducing
ed uc
mm ies
Ġy k
ĠT L
id ers
et c
sub sheaf
sub tree
du mmies
Ġsu ffi
Ġan notations
ĠM it
ĠM âĤĹ
ĠM ove
ĠM eta
Ġcon erve
Ġco llap
)) âŁ©âŁ©
ĠÎ» z
ĠA A
ĠA tiy
ĠA ctually
pro gramming
Ġde ta
Ġde cay
ance stors
ĠI r
ĠI top
ĠI Î³
hom set
Ġv v
em it
ex cl
ĠC ir
ĠC ramer
ĠC urrently
ĠC lear
ĠS end
ĠS wer
ĠF b
ĠF ound
ĠF urther
Ġ1 5
Ġ1 8
ne st
ne ighbourho
Ġsub cover
Ġsub quiver
Ġsub straction
es ides
ĠâĨĲ (@
ĠG auss
ĠP air
ĠP Î²
ĠP ath
je ctor
Ġk leisli
Ġun pro
Ġun pack
Ġle gs
Ġo U
Ġo V
Ġo pposites
ĠE ss
Ġpro gramming
ĠH r
ĠH lt
ĠH ant
ĠH orner
ĠH arts
ĠH ensel
ĠL equiv
Î± Ë£
ch d
ch onoff
trans itivity
trans cendental
il ds
ad apter
ange ment
ĠK ers
ĠY oung
th ur
non top
non singular
ĠÎ¼ t
log ram
Ġhf P
Ġhf U
-/ },
pl ate
Ġ(( âīĪ)
Ġ_) ];
Ġ_) âŁ©âŁ©,
clo sing
Ġext ensive
Ġ[âĨĲ (@
Ġpre par
Ġpre games
Ġhs j
ĠV iew
ĠV ieta
ĠJ an
ĠJ endrus
app l
ha w
not es
inter action
import ant
Ġhy B
Ġhy l
Ġhy m
Ġdef er
ĠD ivergence
ob serve
ob asic
hs A
hs n
ĠâĪ¥ âĨĳ
ĠâĪ¥ âŁª
Ġhb g
Ġhb z
Ġlinear ity
Ġwe ird
finset s
Ġab ort
Ġhp y
Ġhp erm
ĠU S
ĠU o
ĠU FD
Ġhi dden
ag awa
') }
Ġ" :
Ġ" :=
ind iscrete
Ġen velope
ĠW hitney
.{ _
Ġht tp
no logies
Ġ_), ``
Ġhn lt
In stances
ĠÎµ K
Ġ... ]
Ġcan onize
hx f
hx p
Ġlift q
Ġhc n
Ġhc inf
Ġleft most
abs orp
mon str
Ġhm d
Ġhm nd
bit m
hg s
hg t
ðĿĵĿ Ë¢
Re striction
bi rational
ĠâĪĤ âģº
ĠÎ´ seq
cy cl
Ġover ride
distrib utive
Ġfa vor
Ġapp ended
Ïĥ â±¼
cre tization
Ġneg ate
tra jector
Ġih N
Ġih t
Ġih z
Ġhr f
Ġhr r
âŁ©âŁ© |âŁ¨
Ġtrans finite
Ġtrans position
Ġtrans cendence
hp m
ĠâŁ¨_, âŁ¨_,
Ġhz a
Ġhz b
Ġhz w
Ġhz ne
Ġhz pos
Ġhu b
ht A
ht ff
core presentable
Ġoption ally
Ġform ing
pect ral
Ġhd x
Ġhd nf
Ġhd cb
Ġhd ng
rect angle
rect angular
Ġhl a
Ġhl u
dic hotomy
Ġperm it
ĠðĿĴ ħ
shape d
Ġhq a
Ġhq b
bind ents
Ġhj t
Ġpr en
cover ed
dimensional ity
Ġanti varies
ĠO ption
ĠO rtho
Ġfree ly
Ġhxy n
Ġcons iders
Ġ(â¨ Ĥ
ĠâĪħ ),
Ġdecl s
partition s
Ġ`` _
Ġ(âī¤ )`.
Ġoper ates
ĠâĨĳ( âŁ¨
)âŁ© ),
)âŁ© ]}
sym div
ĠRe ad
ĠRe write
Ġcommutative ly
hm b
ĠFor mat
Ġ`[ [
Ġbool s
ĠðĿĵ £
hd b
sem ilattices
ow ers
ick Check
Ġhw xyz
Ġcof ans
com ing
com bine
Ġup on
Ġdirect ory
Ġ({ âŁ¨
ĠhJ s
alle logram
Ġneed ing
hl up
flip âĤĹáµ¢
Ġver ts
Ġver ified
Ïģ W
bre ak
man ual
trim med
founded ness
Ġkey word
pseudo elements
Ġcle ared
Ġdiffer ently
ðĿĴ ¥
invariant s
ĠhI M
Ġ`âĪ ļ
adjunction s
seg ments
Ġ(âĬ¤ ),
Ġinr âĤĹ
ighborho ods
Ã© zout
Ġsy z
Ġ`{ }`
ĠhV s
Ġho dd
Ġinitial ize
Ġorthogonal ity
Ġself adjoint
Ġtest ed
hq r
Ġadjoint ness
ĠâĪ¥( âĪ¥
ĠâĪ¥( âĨĳ(
ĠhB f
ĠhB g
Ġsa ke
Ġman ner
Ġdiagonal ization
Ġpp qs
null diff
Ġindependent ly
ĠPro vi
ĠPro gramming
complement s
ĠâĢ¹_âĢº ),
coord inates
ĠĠĠĠĠĠĠĠĠĠĠĠĠĠĠĠĠĠĠĠĠĠĠĠĠĠĠĠĠĠĠĠ ĠĠ
ĠĠĠĠĠĠĠĠĠĠĠĠĠĠĠĠĠĠĠĠĠĠĠĠĠĠĠĠĠĠĠĠ ĠĠĠĠĠĠĠĠĠĠĠĠĠĠĠĠĠĠĠĠĠĠĠĠĠĠĠ
ld ots
âĦĤ âģ¿
Ġpl an
Ġwhisker ed
Ġdetermin ing
Ġcontext s
Ġra ys
Ġra tios
hS T
hB f
hB g
Ġbl ur
ĠSpec ifically
Ġback ward
ĠSet s
ars ki
Ġour selves
âŁ¦ (
Ġhand y
Ġhand ler
Ġpa inful
edu ce
Comp lete
Comp onent
ĠPre image
Ġspect ra
ĠKen ji
hK U
Ġfiber wise
ever theless
Ġden oting
ĠAl most
Ġturn ed
prob lem
Ġloc ated
ffic iency
As sume
âĢ¢ (
There fore
contain ed
Ġ(" _"
ĠEvery thing
Ġ`+ âĪŀ`.
Ġcolor ed
Pro vide
Ġoccur ring
Ġsyn c
Ġconformal ity
ĠhÏĢ U
Ġfl ags
ĠLo g
ĠLo cale
ĠLo eff
Ġsingular ity
Ġsta y
ĠâŁ¨âŁ¨âŁ¨ âŁ©âŁ©,
ĠhE F
Un der
represent ably
identi ties
ĠNo tice
ĠQu adratic
Ġsat urated
Ġgluing s
ĠConvert ing
ĠGeneral ized
Ġwalk s
Ġhad p
Ġhad amard
Ġcd lim
Ġhik l
ura ged
Ġtechn ique
Ġattemp ting
Ġgu ide
Ġ([], [])
ĠAndre as
Ġhapp y
ĠAr thur
Ġcounter example
Ġbad ly
ij k
Ġ--- >
Ġdiame ters
Ġ", ")
decomp osed
Ġenumer ates
Ġconnection s
determin istic
On ly
cryst als
clar ify
(- ,
Ġignor ing
comput er
Ġ"-/ ,
ĠPo incarÃ©
@`( %%
Ġprogram s
Ġ(âĮ Ī
ĠAddition al
isi bility
Ġ`âĨ Ķ
ĠFunctor ial
Ġcofinal ity
Additive Functor
Ġom its
Ġexec utes
ĠâĪ¥âĪĳ '
Ġtransl ated
Ġtransl ates
Ġminimi zed
Ġhrn i
Ġpull s
Ġsucces sively
At temp
Ġclean up
ĠSte vens
ĠEqu ality
Gener ate
Ġ`âĪħ `.
ĠAdditive Functor
Ġenc dec
Ġhappen ing
Ġisometri cally
Trans port
accu mulating
ĠGe ometric
======== ==
======== ==========
Ġpredecess ors
ĠhÎ¼Î½ s
II I
Ġaut hors
ĠPR OJECT
Ġocc s
Ġinvoc ations
Ġmanipul ation
Ġmanipul ating
Ġ[(âĪĺ )],
ĠLu ke
ĠConstru ctions
Ġeffe ctive
Ġconflict s
Ġ[(< $>
hðĿĴ¢ âĦĭ
Ġupd ates
ĠAssoci ate
injection s
ĠTr ace
ĠSimpl ify
Ġ((âĬ Ĩ)
Ġconcaten ation
Ġ(:: ))
ĠTactic s
ĠNak agawa
Ch ange
den oted
Ġincomp ar
Semilattice Sup
Ġ{.. };
Theorem s
Ġsamp ling
Ġfra mes
ĠMathe matically
Ġok ay
Ġgeometri cal
Ġgeometri cally
Ġhone st
ĠUpd ate
Ġwitnes sing
Ġ``(( %%
Convert ing
Ġaggres sive
Ġ(âŁ¨âŁ©|âŁ¨âŁ¨ âŁ©âŁ©)
Ġphr ased
Ġsubtract s
ĠDom ineering
ani el
).. (
Ġans wer
Ġprep are
Ġdesignat ed
ĠPerm utations
ĠâŁ¨(*) âŁ©,
Ġpla ys
ĠCur rying
esti mate
ĠProm ote
ĠEd ge
ĠâŁ¨_|_ âŁ©,
ĠAdj unctions
Ġcoarse st
Ġaff ect
Ġinters perse
preprocess ors
Ġhdis j
dyn kin
ĠArg um
Gour sat
Ma ps
Sous lin
Ġulti mately
Ġalt s
erdi jk
Ġtent h
enlarg ment
supre mum
sugges tion
endow ed
Ġsuffi ce
ĠAtiy ah
Ġdeta iled
ĠSwer dlow
ĠHant ing
ĠHarts horne
ĠKers haw
ĠJendrus ch
trajector ies
ĠOrtho gonal
ĠLoeff ler
! `,
! ("
' â¦Ħ,
' ))),
' âŁ¦
' *âĪ¥
( [
( âĪĢ
) #
) â¦Ħ
) âĮī
) $,
. _,
. "),
/ âĪ¥
0 2
4 11
6 4
7 5
< ,
A C
B C
B R
B ra
B oth
C M
D is
E valu
E lements
F i
F u
F robenius
G r
G á¶ľ
H I
H U
H o
H as
H lt
H neg
H inj
H ilbert
I T
K g
L norm
L ane
M N
M od
M uch
N onemptyFinLinOrd
O ther
P G
P M
P s
P er
P ri
P ong
P áµĢ
P ost
S cott
S heaves
S everal
T X
T ries
T HE
U s
U ses
U á¶ľ
V ar
V au
V ersion
Y áµ¢
[ _]
\ |_
] ])
] ]`.
` @[
` '.
` âĬ¤
a que
a les
a info
a counit
b az
c pp
c Icc
c bl
c tivity
e áµ¢
e ckmann
f h
f m
f symm
f subset
f ers
f xs
f constructor
g round
g auss
g aussian
g roupes
h if
h map
h right
h neg
h cast
h sup
h ci
h nd
h basis
h ide
h mt
h Ïģ
h ki
h orn
i VU
j n
k x
k el
k rull
l hom
l not
l hd
n space
n term
n ice
n tac
o tic
o vable
p A
p g
p ersistent
s U
s âĤĻ
s áµ¢
s izes
s lightly
s akia
t b
u i
u âĤĻ
v l
v ne
v idence
v ni
{ !
} _
Ã ī
Å ĳ
ð Ł
Ġ ent
Ġ ])
Ġ energy
Ĩ ),
Ĵ p
Ķ ))
in or
in ed
in es
in ame
in duces
in formation
in haus
Ġ( ``
Ġ( ",
Ġ( >>
on ding
le q
Ġa I
Ġa j
Ġa mem
Ġh ly
Ġh supp
Ġh ell
Ġh roots
Ġh unif
Ġs áµ¢
Ġs pot
Ġs light
Ġs kolem
er ves
Ġt G
Ġt V
Ġt au
Ġt ilt
ma bly
ma king
is sive
Ġf I
Ġf map
Ġf ed
Ġf am
Ġf its
Ġf Î½
Ġf respects
al ways
re in
re color
re ason
re trieve
Ġc tl
Ġc liques
se mantics
Ġ{ âĬ¥
Ġ{ <,
Ġb f
Ġb eta
Ġb ars
Ġ` &
Ġ` '
Ġ` _,
Ġ` âĪŀ
Ġ` âĮĪ
su mably
Ġ_ |
Ġ_ âŁ©âŁ©âŁ©
Ġx S
Ġx le
Ġr y
Ġr ob
Ġr ich
Ġr out
Ġr Î³
he st
Ġn i
Ġn ab
ro zen
Ġp mul
Ġp ing
Ġp es
Ġp rt
Ġp bind
Ġp aste
Ġe ight
Ġe max
Ġe min
Ġe isenstein
Ġe EF
an an
ar ay
ul ate
un ctive
un bot
un dual
de duce
Ġi pos
Ġi ha
eq ns
as ion
ab ling
Ġthe ore
Ġl nonneg
Ġl curry
Ġl ub
Ġl gb
Ġ} )).
end point
end omorphisms
om orphis
âŁ© ))).
Ġg A
Ġg x
Ġg non
Ġg âĤĹ
Ġg round
Ġg aussian
Ġg uess
Ġex changing
Ġw z
Ġw pos
con cl
Ġm T
Ġm V
Ġm Î³
ĠR ange
ĠR áµ¢
ĠR iesz
Ġd c
Ġd j
Ġd pos
Ġd fac
Ġd ropped
ĠâŁ¨ âŁ©)
ĠâŁ¨ âĪĳ
lo cat
Ġre m
Ġre ach
ĠâĦ Ĵp
Ġy V
Ġy o
ĠT orsion
et y
sub ject
sub cat
sub sequent
comp let
comp osite
ĠM g
ĠM an
ĠM ath
ĠM ersenne
Ġco closed
Ġco projections
Ġco kleisli
)) )`
)) :=
op le
ĠÎ» t
gh ys
ĠA M
ĠA y
ĠA tom
Ġ* :
Ġde l
Ġde v
Ġde dekind
Ġde tecting
Ġde monstr
ĠI B
ĠI K
Ġv isi
Ġ$ [
ex traction
ĠC P
ĠC ayley
`. '
ĠS u
ĠS caling
ĠS OP
ĠS perner
ĠS anity
ĠS yntax
ĠF lip
ĠF init
ne e
Ġu E
Ġu H
Ġu T
Ġu U
Ġu r
Ġu u
Ġu á¶ľ
ĠX p
Ġsub lattice
Ġsub expression
Ġsub categories
Ġfin j
ĠG hys
ĠG iry
ĠG roupes
ring ed
ĠP b
ĠP ing
ĠP res
ĠP seudo
ĠP icard
fi es
Ġj a
Ġj h
Ġk B
Ġk áµ¢
Ġun ame
Ġun countable
Ġun satisfiable
Ġ< -
Ġo s
ĠE gorov
ĠE vidence
Ġas s
Ġas ms
ĠH j
ĠH m
ĠH rec
ĠH inj
ĠH eter
pre f
pre im
pre congr
pre ferred
ĠL ook
Î± âĤĻ
ch urch
Ġfi lled
trans versal
ad i
Ġz i
cl id
cl are
ho dd
ĠK diff
ĠK ronecker
Ġ2 1
Ġ2 5
non ote
non computably
sum mands
pos it
log ie
áµ ı
hf differential
Ġhf or
ĠN P
ĠN ormal
ĠN aming
ĠN aray
Ġcomp oses
pr j
pr t
âŁ¨ ((
Ġ(( )
Ġ(( ::
Ġma bs
Ġma ssage
ĠB u
ĠB etween
Ġ_) `.
clo ser
âĨĲ "
ir reflexive
div ides
âĪ¥ ).
âĪ¥ )`
âĪ¥ )))
Ġpre metric
Ġpre structure
Ġpre composing
Ġpre composed
Ġ| âĪĳ
Ġhs k
Ġhs q
Ġhs y
Ġhs in
Ġhs pan
Ġhs plit
Ġhs vi
par sing
pri ori
app ro
ha p
Ġâī« =
Ġob serve
const ra
ĠD l
ĠD es
ĠD ensity
ĠD xz
ĠD ictionary
Ġor acle
rop er
hs a
hs s
Ġbe yond
Ġhb e
Ġlo cus
âī ¡
Ġab straction
Ġhp V
Ġhp two
ĠU c
ĠU á´´
Ġhi I
Ġhi J
Ġhi u
list like
namespace s
') âĪ¥
ces ses
Ġ" {
Ġ" _"
Ġ" âĨĲ"
Ġ-- --------
ind man
inal ity
)] .
)] [
)] âŁ©
Ġst k
Ġst and
Ġ(âĪ £
Ġen force
ĠW p
ĠW áĹ®
Ġne st
sc he
Ġmono varies
Ġht p
ise lect
no w
no ying
Ġhg P
Ġhg xy
Ġhn c
Ġhn q
Ġhn div
Ġpar ses
In sert
Ġâ¥¤ +
rel atively
Ġnon fixed
Ġnon square
ĠZ ariski
Ġse lected
'' ),
per p
hx n
Ġhc m
Ġhc p
Ġar range
Ġar zela
fact ory
Ġcl ick
eval âĤĹ
]) `
]) ],
]) `.
Ġlocal ize
pair áµĴáµĸ
meta variables
compl L
Ġ`( <
Ġ`( âī¤
Ġ`( âĪ«
Ġ`( âĢ¢)
Re sults
ĠQ âĤļ
Ġover all
ĠIn jective
ĠIn jectivity
Ġclass ify
Ġreal izes
âĪŀ â¦Ħ
Ġad vanta
Ġhr x
`- `
Ġbas hing
âŁ©âŁ© );
ĠâĬ¤ }
ĠâĬ¤ âŁ©
ĠâĬ¤ )]
hp f
hp ath
antis ymmetric
ĠâŁ¨_, _,
anti mono
gener acy
ak ayama
perm utation
Ġ\ \
Ġ\ {
Ġ\ |
ht S
ht c
ht x
ĠâĬ¥ .
ĠâĬ¥ },
)} `.
hb t
hy b
Ġgeneral ising
hn t
Ġmultiplic ativity
ĠâĪŀ ).
ĠâĪŀ )`.
ĠâĪŀ `;
Ġhd p
Ġhd y
hr f
incip le
Î´ seq
convex ity
ĠWe ight
submonoid s
homo logie
Ġhq d
ortho centric
Ġhe i
Ġhe avi
Ġhv b
Ġhv f
ay be
pres heaves
rou ped
Ġvari es
ĠO r
bor row
Ġcons tit
Ġdis co
'} `
ĠAn g
ĠAn ti
Ġ(âĬ Ĺ
ĠâĪħ }
hi ps
Ġtrivial ity
Ġforget s
Ġpower ful
âĤĦ âĤģ
ĠâĨĳ( âĬ¥
)âŁ© ).
Ġcor reps
ĠâĬķ '
ĠRe main
ĠRe define
ĠRe mark
home omorphis
hm g
ĠFor mula
Ġ`[ `
Ġ(âĨ Ķ))
ub lic
âŁ« âĪ¥
Ġiso crystals
âĬ Ĩ
tt ach
ĠCon s
ĠCon formal
oper ands
ĠâŁª âĪĳ
assu mp
Ġhw t
ĠhS M
infinite ly
Ġdec eq
)^ ((
âŁ§ ),
âŁ§ `.
âŁ§ âŁ¦
Ġup to
Ġup wards
ud in
Ġinfer ior
Ġ({ (
Ġro le
Ġro les
ĠhT c
Ġ(_ :
Ġ(_ |âŁ¨
Ġla str
Ġfactor ing
Ġper tain
bl ing
bl ur
bl ue
proper ly
Ġhol omorphic
ĠLe ibniz
Ġver bosity
Ġbound ing
gre ater
ok ing
string s
scalars L
Ġcharacter ize
Ġaddition s
Ġcontinu ations
ĠâŁ¦ -
ĠâŁ¦ _
solve d
Ġ`âĪ Ī`
ĠCar atheodory
Ġ(âĬ¤ :
Ã¶l ich
read able
Ġcancel s
Ġcancel led
Ġ(âĬ¥ ),
Ġ(` \
Ġ`âĬ ķ
stalk s
Ġformal ised
ĠhF A
ĠhF E
Ġres caling
Ġstream s
direction s
Ġjoin s
ĠhP K
âŁ¨âŁ¨ (
ushfor wards
ĠEx press
hk n
ĠPro duce
ĠPro vide
âŁ¯ ,
ĠâĢ¹_âĢº âŁ©
ĠâĢ¹_âĢº âŁ©)
Ġcircle s
Ġsubsemiring s
ĠĠĠĠĠĠĠĠĠĠĠĠĠĠĠĠĠĠĠĠĠĠĠĠĠĠĠĠĠĠĠĠ ĠĠĠĠĠĠĠĠĠĠ
ĠĠĠĠĠĠĠĠĠĠĠĠĠĠĠĠĠĠĠĠĠĠĠĠĠĠĠĠĠĠĠĠ ĠĠĠĠĠĠĠĠĠĠĠĠĠĠĠ
ĠhN N
ĠhR S
Ġformat s
inst s
Ġpartition ing
Ġnext Conts
Ġcore cur
Ġcore flexive
ĠSemi ring
Ġordering s
hÎ¼ m
Ġtauto logies
)))) ))
Ġ& =
Ġfg p
constru ctively
Ġwant ed
ĠAs suming
hB C
port s
Ġ![ -
reflect ing
Ġbl unt
Ġbor nologies
ĠInter section
Con vex
When ever
Ġappe aling
ĠhÏĥ a
|_ ;
tien ne
ĠPre servation
Ġpat s
Ġfib ration
Ġhat g
prob lems
Ġendow ing
Ġ`âĪĳ _{
lev ance
Ex tract
ĠSt ates
ĠFr Ã¶lich
vig ate
hM p
Ġconvenient ly
enumer ate
Pro of
Ġread ily
Ġ== >
Ġoccur rence
Ġcar ried
Ġ_âŁ©âŁ© )
ĠSub types
prove d
tit le
ðĿĶ ł
ðĿĶ Ń
ĠhÏĢ c
Ġcer cle
Ġhfx fy
Ġrefer ring
Ġalternative ly
Ġ``` (
Ġlocale s
recur sion
fic ation
Ġlf b
Fin BoolAlg
Ġpost composed
go dic
Ġshe ar
Ġshe ll
Ġprefer able
Ġprefer ence
ĠPol arization
ĠMac Lane
Ġfactorial s
infin ity
Ġtre ating
represent ing
Ġclopen able
Ha hn
)! `
cu be
Ġhdiv p
Ġfailure s
ĠGeneral ization
Ġproce eds
Ġimportant ly
ĠHel p
epimorphism s
ĠNon zero
ĠNon computable
Ġbuilt in
work s
ĠDer ive
revert ed
Ġblank s
Ġcoer ces
Ġ", \
exist ing
Ġproject s
cument ation
Ġ[[ ],
Ġselect s
Ġprocedu res
Ġdescription s
Ġparametriz ation
convert er
Ġax is
Ġignor es
ĠMo erdijk
ortun ate
Ġcomplet able
ĠâŁ¶[ ]
Ret urn
ĠApp end
ĠDist rib
Ġrescale d
Be fore
No etherian
ĠAt temp
ĠNe ighborhoods
ĠPri mitive
occur rence
Ġ+âĪŀ )`.
Ġdischar ged
package d
Ġminimi zes
ĠMeasu res
ĠSch ol
Ġsuggest ed
Ġ(_|_|_ )
Ġ(_|_|_ );
Ġbre aking
ĠDiv isibility
Ġâĭ¯ ,
Ġâģħ( âĬ¤
ĠSpecial ization
ĠEu clid
monadic ity
requi res
ĠSplit ting
file name
Ġtreat s
follow s
Ġconversion s
ques tions
Ġlink ed
Ġdocstring s
Ġexistential s
pull ing
ĠConvex ity
199 6
199 7
iler plate
ĠReg ular
Ġdk k
ĠDiff er
Ġstrength en
Ġaltern ations
ĠCommut ativity
Ġmanipul ate
Ġsubterminal s
Ġhfb x
ĠInteg rability
Multi plication
Strict ly
Ġali gn
expect ing
Ġ`(*) `.
ĠPolynomial s
atatype s
allow ing
Ġ`'` )
ĠIHr l
Check s
ST O
ĠCas sels
ĠFact oring
ĠDis crete
ĠAssoci ating
LO W
Typ ical
Ġscri pts
ĠTr unc
>>= ),
Par se
ĠFl atten
ĠFilter s
transl ations
Ġ`(+ )`
gu arante
Ġrefin ements
Ġ((+ +)
Ġ(âĬĤ )]
Ġph ase
Ġrecor ds
ĠCore cursor
Ġhyd ra
Ġinvok ed
liptic Cur
Mil man
Ġmim ics
ðĿĳ ¹
front end
Ġxâģ¿ áµĸ
Ġport ed
Ġhcy cl
ĠSepar ation
ĠDifferenti ability
Ġcu be
Ġinterpre ts
attemp ts
Ġrece ives
Ġreinterpret ed
Ġ+âĪŀ) `,
ĠSuc cess
ĠSemin ormed
Ġine j
ĠElim inate
Ġoblig ations
Vari ous
Ġflexi ble
Ġren aming
ĠCop roduct
ĠPl ac
elf and
Ste inhaus
swapp ed
Ġ{âĬ¤ }
Ġlay er
istor ical
Ġsuit ably
expan ded
ĠCal cul
ĠCof inality
Ġconjug acy
register ed
chas tic
ĠAsh vni
divisi bility
ĠReflect ing
ĠReplac ing
cas sels
Ġsand wich
deci de
educ ing
ĠMeta math
Ġpren ex
Ġ`âĨĶ `
Ġincompar able
Vau ght
Ãī tienne
inor um
ĠHeter obasic
ĠNaray anan
Ġ((:: )
Ġadvanta ges
Ġheavi ly
Ġcorreps onding
homeomorphis mes
lipticCur ve
! ),
" :
( {
( âĪ«
) ÃĹ
) ",
) âĪ¥âĤĬ)
+ ).
, "
, [
, _)
- \
- |
- âŁ©,
- ,-
. `.
/ "
/ >
0 7
2 9
4 8
4 9
6 8
7 2
7 3
9 4
: _
A pp
A uto
C l
C ant
D T
D iff
D LO
E âĤĹ
F F
F ind
F sh
F ibonacci
G M
H m
H n
H t
H el
H alg
I A
I ts
J B
K xL
M I
M P
M ac
M áµĥáµĴáµĸ
M azur
N B
N ext
N aming
N atural
N akayama
O r
P r
R pos
S h
S á¶ľ
T ri
T onelli
T AN
U T
U X
V L
W y
W ikipedia
X áĺģ
[ ]
[ âĬ¤
] $
_ |
a er
a á¶ľ
b n
b x
b ach
b elong
b etter
c tic
c fs
c seval
c liques
d on
d ft
e led
f apply
f split
f rozen
g ive
h pp
h der
h pow
h diff
h univ
h Ïĸ
h istory
j âĤĻ
k dependencies
k extract
l W
l r
l comp
l coeff
l gb
l YX
l ZX
m ith
m get
m bor
m isation
n N
n rt
o wn
p ly
p icard
p aste
r m
r simp
r ated
s ti
s it
s mt
s alient
t ell
u le
u ri
u vs
u YW
u ZW
v u
v ich
v ability
w x
w z
w ans
w ant
x u
y y
y lin
y chonoff
z modeq
| ))`
} )]
Ë ¡
â ĩĳ
Ġ je
ĩ )
in ke
in correct
in ertia
Ġ( !
Ġ( âī
Ġ( )).
Ġ( âīĪ
Ġâ Ķ
Ġa S
Ġa pex
Ġh dd
Ġh ic
Ġh lim
Ġh pre
Ġh cl
Ġh main
Ġh arg
Ġh vi
Ġh Ioo
Ġh det
Ġh coprime
Ġh funext
Ġh lifts
Ġh ands
Ġs su
Ġs ab
Ġs cc
Ġs tic
Ġs âĤĻ
Ġs ki
Ġs ls
Ġs lices
er ly
er nel
er ges
er godic
or ient
Ġt d
Ġt ens
Ġt sirelson
ma di
is ubtree
Ġf j
Ġf re
Ġf su
Ġf symm
Ġf ss
Ġf âĤĲ
Ġf also
en e
en ry
al one
al ified
re levance
mp info
Ġc F
Ġc S
Ġc info
Ġ[ âĢ¹
Ġb is
Ġb áµ¢
Ġ` ;
Ġ` âĪŀ`.
Ġ_ "
Ġ_ :
Ġx H
Ġx X
Ġx ab
Ġr ab
Ġr ij
he quiv
Ġn N
Ġn tp
ro ut
Ġp pow
Ġp ad
Ġp monic
Ġp âĤĸ
Ġe j
Ġe Î²
an u
an notations
ar bitrarily
ul ates
un ds
un flip
un assigned
ac cur
de veloped
de generacy
st op
Ġi á¶ľ
Ġi info
Ġ= ==================
lem y
Ġin h
Ġin ject
Ġin complete
Ġin wards
Ġin stru
ing ly
ri ent
as yn
ab eled
to lemy
Ġl g
Ġl v
Ġl hom
Ġl pos
Ġl diff
Ġl single
Ġl abeled
Ġ} ],
Ġ} )âŁ©
Ġ} }}
end ers
âŁ© âŁ§,
Ġg L
Ġg smul
Ġg ci
Ġg ather
Ġg ap
Ġg rowing
Ġ- )
Ġ- |
Ġ- `.
Ġ- âŁ¦
Ġ- âĪ«
Ġex map
Ġex tracting
pe val
pe ople
Ġw G
Ġw i
Ġw in
con version
fin i
po or
po inter
Ġm Z
Ġm x
ĠR ty
Ġd z
Ġd at
Ġd cl
Ġd top
ĠâŁ¨ #
ĠâŁ¨ ![
ĠâŁ¨ ._,
lo aded
ic ker
ic ated
Ġre que
Ġre arrangement
Ġre ciprocity
Ġre member
int ron
Ġy H
Ġy u
Ġy mem
Ġy lt
ĠT A
ĠT or
ĠT sirelson
ĠT VS
ĠT arski
ith metic
us ti
comp SL
comp ressed
ĠM S
ĠM ul
ĠM as
ĠM ang
ĠM aybe
Ġcon trib
Ġcon cavity
Ġco in
Ġco diag
Ġco erc
Ġco uple
Ġco oler
Ġco herent
Ġth unks
li ar
ĠÎ» k
ĠA F
ĠA f
ĠA re
ĠA RE
tr c
tr inomial
Ġ* ),
Ġ* ];
Ġ* âŁ©)
pro ving
pro ductive
pro xy
Ġde ep
], `
Ġha J
Ġha V
Ġha gree
qu asilinear
up ward
ĠI D
ĠI N
ĠI S
ĠI y
ĠI de
ĠI fin
ĠI max
ĠI NS
Ġv b
Ġv p
ĠC q
ĠC ent
ĠC ancel
ĠC over
ra ised
ĠS pe
ĠS ur
ĠS ard
ĠS wap
ĠS kolem
ĠS âĤļ
ĠS everal
ĠS upport
ĠS MT
ĠS pectral
ĠS mith
ĠS wans
ĠF F
ĠF inv
ĠF ollow
ĠF loor
ĠF resh
ĠF ermat
ĠF OL
Ġu y
Ġu XY
Ġu XZ
Ġsub ject
Ġsub multiplicative
Ġsub relation
Ġsub sequently
Ġfin ishing
âŁ©, -|
âĪ ĺ
ion s
ĠG ives
ĠP U
ĠP monic
ĠP ush
je cted
fi ed
Ġj b
Ġk A
Ġk i
Ġk áµĲáµĴáµĸ
Ġk abstract
Ġk extract
Ġun necessarily
Ġun desi
fun L
ĠE S
ĠE lement
ĠE lephant
ĠE rase
Ġas inorum
Ġhx w
Ġat ten
ĠH v
ĠH sub
ĠH rel
ĠH Ïĥ
ĠH ld
ĠH almos
ĠH enry
pre structure
pre triangulated
ser s
Ġfor cing
ĠL E
ĠL N
ch i
ch arg
il att
Ġz M
Ġz n
ĠK aroubi
ĠK ernel
Ġadd ress
Ġ2 3
non square
ta ut
ard ine
ĠÎ¼ Î½
ĠN f
ĠN ull
ĠN ath
ĠN ormalize
Ġcomp at
Ġcomp lementation
Ġcomp iled
el li
pr M
pr r
âŁ¨ -
âŁ¨ âŁ©âŁ©,
âŁ¨ âĬ¥,
Ġ(( âĪĪ
mi x
mi liar
ol s
Ġma tt
ĠB C
ĠB f
ĠB g
ĠB au
ĠB ind
ĠB isimulation
ĠB irk
Ġ_) âŁ©âŁ©âŁ©
Ġnat ure
ir relevant
ĠâĢ ĸ
Ġmem D
Ġmem u
Ġmem v
lf b
deriv ing
Ġequ ate
Ġequ ally
âĪ¥ )).
Ġpre dual
Ġpre ordered
Ġpre distance
te ch
Ġhs C
Ġhs comp
for ced
ĠJ on
semi module
ha m
ha y
ha ving
ha king
not hing
Ġhy w
ĠD one
ĠD ata
ĠD xy
ĠD educing
univ ariate
hs U
hs plit
ĠâĪ¥ âĪı
Ġhb n
Ġhb ounded
Ġhb ound
âģ» `
Ġzero s
intro duction
Ġhp h
Ġhp v
Ġhp zero
Ġhi S
Ġhi o
do ub
cid ing
ag erly
') âŁ©
)] :
Ġdo ub
inf eld
Ġst ub
Ġen le
Ġen closing
ĠW LO
ĠW aer
no tion
we st
Ġhn y
Ġhn ik
Ġpar allelogram
In formation
unt er
ĠÎµ g
min imi
Ġinter actions
ĠZ s
ĠZ ulip
ĠZ inke
Ġse es
per im
hx I
hx j
back track
Ġhc Î¼s
Ġar ising
Ġsome one
old t
elim ination
-- ->
eval áµ¢
Ġhm N
Ġhm u
`: "
bounded ness
compl âĤĹáµ¢
compl ished
compl icated
Ġ`( /
Ġ`( âĨĳ
Ġ`( âĪĳ
Ġ`( *)`
Re al
Re cur
Re cursor
)` `
)` ),
)` -/
low s
low ing
ĠÎ´ lt
urn al
Ġover ri
ĠIn equalities
Ġapp l
CE S
ym metry
Ġbetween ness
hab c
hab er
Ġhr K
Ġhr R
Ġhr q
Ġhr sz
Ġpi cture
depend ing
Ġequal izing
ach ing
'] `
'] ),
'] âŁ©,
ĠâŁ¨âŁ¨ {
ĠâŁ¨âŁ¨ âŁ¨âŁ¨
join ing
Ġqu ad
ĠÂ¬ Â¬
ĠÂ¬ âĪĥ
Ġtrans versals
hp g
hp x
Ġdisjoint ness
))) ;
Ġbi pointed
á¶ł Ë¡
Ġhz J
Ġhz n
Ġhu c
Ġhu i
Ġhu w
ee k
ht f
ht v
ĠâĬ¥ ).
ĠâĬ¥ âŁ©
ĠâĬ¥ )]
)} `
Ġ_âŁ© )).
Ġhk p
Ġhk s
Ġhk t
core presentation
hn i
Ġhd a
bo ard
bo chner
dis cretization
hr p
cod om
Ġcommut ant
mple ctic
Ġhl p
}) âŁ©
lin exp
ĠðĿĴ ®
Ġsupp osed
ĠIH a
ĠIH e
ĠIH fs
Ġhe mp
Ġpr r
Ġmv ars
âĤĲ k
forget ting
ĠO F
ĠO g
Ġhxy ne
Ġdis join
Ġspec ification
normal isation
Ġ(âĬ ĩ)
Ġimp ose
ĠâĪħ ).
âĢ ¦
iter ating
edist ance
place holder
ug g
Ġ_)) ;
Ġ_)) )),
Ġoper ating
ĠâĨĳ( âĪı
show n
ĠRe verse
ĠRe flexive
ĠRe formul
home omorphism
home omorphisms
hm l
Ġ`[ -
ĠÏĦ pos
Ġ4 2
include s
Ġinner âĤĽâĤĹ
ĠCon nected
ĠCon way
ĠCon figuration
hd a
hisker ing
fac ets
ĠhÎ¼ ts
ick ing
Ġfix l
Ġsubsingleton s
Ġinsert ed
Ġhw R
Ġhw i
Ġrestrict âĤĹ
ĠâŁ¨( <
Ġâĩĳ( âĬ¥
ĠhU K
Ġiter ation
Ġiter atively
ĠhS U
Ġnormal ised
Ġspecial ised
âŁ§ .
uc ial
uc ker
ĠhT i
Ġ[( @
ĠhJ u
termin ating
ĠhÎµ pow
medi um
Ġmod ifications
]} ;
ĠDe clare
Ġmultilinear ity
ðĿĵ ¢
ĠComp utation
cus sion
Ġ}) âŁ©,
scalars âĤĹ
Ġsh all
Ġcharacter izes
Ġcharacter izing
For get
(( @
(( âĬ¤
Ġclear ly
ðĿĴ «
Ġcol on
hu a
hu i
ĠâŁ© ),
Ġ`âĪ §
pf mt
Ġpred A
Ġpred B
ĠhC B
Ġalter natization
Ġ(âĨĳ âģħ
vious ly
Ġrb ar
Ġadjoin tify
Ġcur ve
Ġ`{ -
derivative s
hv u
super martingale
Ġho a
Ġho c
Ġcancel lation
)âĪ¥ ^
ĠhA i
Ġformal ise
Ġ(* )`
Ġ(âĨĳ( âĬ¥
Ġ(âĨĳ( â¨Ĩ
Ġnn f
hz s
bt n
Ġcode tecting
ĠhP J
ĠhP Z
ĠhP p
âŁ¨âŁ¨ âĬ¥,
Ġrevert ing
Ġdivision s
Ġ`âĪ¥ âĪĳ'
ĠEx act
can not
ĠPro ving
Ġ``( _
Ġcolle ctively
Ġge odesic
coord inate
ĠĠĠĠĠĠĠĠĠĠĠĠĠĠĠĠĠĠĠĠĠĠĠĠĠĠĠĠĠĠĠĠ ĠĠĠĠĠĠĠĠĠĠĠĠ
ĠhN x
Ġ((( âĢ¢)
inst T
inst anti
balance able
Ġinj KxL
Ġrecur se
ĠhM M
ĠhM b
ĠhM f
reindex ing
subspace s
Ġfork s
Ġ[` (
math s
Ġrelations hips
Ġhmn cp
âĪĪ (
Ġconsider ation
Ġ`: =
Ġdrop s
elements áµĴáµĸ
Ġdetermin istic
Ġtauto logy
Ġrot ated
Ġnull homotopic
plac ian
constru cted
Ġexpres sible
ĠModule s
stein haus
version s
Ġcofork s
Ġbor nee
ĠInter lude
Con versely
subst s
fib ration
Ġflip âĤĹáµ¢
Ġsuper ior
Ġsuper ceded
model led
hF S
Ġshort en
Ġshape d
Ġproposition ally
hC B
20 18
ĠUn iv
ĠUn iver
hÏĨ g
ĠPre images
ĠâŁ¨âŁ¨_, _âŁ©,
ĠhL L
Ġfib red
Ġfib onacci
dot sc
âĪļ (
Ġfe el
Ġsort s
Ġprop agate
Ġhat Î²
Ġreplac er
Ġrec ording
big uous
ĠTrans late
19 50
bracket s
hR A
infer rable
infer ence
As coli
cancell ative
Ex press
sat urated
Ġ(" :"
ĠSt atement
Ġconsist ency
âĮĭâĤĬ `
Ġhuv ÏĨ
hM M
Ġ(âī¥ ))
Ġ`_ `
Ġ`_ `,
Ġimplement ations
Ġnc N
âĭĨ [`:
Ġ`âĪ« `
Ġ(âĢ ¹
ĠMar cus
ĠBo x
ĠâĨ¥( âĬ¥
Ġ_âŁ©âŁ© ;
return ing
return ed
ĠSub type
ĠSub sets
ĠSub monoids
Ġrefle ctor
Ġpoly omial
Ġpoly morphism
Ġ7 0
ĠFin ish
av y
there fore
Ġcomon adic
ĠâĮĪ -
Ġhigh ly
)âŁ§ )
Ġ(_|_ |
Ġhxz D
Ġhold ing
Ġcomonad s
áĺģ Y
áĺģ f
Ġsta ys
Ġunf ortunate
Ġ[(âĪ Ĩ),
ĠTransfer ring
Ġdisj unctions
Ġmark ing
Ġentry wise
Ġextract s
Ġextract ed
`.) "]
ĠðĿķĨ áµĴáµĪ
Ġpick ed
Ġanalog ues
ĠhZ W
ĠhZ c
Ġsto chastic
Ġabstract s
10 25
ĠNo ether
ĠhW U
ĠhW V
Ġsi mulation
Ġll comp
unsat s
Ġestabl ishing
ctx t
Ġcorec F
ĠLa placian
Ġ`* _
Ġnever theless
Ġmis match
ij n
ĠIs omorphisms
ĠIs abelle
adm it
Ġmodify ing
ĠhÎ½ inter
Ġtransform ing
wapp ing
Ġenumer ation
boo ks
Ġselect ing
ĠTurn ing
oll ary
Ġparametriz ed
ĠSum s
ometri cal
scan r
provi de
Ġignor ed
Ġexcl usively
ĠDerivative s
Ġcomplet ed
Ġcomplet es
Ġhull s
Ġhff x
Ġvariance s
Ġdy z
ĠPri mality
Ġplace holder
occur rences
Ġcr ucial
Ġdiscus sed
Ġsafe ly
ĠðĿĵķ meas
ĠAddition ally
With out
ĠProper ty
Ġ`â¨Ĩ `.
ĠEmbedding s
Ġ`â §ı
Ġhsv t
):: (
ĠRecur sive
Ġperforman t
representable s
Ġexec ute
Ġexec uted
ĠNum er
interest ing
hZ c
Ġ! }
Ġminimi zer
ĠMeasu rable
ĠMeasu rability
Ġ(/ ),
ĠLocal izations
ĠAlter nate
Ġsucces ses
ĠEqu ations
ĠMod ify
ĠVal uation
symbol s
Ġunlike ly
circu its
General ized
Ġhal ts
requi ring
Ġ_|_ |_;
track ed
Ġorient ations
Ġdiffe omorphisms
Ġsurjection s
ĠConstructor s
definitional y
Ġ`âī º
Ġ`âī ¼
ĠGe ometrical
theore tical
urr ent
âŁ§' âŁ¦
(_ |_
196 8
Me as
Ġexception s
ĠQuotient ing
Ġhet x
ĠMin imal
ĠMin imum
Ġproportion al
Ġconcer ning
Ġstrength ening
ĠHd g
pigeon holes
multip liers
Ġadjust ments
197 7
Ġachie ving
Ġnq g
Ġincre ment
mapping s
ĠCy clotomic
Definition s
Name ly
ket ches
uf d
Ġali ve
Ġ[(< *>
Ġ`â¨ħ `
Ġconnect ing
ME NT
Ġwa iting
clau ses
assign ment
Ġ"[ "
ĠWr iting
evalu ated
Not ation
Not ably
conven ience
ĠQPF s
ĠFormal ly
Ġassemble d
Ġantichain s
Ġ(âŁ¨âŁ¨ âŁ©âŁ©|âŁ¨
Ġconcaten ating
,_ âŁ©;
Ġwor se
ĠCC C
Ġmaintain s
ĠConst ants
ĠConversion s
Linear Order
Ġstop s
reset I
ĠiD h
Ġrefin ed
Ġmotiv ation
Ġmotiv ated
Ġmotiv ating
hXY disj
Ġgrow th
Ġtool s
ĠPaul ino
Ġ------------------ -
Ġ------------------ --------
Ġ(âĪª ),
AT IO
}^ \
mar cus
mathe matics
Ġfra g
ĠMathe matical
proposition al
Ġasympto tically
ĠBi jection
ĠâĢ¦ )`
Ġ"? ")?)
ĠConj ugation
Ġcontradict ory
Lo cal
Lo cale
Ġ`âĢ¢ `
ĠUpd ating
Ġrelax es
Ġstructomorphism s
ĠDifferenti ation
Ġwitnes sed
ĠAuto mat
ĠBound ing
Ġprepend ing
ĠUp grade
Ġinterpre ting
ĠExp onential
ĠCombin ator
Ġaggres sively
ĠcN n
ĠCoun t
ĠGra ded
ĠIndex ed
Constru ction
Constru ctions
ĠâŁ¨_|âŁ¨ -,-
ĠSemin orm
say ing
ĠlW Y
ĠlW Z
ĠEl lipticCurve
Ġ"* "
Ġanaly se
Ġhope fully
ĠColex icographic
ĠApproxi mation
ĠApproxi mate
Ġshrunk en
Na vigate
Ne ukirch
rem lin
accum r
eder er
Ġdelet es
Ġunre ified
Ġitem s
intercept s
ĠDr infeld
Ġopti mi
ĠJohn stone
ĠRetri eve
avo id
Ber nstein
Rem ovable
struc tomorph
Ġintert win
ĠOb tain
Ġsilen t
effe ctive
Ġingredi ent
ĠConcaten ate
Mark ov
uitive ly
substit ute
Ġcoll ision
ĠIsome tries
ĠHow es
ĠÎ¹F E
cap su
Ġ(âĪ© )
altern ization
ĠAssert s
Eu ler
Ideal ly
Mathe matically
Po lynomial
sam uel
Ġ":= "
ĠLog ic
ĠAtom s
Ġdev oted
Ġvisi ble
ĠBu ilds
sche me
ĠWeight ed
ĠRemain der
ĠSchol bach
LOW ING
ĠCalcul ate
)ÃĹ (
Cant elli
Hel per
Mac donald
[âĬ¤ ]
Ġhands haking
orient ed
accur ate
asyn c
ĠMang oldt
ĠINS TAN
ĠSwans on
ĠFOL LOWING
âŁ©,-| -âŁ©,
Ġundesi rable
Ġatten tion
charg ing
ĠNath aniel
Ġ((âĪĪ )
Ġmatt ers
ĠBau mann
ĠBirk beck
ĠWLO G
ĠWaer den
ĠZinke vich
ĠâŁ¨_|âŁ¨-,- âŁ©,-|-âŁ©,
! ).
! `.
" âŁ©
" .)
$ ;
' -
' â¦Ħ
' âĪ¥`
' âģĨ,
( *
( |
) âŁ¯
) !,
+ \
, ..
, [])
. /
. ")
1 01
3 6
4 1
5 3
6 1
6 3
8 2
: *
: {
= (
= \
> ")
? ,
? ?
A D
A L
A lter
A melia
A ttach
B esides
B Ã©zout
C op
C ategory
C ramer
C ayley
D h
D avid
D ivergence
E ither
E âģ¿
F inite
G alois
H ar
H st
H AB
I C
I y
J ordan
J oy
K le
K diff
L A
L E
L int
L equiv
L áµĸ
M K
M aximum
N V
N ormal
P U
P u
R os
R ather
R áµ£
S O
S hrink
S ik
S impl
S upport
S ketches
T d
T erm
T urn
T est
T ychonoff
U o
U pd
U rysohn
W ork
[ ],
] "]
] {\
^ \
_ ][
` @
` ((
a anen
b g
c X
c Ioo
d b
d al
d ark
d ropping
d atatypes
e ar
e cted
e Î³
f uel
f differential
g eq
g smul
g ur
g ate
g ning
g gs
g ger
g uess
g hest
h mp
h to
h us
h so
h cc
h um
h supp
h congr
h ack
h root
h rw
h cycl
i eq
i ous
j ac
j son
k pos
k depends
l x
l list
l adi
m r
m u
m nat
m il
m replace
n neg
n pf
n Ã©
o i
p ite
p ng
q sort
r ate
r Ã¶
r intros
s n
s ends
s nf
s caling
s tieltjes
t space
t Î³
t cs
t hou
u zero
u tr
u str
v o
v is
v iding
v oking
w ti
w hole
w idth
x e
x iv
y v
y pos
z assenhaus
Ì Ĥ
ê Ļ
Ġ: )?
Ġ( ...
Ġ( âīĪ)
on ig
Ġa ca
Ġa inl
Ġa âĤĸ
Ġa kin
Ġh non
Ġh eval
Ġh union
Ġh ee
Ġh Inf
Ġh cover
Ġh nodup
Ġh cov
Ġh âĦµ
Ġh conn
Ġs Î¹
Ġs Sup
Ġs subsets
Ġs anity
er en
or ed
or malization
or ities
Ġt orsors
ma ta
is eqv
is olated
Ġf C
Ġf U
Ġf h
Ġf k
Ġf v
Ġf ri
Ġf Î²
Ġf power
Ġf âĤĻ
Ġf ish
Ġf áĺģ
Ġf req
en sure
en sively
al ch
re it
re moves
re versing
mp ar
ti ze
Ġc M
Ġc n
Ġc Icc
Ġc sh
Ġc ap
Ġc hebyshev
Ġc umber
se en
se ded
Ġ[ _,
Ġ[ ...
Ġ[ ![
Ġ[ âŁ¨_,
Ġ{ âĨĳ
Ġ{ âĪı
Ġb Y
Ġb aire
it ude
Ġ` ..
Ġ` âĨĲ
Ġ` ÃĹ
Ġ` âĢĸ
Ġ` ^`
su fficient
me ans
me hta
me ets
at m
Ġx lim
Ġx pos
Ġr i
Ġr m
Ġr inv
Ġr ate
Ġr ds
Ġr á¶ľ
Ġr acks
co ur
co induction
co mes
he lim
he val
Ġn H
Ġn Y
Ġn v
ro eder
Ġp le
Ġp zero
Ġp ack
Ġp prime
Ġp ain
Ġp icard
Ġp ublic
Ġp eek
Ġe if
Ġe elim
Ġe vent
Ġe matching
ar xiv
un top
un ordered
un lifted
de let
ĠâĪ ĭ
st k
st el
st ated
st ates
st antiate
ĠÎ± e
Ġi get
Ġi âĤĻ
Ġi last
ve d
Ġin ame
Ġin vert
Ġin convenient
ri ve
ri gh
as io
map m
map Fr
Ġis om
Ġl ight
Ġl ll
Ġl hd
Ġl decl
dd s
Ġ} `,
). "]
âŁ© ]}
Ġg d
Ġg ring
Ġg sum
Ġg ol
Ġg ain
Ġ- )`.
Ġex ha
pe fully
Ġw V
Ġw v
Ġw eren
con cavity
fin j
fin v
fin ity
fin alizer
po dal
Ġm er
Ġm ind
Ġm fold
Ġm irr
ĠR ather
ĠR equi
Ġd T
Ġd t
Ġd il
Ġd congr
Ġd old
Ġd rec
Ġd nf
Ġd raw
ĠâŁ¨ |
Ġre li
Ġre tri
Ġre duct
Ġre ordered
Ġre using
Ġre call
Ġre covers
Ġre versal
ed horn
Ġy d
Ġy y
Ġy zero
ĠT H
ĠT T
ĠT i
ĠT ra
ĠT arget
ĠT hough
ĠT hose
ĠT yp
et ing
Î» d
Î» g
Î» z
sub sieve
), ...
du e
comp uting
Ġsu ps
lt r
lt y
lt ra
Ġan noying
Ġto ward
ĠM I
ĠM X
ĠM x
ĠM azur
ĠM aximum
Ġcon cent
Ġco ker
Ġco complete
Ġco atomic
Ġco separating
Ġth res
)) !
)) ];
op i
ĠÎ» v
ĠÎ» pd
ĠA lexandroff
ĠA lias
ĠA yers
ĠA vo
Ġ* (
Ġ* âŁ©
Ġ* ]âŁ©
Ġha U
Ġha k
qu x
ĠI C
ĠI R
ĠI V
ĠI m
hom othetic
Ġ$ |
ex plic
ĠC e
ĠC la
ĠC alls
ĠC heval
ra structure
ra vel
ĠS f
ĠS g
ĠS ol
ĠS olution
ĠS ign
ĠS igma
ĠS wapping
ĠS alch
ĠF s
ĠF orm
ne ver
Ġu F
Ġu le
Ġu ti
Ġu change
right l
coe Z
Ġsub matrix
Ġsub complex
ver sed
ver ify
ĠâĪĢ â¦ĥ
ĠG ive
ĠP art
ĠP ret
ĠP owers
Ġk j
Ġk p
Ġk rull
Ġun directed
Ġun aff
Ġun specified
Ġle val
Ġle quiv
ĠE âĤĹ
ĠE numer
ĠE sakia
mo gorov
Ġhx ÏĢ
Ġhx Dh
Ġpro to
Ġpro ble
Ġpro cessed
neg ativity
ĠH A
ĠH S
ĠH ar
ĠH inv
ĠH ad
ĠH ome
ĠH df
ĠH andbook
ĠH indman
pre A
Ġfor b
`, -/
ĠL anguage
ĠL áµĸ
ĠL CT
ame ter
trans p
ad jo
Ġapply âĤĹ
ĠÎ¹ A
ĠÎ¹ B
ĠÎ¹ EE
ho wever
ĠK K
ĠK st
ĠK âĤĺ
ĠK ey
Ġ2 7
non increasing
ur ate
ta kes
ard ing
log arithm
hf r
hf y
hf top
hf bot
Ġhf I
Ġhf alse
Ġpo se
Ġpo set
Ġpo si
ĠN B
ĠN orm
ĠN onempty
-/ ]
Ġcomp SL
Ġcomp ile
âĨ ¥
ext s
ext ensionality
âŁ¨ (@
âŁ¨ âĬ¤,
Ġ(( |
Ġ(( âĪħ
Ġ(( âĨĳ(
Ġ(( â¨ħ
mi ght
ĠB M
ĠB ase
ĠB ases
ĠB ased
ĠB alls
ĠB reit
Ġ_) âŁ©)
iso E
Ġq R
Ġq o
ir ce
lf and
Î¼ c
âĪ¥ )âģ»
âĪ¥ âĮĭâĤĬ
Ġpre complete
Ġpre bundle
Ġpre pen
Ġpre she
te au
te madi
jo y
Ġfrom c
Ġnot ing
Ġhs I
Ġhs Z
Ġhs z
ors ki
ĠV I
ĠV ladi
ĠJ B
ĠJ ames
pri marily
ha a
im s
im gur
not ably
inter sect
Ġhy J
Ġhy K
Ġhy k
len sat
Ġdef n
ĠD y
ĠD en
ĠD st
ĠD old
ĠD zy
ĠD NF
ĠD tu
bas tian
au tomorphism
hs d
hs v
congr SL
Ġhb J
Ġhb k
Ġhb ad
Ġhb monic
Ġhb pd
Ġlo west
Î¹ EE
Ġright most
Ġab use
intro duce
Ġhp g
Ġhp j
Ġhp sa
Ġhi y
Ġhi ghest
do cumentation
ers s
quotient s
ker n
list Î£
Ġsum mary
') `,
') âģ»
Ġhom set
Ġhom sets
Ġ" /-
Ġ" âĨĳ
Ġlet ting
Ġst ucture
Ġen forced
Ġen capsu
ĠW ork
ĠW hether
Ġne p
Ġne we
Ġne ighbors
Ġne utr
sc ore
lex icographic
Ġht g
Ġht us
Ġht Î²
ise ly
Ġhg d
Ġhg cd
we aker
Ġhn ng
Ġstr ange
Ġstr ugg
ig man
Ġclo ser
Ġunder score
ĠÎµ x
ÏĢ if
rel ative
Ġnon vanishing
Ġnon numeric
Ġnon increasing
Ġ@ _
ĠZ i
ĠZ hao
hx B
hx S
hx U
back ward
Ġhc fg
Ġar rive
Ġlt b
Ġcl ash
mod ification
Ġlocal izing
Ġch ance
Ġch unk
Ġch urch
Ġdesc end
Ġdesc ended
hg d
hg u
hg top
hg bot
insert ing
insert ed
meta variable
Ġ`( [
Ġ`( ...
Ġ`( +)
'_ {
_, _,
rw s
und red
ĠÎ´ nonneg
ĠÎ´ Îµ
urn side
Ġinf rastructure
exp R
ĠIn ner
ĠIn itial
Ġclass ifier
Ġfa miliar
cle ared
char acters
ĠÏĢ âĤĺ
Ġih L
Ġhr I
Ġhr d
Ġhr j
Ġsem ifi
row th
Îł b
âŁ©âŁ© ))
âŁ©âŁ© âŁ©âŁ©,
âŁ©âŁ© âŁ©;
Ġequal izes
ach im
'] ).
Ġopen ness
ĠâŁ¨âŁ¨ _âŁ©,
Ġqu adr
Ġuniform izer
Ġuniform ities
ĠÂ¬ *
ĠÂ¬ âĪĢ
Ġtrans num
Ġtrans fers
hp n
hp y
Ġ(- âĨĳ
))) ],
))) `.
ĠâŁ¨_, _âŁ©,
alk s
á¶ł âģ±
Ġderiv ing
Ġ[] ]
Ġ[] âŁ©,
Ġtri gger
Ġhz C
Ġhz r
Ġhu st
Ġhu ge
Ġmax ima
Ġterm inating
Ġbo ilerplate
ĠâĬ¥ âŁ©,
)} {
Ġpos x
hb s
Ġ_âŁ© `
Ġsemi module
Ġsemi continuity
Ġlimit ed
alg orithm
ou x
star ter
Ġthere of
hn ng
spec ifically
spec ifying
Ġhd l
Ġhd m
dis cussion
hr r
hr s
Ġarg uing
Ġcommut ators
ĠWe is
Ġstar âĤĹáµ¢
Ġperm issive
Ġsupp ress
Ġresult ant
Ġhq n
Ġhe c
Ġhe v
Ġhe y
Ġinjective s
ĠÎ½ A
ĠÎ½ n
Ġâ¨ ³
diagonal s
Ġbut ton
ay es
Ġcomplex ity
pt ers
simple r
simple s
pres ence
total ize
her editary
ĠO ut
ĠO pposite
ĠO mega
ĠO rient
Ġhxy z
cof ree
Ġdis crimin
Ġdis advantage
Ġdis charging
'} "
'} }
ĠâĪħ `,
Ġcompact ly
struct ural
che ll
none s
ug ment
mat ched
arith ms
Ġlog ical
naturality âĤĹ
naturality áµ£
ĠâĨĳ( âĬ¤
ĠâĨĳ( â¨ħ
show ing
)âŁ© ))
Ġcomposition al
ĠRe ct
ĠRe vert
ĠRe ports
ĠFor malization
ĠFor mulation
Ġ`[ ]`.
Ġ(âĨ ¥
Ġ(âĨ Ĵ
]` ).
Ġiso F
âĬ Ĺ
Ġme di
chain ing
ĠCon verse
fac ing
sem bling
Ġsee ing
led ge
les co
last c
:: (
Ġsmooth ly
Ġsatis factory
Ġ100 1
Ġhw U
Ġhw b
Ġhw yz
Ġconv ince
Ġâĩĳ( âĬ¤
ĠhU f
Ġcondition ed
ĠhS G
ĠhS g
âĪ¥) `,
alance d
ih l
Ġshould n
ĠJo y
ĠJo in
ĠJo achim
Ġro om
Ġ(âŁ¨ -
Ġ[( âīł
Ġ[( âĬĶ
Ġcha pter
ĠhJ Î´
Ġroot ed
hl n
Ġfactor ed
Ġfactor isations
Ġalong side
]âŁ© ))
Ġ# ((
bl unt
âĢº âŁ©
]} ),
Ġwork flow
Ġdepend ence
where as
Ġhfg ne
gre en
man teau
ðĿĵ Ĵ
ĠComp utable
ĠComp utations
'âŁ© ]
'âŁ© ::
else where
Ġtarget s
Ġ(< $>
Ġbig gest
Î£ b
Ġcharacter ising
For mat
ĠâĢ¹ (
ess ential
Ġcre ation
hu w
ĠâŁ© )
ĠâŁ© âŁ©),
Ġ`âĪ ĺ
ĠhC uv
Ġsy zygies
Ġsy mplectic
áµĥ áµĩ
ĠhV B
ĠhV W
hv a
hv c
super exponential
Ġwould n
Ġ(âī¤)] `
Ġdoc s
inductive ly
Ġpseudo distance
general isation
Ġ(âĬ¥ :
Ġ(` âĪ¥
ution s
Ġbase point
ple ase
Ġtotal ity
Ġtrunc ates
ifi ers
ĠhF a
ĠhF n
ĠhF s
ĠhF nemp
art ed
Ġextension ally
An alysis
}} .
lar gest
Ġhome os
Ġlast c
ĠhP f
solution s
Ġsetoid s
ĠAdd s
ĠAdd Magma
Ġinductive s
ĠEx ec
ĠPro jective
ĠPro jects
Ġminimal ity
âĮĭ .
âĮĭ âŁ©
âŁ® (
complement ary
cs a
eigen vec
ĠĠĠĠĠĠĠĠĠĠĠĠĠĠĠĠĠĠĠĠĠĠĠĠĠĠĠĠĠĠĠĠ ĠĠĠĠĠĠĠĠĠĠĠĠĠĠĠĠĠ
ĠĠĠĠĠĠĠĠĠĠĠĠĠĠĠĠĠĠĠĠĠĠĠĠĠĠĠĠĠĠĠĠ ĠĠĠĠĠĠĠĠĠĠĠĠĠĠĠĠĠĠĠ
ĠhN MK
ĠhR s
ĠhM s
Ġpl ate
metriz ed
ĠNot ably
.) "]
Ġcau sed
Ġauto generated
Ġauto mate
shift ing
Ġcore pr
Ġcore presented
special ized
!" \
Ġcould n
ĠÏģ pos
extr as
ĠâĮĬ âĨĳ
Ġ-( âĨĳ(
Ġinst ant
constru ctive
Ġ(# {
Ġtag ging
ĠÎ¦ isom
color ings
thickening s
Ġbl ue
converg ing
Ġback ground
Con figuration
Ġsupremum s
hF c
ĠhÏĥ n
Al most
Ġ9 9
Ġ`- (
Ġ..( âĬ¤
Ġty ping
âŁ¦ âŁ¨
ili ties
sg m
hC F
hC f
applic ations
pol arization
car ries
reflection s
ĠUn ify
Comp ute
ĠPre pend
ĠDo main
ĠDo wn
Ġctx ts
Ġfib res
three fold
hj i
unk nown
ĠRing s
PI D
}. $$
Ġhyz x
Ġ`(%% _
sa ve
])) )).
To gether
Ġreplac ements
big ger
ĠTrans lating
prob ably
19 87
ax imal
Ġloc ations
ĠâŁ¨- (
Ġdestruct ing
hP Î±
Ex p
Ex pected
Ex istence
hV U
ĠSt art
ĠSt andard
hol omorphic
ÎĽ i
Ġdown stream
hM f
Pro duct
sch aefer
Ġappropriate ly
Ġread y
hpq r
Ġexponential s
Ġ`âī¤ `-
Ġthickening s
hJ Î´
Ġoccur ences
Ġequi continuity
Ġhence forth
Ġ_âŁ©âŁ© ),
ann ulus
mean ing
hX Z
Ġ8 0
ĠFin ds
ĠFin sets
ĠSe bastian
recur sor
De f
coatom s
lint ing
Ġhxz ne
ĠHe lt
Ġpost composing
linter polate
11 0
character isations
Ġlabel led
12 34
Ġcircum stances
Ġesti mated
Dist Lat
}" ),
ĠBas ics
Un iform
Un iqueness
ĠÎ¨ range
ĠÎ¨ isom
irthd ays
sect ing
Ġ`(- (
Ġ`(- %%
Ġhint s
Ġextract p
ĠBe fore
ĠâħŁ 2
Ġquanti fying
Ġquanti fication
ĠhZ d
)! ),
Ġboundary less
ĠQu asi
ĠQu ickCheck
predic ates
Ġll r
Ġhad j
Construct s
every thing
Ġms b
accept able
ĠAr bitrary
ĠAr chimedean
ĠAr zela
ĠAr ithmetic
correspon ds
ĠTh ree
gold en
respect ing
Ġsquash ing
Ġte lesco
ĠCre ating
âĮīâĤĬ ,
)âĪ¥âĤĬ âģ»
ĠRestrict s
exist ential
explicit ly
Ġenumer ating
Ġstabilizer s
Ġanalogous ly
Ġppred A
Ġppred B
determin es
Ġ$\ |
Ġinstanti ations
Ġatt ached
Ġconstra in
ii i
Ġaccept ed
Ġlint ing
Ġconf using
ĠCheck ing
Ġrescale s
No ether
Ġspe eds
ĠCha pters
ĠNe ukirch
Ġmeaning ful
Ġstor age
reg ard
Ġear ly
Ġextreme ly
Ġ`âĨ ¿
Ġpret end
Defin ed
Ġdx lt
Ġcontr ary
ĠCan not
Ġtrack ing
Ġdischar ges
hZ cl
ĠSch aefer
ĠSch rÃ¶
ĠLike wise
ĠhÎ¾ m
ĠAd joining
ĠChange s
Th ink
Ġwra p
Ġwra pped
ĠEqu al
Ġ(_|_|_ |
ĠMod ular
Ġstu di
Ġdecre ases
requi red
atural ity
mb find
Ġann ulus
Ġ(âŁ¦ âŁ¨
Le hmer
ĠPost composition
Ġ`\ `
coeffic ient
199 9
ĠMonoid al
Qu otient
Qu adratic
ĠReg arding
Ġtrichotom y
ĠImp licit
ĠImp lemented
ĠGener ic
Ġocc asion
multip lied
197 5
multaneous ly
Ġ`? `
Ġincre ases
behave s
ignor ing
Ġsynthe sis
Ġsynthe sized
Com bin
ump ing
Ġali gning
Ġsubstit uted
Ġ`(*) `,
Ġsha res
loop ing
loop less
ĠStrict ly
ĠIHr r
cp ct
ĠFact s
does n
ĠMatch ing
ĠHomo geneous
hfin j
Ġexhibit s
nb hd
inher iting
Ġhnot one
ĠVari ables
Intro duces
hE F
hnot one
ĠâĨ¾ (
arb oux
Ġinteract s
ĠhST m
Ġ`â¨į `
200 9
dg mem
issu e
Ġinvok ing
Ġinvok es
Ġsw it
mathe matical
Ġmim icking
Ġ"? "))
ĠConj ug
ĠConj ugate
Ġsignificant ly
ĠStar ting
shr unk
âĻ¯ .
Ġ`âĢ¢ `.
Ġpulled back
ilson s
Ext end
ĠIter ates
emer edi
Ġadditiv ize
ĠCombin ing
diamon ds
ĠCoer cing
Ġvisit ed
Ġtempor arily
Ġce iling
Ġill ustr
Ġmor ally
Ġrece ive
ĠDom inated
Se cond
Ġ`/ .`
ĠIdeal s
Ġoblig ation
ĠAnalo gous
Ġ`âĬĨ `
Special ized
En gel
Tensor ing
iD h
Ġly z
accum l
ĠSequ ences
Ġopti misation
Ġ[(âī¤ )]
Ġ(<*> ),
ĠRetri eves
ĠApplic ations
Dual ise
Em bedding
uff le
Ġspell ing
Ġug lier
ĠWhere as
Ġbootstra p
Ġ(âŁ¨âŁ©|âŁ¨ âŁ©)
Ġ[(âĢ¢ )],
Continu ity
Cre ate
La grange
{.. @
Ġsch ur
Ġti ps
ĠInd icator
ĠCor ollary
ĠCol lect
ĠDE T
Ġ`(â¨ Ĥ[
Ġprobab il
ĠFraction al
Ġbenef it
Man ifold
`â¨ į
Ġ(âī« )
Ġcollap ses
ĠCir cular
ĠView ing
Ġ_),`` (
ĠðĿĴħ âĤķ
ĠArgum ent
Fu bini
Ho pefully
Us age
Ġ{âĬ¥ }
Ġrob ust
Ġrout ine
Ġtheore tic
concl usion
Ġdel ay
posit ory
appro priate
Ġstand alone
," ")]
Ġtens ors
Ġlv ls
ĠFollow ing
ĠLN A
tech n
doub leton
ĠâŁ¨(< ),
ĠUniver se
Ġminimizer s
ĠAutomat on
ĠINSTAN CES
Ros ser
Sik orski
Term s
thou ght
wti e
êĻ ³
mpar tition
Ġcumber some
Ġ`.. `
cour ses
stel lensat
righ tr
asio wa
Ġgol f
Ġmirr ors
explic its
ĠCheval ley
ĠSalch ow
ĠPret ty
Ġunaff ected
Ġproble matic
ĠHad amard
ĠLCT VS
adjo ing
Ġposi tivity
ĠBreit ner
Ġprepen ded
ĠVladi mir
Ġ"âĨĳ "
Ġneutr al
Ġsemifi elds
Ġ[(âīł ),
ĠSchrÃ¶ der
stellensat z
! }}.
" ;
' "
' ?
' âĪ¥âĤĬ
' âĪĪ
' })"
( âĨĳ
( âĬ¤
) _
) -/
* :
* ))
. :
. *`
/ .
/ ).
2 001
5 8
6 6
7 8
8 4
8 5
: **
= [[
> "
> =>
@ _
A F
A r
A áµ¢
A ctually
B i
B â±¼
B urnside
C ast
C hebyshev
C artan
C á´¹áµĴáµĸ
C HSH
D r
D er
D ri
D ickson
D ynkin
D VR
D arboux
F B
F C
F ix
F ernÃ¡ndez
F lypitch
F Î±Î²
G n
G ive
G ER
G elfand
H K
H L
H er
H fun
H rel
H ub
H enselian
I S
J i
J s
K tcs
M es
M congr
M á´´
M ake
M cShane
N E
N u
N on
N one
N âĤĹ
N áµ¢
N ormalize
N evertheless
O R
O U
P ush
P ossible
P lease
Q s
Q âĤĻ
R R
R T
R x
R ob
R âĤĽ
R uf
S ame
S plit
S uc
S ending
S oph
S ylow
S yntax
S igma
T arget
T hough
T ake
U p
U âĤĸ
V E
V b
W itness
W ilson
W hiskering
X p
X âĤĻ
Y ama
[ @
\ }$
] =
] {
^ ),
_ <
_ âŁ©âŁ©,
` <
` âŁ¦
` âĪĥ
` â¨ħ
` âĬĵ
a mem
a âģ¿
b ang
b urn
b idx
c q
c lim
c name
c ulus
d h
d cl
d forall
d ents
d Î¸
d unfold
e P
e is
f e
f âĤĻ
f Î³
f áĺģ
f ec
g x
g cont
g ou
g osper
h ul
h ge
h id
h fl
h ase
h lim
h lf
h app
h len
h âĤĹ
h bounded
h bi
h char
h anti
h alk
h dim
h ub
h hd
h roots
h Î·
h cov
h transvec
h combo
h mag
i U
i ble
i hx
i info
i â±¼
i ques
i cographical
i plication
j y
j er
j an
k u
k al
k con
k ens
k ill
k ling
k abstract
k onig
l h
l q
l mk
l ds
l ace
l angle
l ug
l atter
l xy
l ctx
l apping
l vl
m B
m x
m it
m ut
m top
m ds
m ich
m uch
n an
n triv
n âĤļ
n ikodym
o Å
o ving
o geneous
o times
p v
p z
p in
p bo
p monic
q a
q b
q n
r l
r q
r r
r ent
r rfl
r angle
r Ã©
s ors
s intro
s closure
s ses
s Set
s imon
s eness
s perner
t Q
t um
t arg
u U
u conn
v m
v w
v Ã
v map
v olution
w b
w s
w t
w y
w or
w as
w ine
w star
w edge
w edhorn
x X
x b
x d
x f
x á¶ľ
y N
y d
y w
y oung
z o
z x
z find
z ano
| )),
| )âģ»
} :\
§ )
¨ )
¨ `
ª a
ª ),
Â «
Â ·
Ã ¼
Ã ł
Ã Ń
Å ģ
Ġ Åģ
Ĥ )
ĭ )
ĵ )
ļ ),
Ġ: --------
in et
in deed
Ġ( ~
on ally
le ven
Ġa J
Ġa L
Ġa T
Ġa pi
Ġa info
Ġa priori
Ġh or
Ġh con
Ġh der
Ġh symm
Ġh ch
Ġh il
Ġh range
Ġh congr
Ġh mod
Ġh conj
Ġh incl
Ġh chain
Ġh seg
Ġh dec
Ġh lip
Ġh uniq
Ġh orn
Ġh Îº
Ġh istorical
Ġh undred
Ġs C
Ġs v
Ġs us
Ġs cal
Ġs il
Ġs ix
Ġs nf
Ġs bd
Ġs itting
Ġs oft
Ġs kel
Ġs erves
Ġs Nu
er tain
er main
er burn
or malized
Ġt Q
Ġt sets
Ġt disj
Ġt zw
ma tive
ma il
ma ster
is abelle
Ġf fine
Ġf ff
Ġf cd
Ġf âĤĽ
Ġf áµ¢
Ġf rob
Ġf oc
Ġf differential
Ġf ocused
re map
re et
re members
re anu
mp has
mp os
ti bility
ti gu
Ġc p
Ġc q
Ġc v
Ġc st
Ġc ased
Ġc fs
Ġc uv
Ġc pm
Ġc aching
Ġc mds
se cted
Ġ{ |
Ġ{ },
Ġb I
Ġb h
Ġb es
Ġb ang
Ġb anach
Ġb âĤĴ
Ġb Henstock
Ġb Distortion
it p
it ed
it ate
Ġ` !
Ġ` ^
Ġ` âģĨ
Ġ` âŁ®
Ġ` %%
Ġ` âīł
Ġ` âĢł
su fficiency
me a
at urally
at tributes
Ġx A
Ġx J
Ġx V
Ġx w
Ġx si
Ġx prop
Ġx xs
Ġr z
Ġr op
Ġr cd
Ġr ice
Ġr lp
Ġr cf
Ġr ik
co ded
co ker
co homologie
he f
he ver
he ter
Ġn ge
Ġn min
Ġn hc
Ġn hi
Ġn gn
ro ll
ro lling
ro unds
ĠâĨ »
Ġp ft
Ġp ty
Ġp continuous
Ġp ers
Ġp ortion
Ġp tgt
Ġp hys
Ġe is
Ġe lem
Ġe áµ¢
Ġe fmt
Ġe vol
Ġe fficiency
Ġe agerly
Ġe mail
Ġe mphas
an alo
an notation
ar a
ar ry
ar ify
un sed
un ification
un conditional
un cts
ac uous
de u
de sig
de tails
ĠâĪ ¤
imp ossible
imp roper
st s
st atements
st uff
Ġi B
Ġi u
Ġi v
mul d
ve a
Ġin for
Ġin compatible
Ġin gest
Ġin directly
Ġin effect
eq b
ly a
if th
ri j
ri me
ri ers
ri ef
ri later
as ant
as hes
ab c
map âĤĹ
eg orov
Ġis t
Ġis ol
to s
Ġl d
Ġl ack
Ġl subtype
Ġl ip
Ġl acks
Ġl iving
dd erburn
ge o
ge odesic
Ġ} ))))
end ian
âŁ© ];
âŁ© ))),
Ġg H
Ġg algebra
Ġg semiring
Ġg ath
Ġg rid
Ġg gg
Ġg rouped
Ġg wz
Ġ- âĪ¥
Ġ- âģħ
Ġ- âŁª
Ġ- âŁ©);
Ġex am
Ġex pose
Ġex otic
Ġw L
Ġw t
Ġw u
Ġw x
Ġw y
Ġw Vx
ce du
con ne
con way
Ġm M
Ġm th
Ġm dvd
Ġm closure
Ġm first
Ġm when
Ġof fic
ĠR R
ĠR S
ĠR l
ĠR x
ĠR edu
ĠR bd
ĠR asiowa
Ġd st
Ġd prod
Ġd áµ¢
set ting
ĠâŁ¨ âŁ©âŁ©âŁ©
ĠâŁ¨ âŁ©âŁ©)
ĠâŁ¨ âĪı
lo s
ic hever
Ġre cast
Ġre ph
Ġre sq
Ġre ading
Ġre defined
Ġre ordering
Ġre define
Ġre pository
int ention
Ġy e
Ġy g
Ġy p
Ġy one
Ġy cc
Ġy âĤĻ
Ġy âģ¿
Ġy bar
ĠT b
ĠT d
ĠT rop
ĠT ag
ĠT raversable
ĠT emp
et e
Î» H
Î» o
Î» u
Î» Î¼
sub l
sub add
sub linear
sub functor
sub interval
sub presheaf
sub canonical
du pl
Ġsu ite
lt p
ĠM C
ĠM T
ĠM mem
ĠM otzkin
Ġco assoc
Ġco dom
Ġco equal
Ġco atom
Ġco ars
Ġco homology
Ġco ords
Ġco incidence
Ġco atoms
Ġco dimension
Ġco equalizes
Ġth read
Ġth ms
simp ly
der angement
li ber
li pping
li gible
li ams
)) ^[
)) ))).
ĠÎ² Î³
ĠÎ» H
ĠÎ» X
ĠÎ» l
ĠÎ» r
ĠA q
ĠA áµĴáµĸ
ĠA dic
ĠA á¶ľ
ĠA áµ¢
ĠA sy
Ġ-/ \
tr and
ono us
Ġ* "
Ġ* ])
Ġ* ]]
pro duced
pro ves
pro gram
pro cedu
Ġde ducing
Ġde structured
Ġde vice
Ġde sugar
Ġde liber
Ġon wards
], },
Ġha g
Ġha j
Ġha inv
Ġha monic
qu anti
up ta
ance d
ance led
ĠI A
ĠI J
ĠI l
ĠI x
Ġv U
Ġv t
Ġv y
Ġv sets
ex press
ex perim
ĠC ge
ĠC es
ĠC and
ĠC á¶ľ
ĠC eil
ĠC esymm
ĠC Äĥ
ra ft
ra ys
ra gue
`. ..
ut ory
ut ors
ut ton
ĠS i
ĠS s
ĠS y
ĠS ing
ĠS fin
ĠS tri
ĠS hould
ĠS bd
ĠS áµ£
ĠS heaves
ĠS waps
ĠS ketch
ĠS elf
ĠS utton
ĠF e
ĠF cont
ĠF ru
ĠF ail
ĠF iltered
ĠF itch
ĠF lypitch
ĠF lows
ĠF NV
Ġ1 23
Ġ1 14
Ġu c
Ġu mem
Ġu ÏĦ
Ġu til
Ġu rysohn
Ġu hpath
coe val
Ġsub i
Ġsub fix
Ġsub dis
Ġsub sequences
Ġsub rout
Ġsub scheme
es sel
Ġfin ishes
Ġfin ished
ver aging
âĪ £
âĪ ¯
âĪ ĺ)
ĠâĨĲ --
equ ate
Ġmul iplication
ory ache
ĠG ent
ĠG ather
ĠG oryache
ĠP B
ĠP D
ĠP M
ĠP Q
ĠP g
ĠP m
ĠP eq
ĠP ort
ĠP im
ĠP inf
ĠP á¶ľ
ĠP áµĴáµĪ
ĠP attern
ĠP áµĢ
ĠP aste
ĠP ons
ĠP ushforwards
ĠP tolemy
ĠP hase
fi ers
fi les
Ġj xy
Ġj usti
Ġk w
Ġk not
Ġk depends
Ġun cons
Ġun solvable
Ġun ifies
Ġun expected
Ġun printable
Ġun related
Ġun checked
Ġun needed
Ġun ravel
Ġun cleared
Ġun intention
fun s
Ġle f
Ġle cture
Ġo meas
ĠE mpty
ĠE ug
ĠE qui
ĠE ither
ĠE quiv
ĠE stabl
ĠE temadi
Ġas m
Ġas ymmetric
mo to
mo eb
Ġhx Z
Ġhx e
Ġhx Ïĥ
Ġhx ÏĦ
Ġmap p
neg ated
Ġat tain
nat urally
has hed
ĠH K
ĠH neg
ĠH alg
ĠH sin
ĠH func
ĠH cos
ĠH bdd
ĠH nc
ĠH AB
pre ting
pre complement
pre processing
ser vable
Ġfor est
ĠL A
ĠL B
ĠL ess
Ġfi ring
Ġfi bre
Ġhas soc
his m
ame len
ty s
il potent
il itate
il liams
Ġal loc
ad get
Ġz b
Ġz e
Ġz q
Ġz áµ¢
cl amp
ĠK rein
prod mk
th on
th ir
non div
sum sq
âĤĢ âĤģâĤĢ
âĤĢ âĤĢâĤģ
ĠÎ¼ F
ĠÎ¼ R
ĠÎ¼ n
ĠÎ¼ v
ca pe
hf I
hf h
hf cont
Ġhf A
Ġhf V
Ġhf W
Ġhf h
Ġhf rn
Ġpo sets
soc ia
ĠN áµĥáµĴáµĸ
ĠN evertheless
-/ ,
real s
real ized
Ġcomp L
Ġcomp osable
el sen
âĨ Ķ
Ġ(( &
Ġ(( â¨
ol zano
Ġma r
ĠB int
ĠB mo
ĠB cbl
ĠB essel
Ġ_) âŁ©;
Ġ_) :=
di ameter
Ġfunction als
Ġext ensively
', },
all is
all back
Ġq d
Ġq h
Ġq n
Ġq df
Ġnat m
ir rfl
lf a
tic ip
Ġequ e
cases I
âĪ¥ :
âĪ¥ )),
range âĤĹ
Ġpre ds
Ġpre inclusion
Ġpre sieves
Ġpre topologies
Ġpre additivity
Ġpre sumably
Ġnot in
Ġnot able
Ġnot ated
Ġhs norm
Ġhs pec
unit ors
par ents
par kling
ĠV U
ĠV o
ĠV symm
ĠJ D
ĠJ i
ĠJ s
pri o
semi conjugate
semi definite
app d
not mem
supp x
ant um
inter preting
Ġhy c
Ġhy sy
Ġhy phen
si len
si multaneously
Ġob served
Ġob serving
Ġob servation
Ġob servable
ĠD F
ĠD O
ĠD rop
ĠD xs
ĠD av
ĠD esign
ĠD yb
ĠD educe
Ġor gan
card M
uct u
Ġwh ite
omial s
hs g
hs k
hs q
hs Î´
ĠâĪ¥ ^
ĠâĪ¥ {
Ġhb S
Ġhb b
Ġhb f
Ġhb l
Ġhb q
Ġlo cs
Ġab m
Ġab ar
Ġab seq
Ġab ility
Ġeq ns
Ġhp W
Ġhp X
Ġhp ab
Ġhp Îµ
ĠU ser
ĠU ltra
Ġhi b
Ġhi is
Ġhi bt
do ing
filter s
Ġsum mari
nomial s
') :
Ġ" +
Ġ" |
Ġ" }"
Ġ" >"
Ġ-- âĨĴ
)] ),
)] `,
Ġst ory
Ġdefin ability
Ġdefin iteness
Ġ(âĪ Ĩ
Ġ(âĪ ī
Ġ(âĪ Ĳ
Ġ(âĪ ł
Ġ(âĪ £)
Ġ(âĪ §)
Ġ(âĪ ¨)
Ġen abling
ĠW ra
ĠW ide
ĠW ilson
ĠW RT
ĠW amelen
Ġne ck
ke ep
Ġfile name
Ġht B
Ġht mem
Ġht Î±
Ġhg p
Ġhg y
Ġhg en
Ġhg Î´
ĠÏĥ R
ĠÏĥ S
Ġhn g
Ġhn u
Ġhn zero
Ġhn il
Ġhn sol
In deed
Ġclo seness
ĠÎµ r
Ġ... }`
Ġ... ]`,
Ġinter pol
Ġinter calate
Ġop r
Ġop aque
support á¶ľ
'' :
per form
root ed
hx C
hx W
hx c
hx v
Ġhc j
Ġhc pos
Ġar bit
Î² áµĴáµĪ
Ġcl m
Ġcl arify
Ġcl ashes
abs K
abs ðĿķľ
ll s
]) âŁ©)
Ġch i
Ġch ase
Ġch unks
Ġpoint ing
Ġlim y
ĠâĨĳ âĨĳ
ĠâĨĳ âĮĬ
Ġdesc ents
ast er
hg cd
ps qs
Ġ`( âĢ¢
sur ability
ĠQ B
ĠQ monic
bi polar
Ġpri orities
ter mediate
ĠÎ´ v
ĠÏĨ int
Ġover loaded
Ġinf ers
ĠâĪĳ _
exp onents
ord on
ĠIn stance
ĠIn duced
ĠIn Ã©
ĠIn finitely
ĠIn stantiate
Ġclass ified
Ġreal ised
Ġapp ar
Ïĥ a
count s
count ability
âĪŀ `:
âĪŀ `)
Ġad vice
Ġdiv erges
char ge
Ġih I
Ġih i
Ġih k
Ġhr S
Ġhr t
Ġhr pos
Ġhr uv
Îµ f
Ġsem ilatt
row n
ses quilinear
ÏĨ int
ÏĨ âĤĻ
âŁ©âŁ© âŁ©)
âŁ©âŁ© )âŁ©
Ġequal ized
Ġopen v
ĠâŁ¨âŁ¨ -
ĠâŁ¨âŁ¨ âŁ©
ĠâŁ¨âŁ¨ âŁ¨(
ĠâŁ¨âŁ¨ âĭĥ
Ġqu ick
Ġqu icker
ĠÂ¬ ((
ĠÂ¬ *(
fr âĤĻ
hp zero
Ġ(- [
Ġ(- âĪŀ,
Ġord inary
bin aturality
unique ly
))) ^(
Ġbi jects
fix point
ĠâŁ¨_, _âŁ©
Ġiff mp
complete ly
Ġhz B
Ġhz int
Ġhz sz
Ġhz Vx
Ġhu X
Ġhu u
Ġterm ino
perm ute
ht n
)} ),
Ġhab p
Ġhab q
Ġhab v
Ġcal ler
Ġlimit ations
dition ally
Ġhk b
Ġhk r
Ġhk u
variant s
star ts
split table
hn c
hn k
hn n
hn q
hn s
hn ps
ĠâĪŀ ))
ĠâĪŀ },
ĠâĪŀ `-
lie st
hc r
Ġhd zne
dis play
ĠðĿĵĿ ÎĶ
Î´ nonneg
Ġarg u
Ġhl d
Ġhl k
Ġhl r
Ġstar s
}) $
}) ^
}) ],
}) âĪ¥
}) $,
lin ind
Ġperm ut
poly gon
Ġproper ness
"] .
Ġhq v
Ġhq x
semigroup s
Ġhe b
We ak
Ġ3 1
code s
Ġhj m
Ġhj n
Ġbit vectors
Ġhv U
Ġhv pi
have s
option al
Ġmv t
âĤĲ s
âĤĲ âĤĽ
00 3
00 00
ill ings
Ġout come
Ġ%% _)
Ġanti diag
ĠO K
ĠO O
Ġhxy t
Ġmatch ings
Ġdis cre
Ġdis abled
hi a
âĢ ľ
)`. )
)`. -/
Ġsym metrized
partition able
Ġsur faces
la str
la grange
Ġpower sets
Ġlog arithms
Ġdiag onally
ĠâĨĳ( @
ĠâĨĳ( âĨĳ
sym gen
Ġli h
ĠRe order
ĠRe flexivity
ĠRe indexing
ĠRe writing
Î³ x
composition s
Ġir reducibility
Ġir relevance
Ġlen s
ub ell
]` ),
âŁ« `.
âŁ« âĢł
Ġiso E
âĬ ĩ
âĬ Ķ)
wr ites
Ġbool áµĴáµĪ
ĠCon t
ĠCon clude
ĠðĿĵ ĳ
calc ulated
ĠhÎ¼ K
ĠhÎ¼ st
Ġfix point
... )
... ]`
âģĨ .
âģĨ `-
ĠðĿĴľ áµ¢
:: _)
irreducible s
Ġreplace able
Ġlower ed
Ġhw B
Ġhw v
pothe ses
Ġcom bo
ĠâŁ¨( -
ĠâŁ¨( @
ĠâŁ¨( âŁ¨
ĠâŁ¨( âĨĳ
Ġcof ree
Ġâĩĳ( (
ĠhU s
ĠhU t
Ġcondition ing
ĠhS f
ĠhS s
Ġnormal ity
Ġnormal ise
continu ation
arch ive
Ġinfer ring
ĠJo urnal
Ġ({ âĪŀ}
Ġ({ âĬ¥,
Ġro ute
element al
ĠhT U
ĠhT o
ĠhT s
ĠhT x
Ġsymm âĤĹ
Ġ[( "
Ġ[( [
Ġ[( >=>
Ġ[( ^),
Ġ(_ +
ĠhJ I
ĠhJ K
ĠhJ i
ĠhJ mono
ĠhJ uz
termin ation
Ġla z
Ġcent re
Ġcent red
est ed
ĠDe al
ĠComp ut
ĠComp ressing
Ġ}) âŁ©âŁ©
Ġ}) âŁ©)
ĠComm on
Ġ(< )`
Ġcir cu
Î£ a
Ġcoeffic ents
Ġcontra positive
Ġcharacter ise
Ġcharacter ised
Ġcharacter ises
For mula
Ġmultiplicative ly
col ors
commut ing
ðĿĴ ¯
ðĿĴ ħ
rev dep
ĠâŁ¦ ((
ĠâŁ¦ -(
ĠhI linind
hu card
ĠâŁ© ;
Ġ`âĪ ©
Ġ`âĪ ª
Ġ`âĪ ¨`
ĠhC d
ĠhC pos
Ġ}âŁ© ),
Ġic Î±
Ġappro aches
Ã© ment
Ġ(âĨĳ âĪı
Ġ`{ (
ĠhV c
ĠhV t
ĠhV y
hv b
hv o
hv ol
ĠhK A
ĠhK N
ĠhK d
ĠhK t
ĠhK vsub
extension s
proof wiki
Ġho j
Ġho xy
Ġcancel ling
Ġ(` _
ĠhA C
ĠhA x
Ġ(âĨĳ( (
ĠhB c
Ġnn abs
âģħ `:
hz a
hz eq
}} {
comparison s
Ġpp nm
eta ils
ĠhP a
ĠhP u
ĠhP mo
ĠhP Î±
ĠhP irr
null ity
stru cted
ĠAdd Semigroup
Ġ`âĪ¥ (
ĠEx istence
foldl r
next Conts
âī« `
hk j
hk l
ĠPro ject
âĮĭ )
Ġlike wise
^( âĨĳ
Ġhh J
Ġge lfand
Ġ(*) âŁ©
ĠTo wer
ĠĠĠĠĠĠĠĠĠĠĠĠĠĠĠĠĠĠĠĠĠĠĠĠĠĠĠĠĠĠĠĠ ĠĠĠĠĠĠĠĠĠĠĠĠĠĠĠĠ
ĠĠĠĠĠĠĠĠĠĠĠĠĠĠĠĠĠĠĠĠĠĠĠĠĠĠĠĠĠĠĠĠ ĠĠĠĠĠĠĠĠĠĠĠĠĠĠĠĠĠĠĠĠĠĠ
Ġbs v
Ġ((( @
![ ![
ĠhÎ´ c
ĠhÎ´ s
ĠhR A
ĠhM g
ĠhM VT
Ġpl anes
mpot ency
Ġpartition ed
off ic
Ġhpq r
sequ ential
special ization
fore ach
!" )
!" <
Ġim termediate
ĠhÏĨ x
alter nate
Ïī CPO
`( -
`( _
`( âĪ«
Ġsimpl ifications
âĪĪ {
hÎ¼ U
thing s
Ġdifferenti ate
hA C
geon hole
Ġhfi j
Ġwant ing
rad on
Order ed
IH f
ĠÎ¦ range
ĠâĨ¥ {
ĠSpec ific
Ġbor row
Ġrhs prf
ĠInter nal
ĠInter face
Con j
Con tinuous
Con way
Ġlarge ly
Ġsuper type
Ġsuper seded
Ġ`@[ _
Ġappe ared
dy adic
Ġpf x
substructure s
Ġ9 10
Ġ`- âĪŀ`
axiom s
20 22
car ry
car rying
hw t
ĠUn ique
âģº `,
ĠPre additive
ĠPre serves
Ġfac ets
Ġpat ts
Ġgre en
Ġgre at
ĠHa ving
Ġeigen range
Ġ([ "
ĠGou vÃ
Ġxy t
Ġformul ations
ĠComposition s
hxy D
hxy ne
Ġ`(%% (
sa ys
ĠAl len
ĠAl low
Ġantidiagonal s
Ġsort ing
@( _
To pologies
âĬ¥ `
Ġinfin ites
Ġide mpotency
ĠTrans l
dir s
lmul âĤĹáµ¢
ĠhX f
hat Î²
Ġpie ce
ĠâŁ¨- âĨĳ
ffic ients
Ġmat es
As semble
As soci
hP Îµ
Ġful fill
Ex cept
Ex tracting
hV W
Ġsuccess ors
ĠBounded ness
Ġatom ise
CommRing áµĴáµĸ
Ġprec ision
Ġprimitive s
Ġam biguous
Ġreindex es
ĠMulti linear
Ġ`âĬ¥ _
Ġ`âĬ¥ `-
Ġ`+ `.
Ġtransitive ly
hel ps
Ġ10 24
ĠhQ x
Ġmultip lier
enumer ability
pexpr s
Ġduplic ated
Ġduplic ating
Pro vi
Pro jection
Ġwf x
Ġ(âĢ ĸ
ĠhÏĦ s
ĠhÏĦ Ïħ
ĠMar c
ĠMar ÃŃ
ĠEnd omorphisms
)^( -
hJ le
push ing
Ġcar riers
Ġequi partition
call ing
Ġappear ance
Ġ_âŁ©âŁ© );
ĠPi geonhole
Ġpps qqs
ĠSub monoid
ĠSub stit
Ġknow ledge
Ġ`âĬ¤ _
Ġ`âĬ¤ `-
Ġmath s
ĠhÏĢ Î´
Ġpoly gon
Ġyn mem
âĪħ ]
ĠâĪĢ{ {
Ġhfx V
uch s
Ġalternative s
Ġfew nomials
av g
Ġ`| -
Ġdedup keys
ĠSe lect
ĠâĮĪ âĨĳ
De fault
Ġhigh light
Fin sets
Ġ_))) âŁ©
Ġunify ing
ĠÂ ·
Ġ`< `,
ĠHe ine
decor ation
Ġparameter ised
conformal ity
operator name
Ġpost composition
cylinder s
go ing
Ġea a
Ġsta ges
11 11
Ġhyx u
character ization
Ļ¯ `:
12 3
Ġ[(âĪ ª),
Ġcircum ference
ĠAlgebra ically
ĠCh anging
ĠCh inese
ĠCh urch
ĠCh arted
ĠÂ¬( âĪħ
ĠInt uitively
ĠMark ov
Un known
ĠLim it
ave d
ave y
hal ting
Ġhint sum
ĠBe ylin
formul as
$$ \
Ġdistributive ly
Ġnb ad
Ġinversion s
Ġquanti ties
ĠOrder s
ĠOrder ing
rd Åĳ
edi ly
âĢĿ ,
âĢĿ .
identi fy
Ġtransport s
]âŁ©âŁ© )
ĠQu anti
df ma
invol ving
Ġclaim s
Ġhin cr
Ġhdiv q
ĠLinear ly
Ġnpos âĦĿ
ĠhW Y
uni potent
uni queness
ĠExt reme
ins ic
Ġll x
Ġance stors
Construct ing
Ġcd m
ĠClass ical
satisfi ability
Ġcalcul ating
Ġ`] `:
ĠNon trivial
ĠNon deterministic
Ġhip a
ĠAr lt
Ġ`* .
Ġhxu v
Ġcounter examples
'âĪ¥ `.
alan cing
Ġmis c
Ġmis cellaneous
ĠTh ird
ĠâĶĤ "
Bo chner
Bo olRing
Ġnz a
Ġins ist
ĠEvalu ating
Ġsp uri
Ġ}} },
âĮīâĤĬ `
replac ing
replac ed
hÏĢ Î´
âŁ©| âŁ¨_,
exist ence
Ġenumer able
ĠâĨĳ(( -
Ġdecomp oses
counter parts
counter examples
Ġcollect ing
Ġyour self
Ġqpf s
subtraction s
Ġbranch ing
ati y
sp lice
Ġax io
)? ,
comput ability
Ġcomplet ing
Ġconf usion
ĠBrow n
_) (
cofinal ity
No tice
Ġliter al
Ġdy eq
ĠNeg ative
MM A
onenti ate
Ġspe lled
Ġprom otes
Ġexplain ing
Ġeffect s
Ġmp info
ĠPri mes
Ġcomplic ation
orizont ally
'`: =
}\ "
Ġ(âĬĶ )`
Ġfx u
Ġfx v
Ġfx clo
Ġbifunctor s
Ġear liest
Ã¶n ig
Ġ`â¨Ĩ `
Ġ`â¨Ĩ `-
Ġdevelop ments
Ġ`â Ļ¯`:
ĠVersion s
ĠDa an
pid ly
Ġ`âĨ ¾
ĠBundle s
Ġhpm n
ĠUniform ity
sample s
ĠHy p
)âģº ))
87 23
Ġ(/ ))
subterminal s
ĠFi eld
hff x
Ġformer ly
Ġlot s
Ġhap c
At tribute
ĠPr inciple
hxz ne
alindro mes
assert v
Ġ(`( Â¬
Ġ(`( %%
Ġplay ing
Ġplay ed
Ġregard less
14 15
ĠMono ids
ĠCho ice
ĠDiv iding
Ġenco uraged
Ġneighbor ing
scri pts
Ġâĭ¯ ]
Ġaugment ation
decess or
Ġupgrade s
General ise
Ġdiffe os
Ġ`âĬĶ `-
Ġtreat ment
Trans lating
Ġann ihil
acc ording
Ġmix ing
Ġreport ed
Ġdeci mal
ĠExtract s
Ġ`âĪ«âģ» `
Ġcat ch
Ġhdf ma
combinator ial
Le besgue
ake st
Ġintr insic
ĠPar sing
ĠPar ses
ĠPost compose
Ġrepresentable s
Equ ations
eli med
ĠhÎ· n
ĠSp rague
hyper plane
Ġplac ing
Qu iv
Ġ`âĨĴ *
Ġ`âĨĴ +*
Ġ---- âĨĴ
$\ |
}^{ \
ĠhÏķ tx
ĠFunction al
uristic s
Ġinvolution s
Ġadjust ing
197 2
)= \
Most ly
global ize
contr ary
ĠCy cle
ĠHu a
Ġnear by
ĠConstru ctive
ĠInteg er
approximation s
Ġstudy ing
Multi variate
Multi plying
cell s
Ġmention ing
ĠMost ly
ĠLam bda
Ġunderst ands
Ġ`â¨ħ `.
Ġ`â¨ħ `-
Ġconnect s
Ġupd ating
Ġ`âī¥ `.
Ġwa it
ĠRot ation
ĠRot ate
ĠRem oving
ĠCast s
ĠDepend encies
18 28
Ġ{âĪŀ} ),
ĠSatis fy
Ġkf O
ĠDis criminant
measM g
Ġexhibit ing
prom oted
Ġoe pr
Ġ((âĬ Ĥ)
Ġ((âĬ ĵ)
respe ctive
Ġ`âĨ¥ (
>>= )
,( >>=),
,_ âŁ©)
inher its
Ġhbot b
ĠStr ongly
Ġ`(+ )`.
ðĿĴŁ áµĴ
Ġepsilon s
Ġunderstand ing
-( âĨĳ
CL AR
Ch inese
Equivalen ce
Rel ates
fw d
gu ide
hsu v
ĠRo han
ĠRo ots
Ġrefin es
Ġrecover ed
Ġky O
Ġ\" {
âŁ¨âŁ¨âŁ¨ âŁ©âŁ©,
Ġimprove ments
200 8
Ġ`= `
Ġfig uring
Ġ------------------ --
Ġ(![ ]
mathe matically
Ġdatatype s
ĠâĢ¦ ,
Ġ"? ")?
âĢĸ )
ĠRepeated ly
ĠhCF k
Ġintention al
commen surator
ĠGo ing
Ġjump s
Ġkill s
ĠVan dermonde
Ġrelax ed
Ġques tions
Ġcapture s
Ġeli de
Ġwarning s
ĠAuto mata
ĠKol mogorov
Ġprepend s
Ġpossi bility
ĠIHl r
ĠOutput s
ĠExp onentiation
ĠEmb eds
Ġ(âŁ¨âŁ©|âŁ¨âŁ¨ âŁ©âŁ©),
AN GER
tu be
ĠCoun ting
Ġ+âĪŀ) $
ĠSuc ceed
ĠPer iodic
ĠPer fection
Ġkx O
Ġol de
hsx ps
Ġindent ation
Ġweaken ed
Ġascription s
ĠShort cut
Ġsubtle ty
Se par
rus kal
Ġ(> )]
ani tize
Ġine fficient
ĠâŁ« _
Ġans wers
Ġou ght
ĠEl len
ĠElim ination
Ġ"< -
ĠAnalo gue
Ġflexi bility
ĠTerm ination
ĠCall um
ĠFa milies
avo iding
Coercion s
ĠApplic ative
ĠOrdinal s
Ber noulli
Rem ove
Ġhno et
Ġ`... _
Ġrecogn ized
Ġ------ -
Ġ------ --
Ġintert wine
Ġ(âŁ¨âŁ©|âŁ¨ âŁ©);
ĠhJl z
precise ly
Ġsilen ce
effe ctively
Ġingredi ents
Cre ates
He ine
SS ING
pur pose
Ġfall back
ĠInd ic
ĠGl uing
ĠDE CLAR
--- :
Ġ`(â¨ ģ
Ġmess y
Ġ`âĬĹ âī«`
Ġprobab ilities
Cont rol
Ġbenef its
Ġvirt ual
Lift s
`]( ./
dv r
Äĥ reanu
Ġ`% `
Ġrender ed
Ġpay off
ĠwU x
conc isely
ĠMit ta
ĠMit chell
ĠIr rational
neighbourho od
neighbourho ods
ĠPair wise
Ġunpro vability
ĠEss ential
Ġprepar ation
Ġdefer red
ĠUFD s
Ġ": ")
ĠFormat s
ĠProvi ded
ĠProvi des
ĠFunctorial ity
Attemp t
Ġ``((%% (
411 8723
Bra hmag
Gr undy
`âĬ¤ `.
nice ly
reason s
Ġ_| âŁ¨_,
complet able
ĠMan uel
Ġdemonstr ates
ĠSu mming
ĠFinit ary
ĠDes pite
Ġhbe low
Ġ"{ "
Ġ---------- ----
Ġ`(âī¤ )`
Ġdisco uraged
ĠAng le
ĠRemark s
Ġpertain ing
blur bs
Ġ`âĬķ `
Ġcorecur sion
ĠAttemp ts
ĠDiffer ent
ĠTrunc ated
ĠPlac ing
,[ ]âŁ©
Cl Ã©ment
Sh ort
belong s
sti ll
Ġ(âī º
Ġ(âīĪ ))
Ġstic k
Ġfre qu
Ġinstru ction
ĠMul tiset
ĠMas deu
Ġcoin ciding
Ġcoerc ivity
ĠCent ral
ĠCover ing
ĠSpe lier
ĠNull stellensatz
Ġdoub ling
minimi zer
Recur sively
Ġoverri des
Ġquad rilater
Forget ful
Ġ`âĪ§ `
ĠUniv ersal
Ġincrement ally
Ġ[(<*> )]
MENT S
Ġ-------------------------- -
ATIO NS
Ġfrag ment
,.. ,
Normal ises
Upd ate
Work ing
mil gram
vis able
Ġfri ends
Ġ[... ]
Ġ`âĢĸ `
Ġmer ged
ĠRequi res
Ġdraw back
Ġthres hold
ĠIm mediate
never theless
Ġproto typical
ĠHome omorphism
Ġpreshe aved
Ġencapsu lating
Ġstrugg les
Ġ`(... )`
Ġdiscrimin ants
ĠExec ute
ĠDown ward
Exp onentiate
Ġtelesco ping
Ġsynthesis ed
Ġswit ches
Cast ing
Der ivative
Dri rrfl
Mes halk
Rob in
Ruf fini
Soph ie
Yama moto
`âĬĵ :
fec toid
gou vea
kcon rad
lug Äĥreanu
oÅ Ľ
ĠÅģ oÅĽ
Ġ:-------- ---:
Ġscal ings
Ġsil ly
Ġfoc uses
tigu ous
Ġ`âĢł `:
heter ogeneous
acuous ly
desig nating
Ġinfor mative
Ġineffect ual
Ġisol ate
Ġgath ers
Ġexam ine
ĠTrop ical
ĠAsy mpto
ĠCes aro
ĠCand ales
ĠCÄĥ lugÄĥreanu
ĠFru tos
Ġutil ity
Ġurysohn s
Ġsubdis ks
ĠGoryache v
Ġunintention ally
ĠEug ster
ĠEquiv ariant
Ġhfrn k
socia tivity
silen ce
Ġobservable s
ĠDav is
ĠDyb jer
Ġsummari ze
Ġneck lace
Ġarbit ary
ĠInÃ© s
illings ley
Ġ[(>=> )]
ĠGouvÃ ªa
ĠMarÃŃ a
rdÅĳ s
Ġspuri ous
ĠDECLAR ATIONS
Brahmag upta
Ġquadrilater al
Meshalk in
! ;
! }
" \
" `,
" ])
$ -
$ }\
' /
' ))).
' âŁ©âŁ©âŁ©,
' âŁ¦-
( _,
( âĪĳ
( âĪļ
( âĪĺ)
) \
) âŁ¦
) |)
) âŁ©âŁ©)
) *âĪ¥
) âĢł
) âŁ«,
* ;
* _
* ...
+ ))
+ },
- `,
/ ,
/ <
0 3
0 5
0 8
0 23
1 80
2 17
2 65
5 2
6 39
7 4
7 6
8 68
9 5
9 000
= )
= {
> ,
? ).
A P
A d
B M
B it
B ilinear
B ru
B áµĢ
B inary
B esicovitch
B OT
B cbl
B arry
C m
C n
C lo
C ol
C oun
C ech
C ardinal
C urrent
C ertain
D ually
D ash
D ANGER
E T
E ss
E valuation
F s
F ound
F Î³
F ilter
F unctions
F aul
F remlin
F ederer
G G
G CD
G auss
G iry
H A
H F
H h
H ab
H diff
H cont
H next
H ilt
H df
H cf
H ey
I R
I ff
I nd
I Î³
I ME
I MP
J ust
K u
K lt
K ÏĨ
K star
K áµ¢
K rein
L F
L r
L ist
L ifting
M et
M ink
M atri
M ean
M orphisms
N i
N s
N um
N ull
O F
O ICE
O ption
O BOT
P Q
P m
P Î±
P sup
P inf
P rob
P ythagorean
R F
R ich
R áµ¢
R adon
R PR
R ule
R OBOT
S tr
S ol
S mooth
S sep
S imon
S ection
S yl
S esquilinear
S alem
T Y
T urns
T Pi
T raversable
T sirelson
T ucker
U Îµ
U sers
V A
V G
V y
W V
W r
W hat
W illiams
X i
X l
X r
X â±¼
Y aÃ«l
Z orn
] |
] })
] ^[
_ _
_ ],
_ âŁ©);
` *
` )`
` Â¬
` âŁ«
` âŁª
` !)
` +`
` âĭĤ
` |`
a J
a j
a q
a w
a led
b I
b m
b z
b log
b ay
b ud
b irkhoff
c ne
c ord
c cess
c ru
c andidate
c raft
d a
d j
d k
d r
d ropped
e E
e F
e of
e mem
e ad
e omorphism
e ys
e ties
e asi
e constructor
e asy
e fficients
f ab
f set
f ok
f bd
f olds
f âĤĸ
f remlin
f ltr
f Gn
g E
g F
g iry
g rouped
g unter
h on
h symm
h ty
h hx
h sur
h two
h conj
h nil
h convex
h coprime
h dom
h dec
h lip
h key
h Of
h ðĿĵķ
h unif
h cyc
i B
i V
i X
i y
i as
i ic
i pos
i ha
i man
i maginary
j ci
j ority
j acobi
j mc
j ardine
k f
k not
k si
l u
l ti
l inv
l Î¼
l ong
l subtype
l uncurry
l acks
l rs
m H
m int
m cond
m find
m issible
m otzkin
n H
n R
n v
n equiv
n succ
n ob
n ig
n min
n ify
n orth
n hbd
n buckets
o O
o is
o pp
o jci
p k
p one
p tive
p ds
p conts
p ulled
q pp
q âĦ¤
q df
r ab
r ass
r congr
r ased
r ves
r ls
r aries
r ender
r hism
s pe
s pi
s bo
s meas
s ifies
s parkling
t N
t R
t g
t le
t mp
t eq
t ne
t ho
t ur
t pos
t â±¼
t ulip
u w
u an
u ction
u ffi
u ences
u args
u ched
u XY
u XZ
v p
v ents
v áµ¢
v anced
v Dash
w v
w man
w ins
w ilsons
x le
x hs
x â±¼
y O
y sq
y ting
y clic
y ev
z r
z ur
{ '::
| .
| )).
| )))
| âŁ¨âŁ¨âŁ¨
} /
} ))âŁ©
} -\
¡ ys
§ ois
ª )
Ã §ois
Å ¡ys
â ¬Ŀ
Ġ ith
Ġ med
Ġ '.
Ġ que
Ġ ]]
Ġ veq
Ġ áĺģX
Ġ enter
Ġ ðŁ
ģ _
İ ī
in fl
in habit
in dependence
Ġ( ))),
Ġ( :=
Ġâ ģ
le val
Ġa id
Ġa part
Ġa head
Ġa ges
Ġa ccur
Ġa áµı
Ġa eqb
Ġa veraging
Ġh iff
Ġh po
Ġh ype
Ġh em
Ġh ir
Ġh cases
Ġh lift
Ġh univ
Ġh eld
Ġh basis
Ġh fintype
Ġh cancel
Ġh support
Ġh degree
Ġh coeff
Ġh its
Ġh ry
Ġh erase
Ġh Sup
Ġh quot
Ġh ifs
Ġh ink
Ġh nonzero
Ġh key
Ġh Of
Ġh digit
Ġh contr
Ġh ook
Ġs I
Ġs J
Ġs M
Ġs k
Ġs ma
Ġs of
Ġs fin
Ġs pos
Ġs card
Ġs sup
Ġs ound
Ġs cf
Ġs anitize
er an
er equ
er ate
er pin
or ary
or ies
or ization
or normal
Ġt U
Ġt ne
Ġt ight
Ġt âĤĻ
Ġt ick
Ġt weak
Ġt bs
Ġt bc
Ġt ulip
ma de
ma cb
ma tiyasevic
ma zur
is or
Ġf F
Ġf J
Ġf mem
Ġf gh
Ġf Î±
Ġf val
Ġf sum
Ġf subset
Ġf air
Ġf expr
Ġf Î³
Ġf als
Ġf bd
Ġf itting
Ġf ont
Ġf olded
Ġf ifth
en le
en gel
en coded
al ytic
re ma
re ly
re cted
re composition
re fer
re lying
re presents
re formul
re moving
re arr
re member
re ferred
re versed
re yd
mp name
mp expr
ti zed
Ġc Ioo
Ġc âĤĻ
Ġc ub
Ġc mn
Ġc anceled
se y
se aled
Ġ{ [
Ġb B
Ġb O
Ġb ro
Ġb un
Ġb ring
Ġb factor
Ġb other
Ġb rev
Ġb ayes
Ġb irthdays
Ġb alancing
of er
Ġ` ::
Ġ` âī«
Ġ` '`,
Ġ` âĭĨ
Ġ` âĢ¹
Ġ` âŁ¯`
su med
su itable
me tri
me tries
at on
Ġ_ ])
Ġ_ })
Ġ_ ",
Ġ_ ::
Ġx dom
Ġx Îµpos
Ġr cs
Ġr ough
Ġr Rpos
Ġr enders
co ext
co diag
co very
co equalizes
co oler
he i
he p
he t
he v
he sis
he xp
he aded
he avy
Ġn M
Ġn lo
Ġn neg
Ġn dvd
Ġn gt
Ġn triv
Ġn prf
ro e
ro ck
ĠâĨ ł
Ġp su
Ġp bo
Ġp áµ¢
Ġp fs
Ġp ushforwards
Ġp umping
Ġe E
Ġe F
Ġe T
Ġe i
Ġe Î±
Ġe ball
Ġe ckmann
Ġe leven
an ame
an ations
an asi
an Ã§ois
ar ush
ar ams
ar jan
ul ation
ul haber
un inst
un freezing
un reachable
un necessary
un folds
ac ross
ac tice
ac complished
de m
de duced
de cidability
st anti
st ating
ĠÎ± d
ĠÎ± áµ¢
Ġi q
Ġi mm
Ġi âĤĸ
Ġi mag
Ġi children
Ġ= >
mul ative
mul ates
ve ster
ve lling
Ġin ver
Ġin ad
Ġin hd
Ġin formally
Ġin jects
Ġin consistent
eq z
ri z
ri ct
as m
as con
as ympto
ab lem
ab ase
ab ian
ab bre
map âĤĲ
âŁ ¹
eg nob
Ġis os
to ver
to kens
to uched
Ġl S
Ġl h
Ġl z
Ġl mk
Ġl len
Ġl flip
Ġl abelling
Ġl ands
Ġl YX
Ġl ZX
iv ably
Ġ} })
Ġ} âŁ©âŁ©,
Ġ} )],
Ġ} ))âŁ©
Ġ} }"
om ents
âŁ© :
âŁ© :=
pp A
pp B
pp conts
Ġg j
Ġg k
Ġg mul
Ġg meas
Ġg ithub
Ġg xeq
Ġg adget
Ġ- :
Ġ- âŁ¨
Ġ- âĪĳ
Ġ- âĪŀ`
Ġ- âĪŀ,
Ġex emp
Ġw j
Ġw ar
Ġw th
Ġw el
Ġw meas
Ġw á¶ľ
Ġw ider
Ġw ild
Ġw orry
Ġw idth
ce les
ce los
ce ivably
con verse
con sequences
iff mp
po set
po lation
Ġm B
Ġm N
Ġm lt
Ġm utable
Ġm try
Ġm âĤĻ
Ġm erg
ĠR E
ĠR s
ĠR y
ĠR es
ĠR ob
ĠR ank
ĠR gt
ĠR ub
ĠR ow
ĠR ays
ĠR iehl
ĠR olle
ĠR educe
ĠR udin
Ġd S
Ġd ra
Ġd inv
Ġd xy
Ġd tm
ĠâŁ¨ âŁ©).
add y
ic Î±
Ġre comm
Ġre ci
Ġre ject
Ġre insert
Ġre factors
Ġre param
Ġre sort
Ġre version
Ġre color
Ġre pack
Ġre construction
Ġre cipro
Ġre cap
zer bay
ed y
/- "
act or
Ġy w
Ġy ac
Ġy ak
Ġy âĤĺ
Ġy cs
Ġy âĤĸ
Ġy â±¼
ĠT C
ĠT e
ĠT auto
ĠT ietze
ĠT ernary
ĠT HE
ĠT orsors
ĠT ucker
ĠT arjan
id al
ist rass
ist rict
Î» v
Î» al
Î» ys
us able
sub y
sub sequence
sub covers
sub graphs
du ring
comp n
comp ute
comp atibility
Ġsu ggs
Ġan ticip
Ġto ler
Ġto poses
ĠM K
ĠM em
ĠM orphism
ĠM ant
ĠM fg
ĠM erge
ĠM aximal
Ġcon tin
Ġcon served
Ġcon sequent
Ġcon ceivably
Ġco pe
Ġco up
Ġco complex
Ġco presheaf
Ġco homologie
Ġth rows
tive ly
li ation
)) *
)) âŁ©âŁ©,
)) âĪ¥)
)) ))),
)) ^(
)) âŁ©âŁ©âŁ©
op aque
ĠÎ² M
ĠÎ» j
ĠÎ» o
ĠÎ» ab
Ġby pass
ĠA list
ĠA pur
ĠA ugment
ĠA zerbay
Ġ-/ "
Ġ-/ ]
tr ary
Ġ* .
Ġ* }
Ġ* },
Ġde co
Ġde ad
Ġde ca
Ġde serves
Ġde dic
Ġde letion
Ġde mand
Ġde sp
Ġde duplic
Ġon line
], ![
Ġha e
Ġha m
Ġha st
Ġha pb
qu ad
qu alified
up on
up cast
up grade
up arams
ĠI X
ĠI k
ĠI Î¦
ĠI uniq
ĠI Î¨
ĠI van
ĠI cf
ĠI gn
Ġv c
Ġv f
Ġv l
Ġv r
Ġv lcm
Ġv â±¼
Ġv yx
Ġv acuously
em s
Ġ$ $\
ex map
ex changing
ĠC I
ĠC r
ĠC mem
ĠC áµĢ
ĠC á´´
ĠC enter
ĠC urrent
Ġâī¤ /<
ut ative
Ġ+ ,
Ġ+ âĪŀ,
so ever
so urces
ĠS ti
ĠS eg
ĠS ad
ĠS ends
ĠS ay
ĠS lope
ĠS ending
ĠS yn
ĠS chemes
ĠS IA
ĠS IMP
ĠF x
ĠF rec
ĠF Ë£
ĠF sh
ĠF ek
ĠF good
ĠF ederer
ĠF lipping
ĠF reyd
ĠF abian
Ġ1 99
ne ct
ne ither
Ġu e
Ġu as
Ġu Î²
Ġu bs
Ġu gs
Ġu YW
Ġu ZW
Ġu borrow
Ġu suppx
right âĤĹáµ¢
ĠX áµĴáµĸ
Ġsub section
Ġsub basis
Ġsub seq
Ġsub term
Ġsub intervals
Ġsub script
Ġsub problems
âĪ ª
comm it
comm ent
ine j
ĠG T
ĠG f
ĠG FG
ĠG elfand
ĠG áµĥáµĩ
ĠP at
ĠP op
ĠP ure
ĠP sup
ĠP unique
ĠP rat
ĠP ick
ĠP heq
ĠP arts
ĠP arity
ĠP lease
ĠP AT
ĠP teq
Ġj j
Ġj l
Ġj pos
Ġk sum
Ġun box
Ġun flip
Ġun sound
Ġun ple
Ġun clear
Ġun reachable
Ġun elide
Ġun wra
Ġun usual
Ġun wrap
Ġun interesting
Ġun oriented
Ġun satisfiability
Ġun touched
Ġle d
Ġle y
Ġle ak
Ġle Î´
Ġle gal
Ġle dx
Ġo J
Ġo w
Ġo map
Ġo á¶ľ
ĠE X
ĠE r
ĠE metric
ĠE ventually
ĠE isen
ĠE ckmann
ĠE rdÅĳs
Ġhx ab
Ġhx addy
Ġhx suby
Ġpro ps
Ġpro cessing
Ġpro cesses
cc cr
ĠH B
ĠH E
ĠH F
ĠH V
ĠH ab
ĠH id
ĠH pos
ĠH sq
ĠH Icc
ĠH Îµ
ĠH fa
ĠH alf
ĠH taylor
ĠH OL
ĠH andles
ĠH wx
ĠH unter
ĠH igman
pre ses
pre vious
pre cedence
Ġfor wards
Ġfor malizing
Ġfor each
Ġfor malizes
.. /
.. âĪŀ]
inv ite
ĠL L
ĠL M
ĠL and
ĠL oo
ĠL ast
ĠL áµĴáµĪ
ĠL ink
ĠL ittle
ĠL ength
ĠL IA
ĠL ubell
Î± s
Î± áµĴáµĸ
ch ir
ch ke
ch unk
open ing
Ġhas n
limit ing
ctive s
il st
ad ata
ad ically
ad ox
ad vice
Ġz m
Ġz ulip
top M
ial ity
ĠÎ¹ N
ĠÎ¹ áµĴáµĪ
ho ds
ĠK N
ĠK n
ĠK Î²
ĠK ÏĨ
ĠK Åĳ
ĠK Ã¶nig
ĠY et
th us
th ird
Ġ2 4
Ġ2 56
non dependent
sum ura
âĤĢ âģ°
let s
ĠÎ¼ A
ĠÎ¼ Klt
ca re
hf P
hf v
hf Î¼
hf loor
Ġhf e
Ġhf def
Ġhf top
Ġhf bot
Ġhf cont
Ġhf Îµ
Ġhf disj
Ġhf rs
ĠN K
ĠN Q
ĠN el
ĠN áµĴáµĪ
ĠN NF
ĠN áµĢ
ĠN á´´
ĠN aka
ĠN ilpotent
ĠN ested
ĠN aw
Ġcomp ens
Ġcomp ressed
pl ax
el de
âĨ Ķ)
pr ising
pr inciple
pr actice
âŁ¨ âŁ©
âŁ¨ âĨĳ
âŁ¨ âĢ¹
Ġ(( âĭĥ
Ġ(( âĪĳ'
Ġ(( âĨĶ)
ol de
Ġma gn
Ġma jority
ĠB E
ĠB ur
ĠB ak
ĠB áµ¢
ĠB ilinear
ĠB run
ĠB á´´
ĠB Ã©zout
ĠB alanced
ĠB inet
ĠB olzano
Ġ_) `,
Ġ_) },
Ġ_) âŁ©).
clo s
iso F
Ġfunction ality
Ġext rema
Ġq f
Ġq t
Ġq âĤĻ
continuous ly
Ġnat tr
ir ac
Ġ^ ^
subset eq
ĠâĢ ²
Ġmem U
Î¼ d
Î¼ Î½
âĪ¥ (
âĪ¥ âŁ©
âĪ¥ },
âĪ¥ âĪ¥âĤĬ
âĪ¥ `;
Ġpre transitive
Ġpre ceded
ĠâĢ¢ `
str ength
Ġnot ed
Ġ.. ..
Ġ.. },
Ġhs T
Ġhs mooth
diff eomorphism
ĠV on
ĠV áµĴáµĸ
ĠV olume
ĠV cls
ĠV OICE
ĠV elde
ĠJ acobi
pri mality
ha pb
im ise
ure d
supp lied
ant ation
inter nally
Ġhy C
cast eran
len t
Ġob eys
stri ctive
ĠD on
ĠD ually
ĠD cov
ĠD Î¦
ĠD esc
ĠD tc
ĠD etails
ĠD irac
local min
ĠâĪ¥ `).
Ġhb I
Ġhb V
Ġhb W
Ġhb ase
Ġhb all
âģ» }
âģ» `,
ĠâĪĥ {
Ġlo se
Ġlo ca
Ġwe akest
rib e
ci ence
tain s
lement ing
ĠÎ³ Î²
intro duced
nor mable
Ġhp ne
Ġhp wo
Ġhp bar
ĠU ll
ĠU sual
Ġhi T
Ġhi i
Ġhi Î¼
Ġhi xs
ag gres
') âŁ¯
ces sively
ces aro
Ġtr ise
Ġ" ],
Ġ" âĪĢ
Ġ" ".
Ġ" ->
Ġ" /"
Ġ" âĨĶ
Ġmeasure d
ind ic
af ety
af finity
)] âŁ©,
)] âĨĴ
)] |}
Ġlet ters
Ġst ability
Ġst utter
Ġst ones
Ġdefin tion
Ġ(âĪ ®
Ġen comp
Ġen ded
Ġen count
Ġen large
ĠW right
ĠW alter
ĠW allis
ĠW ojci
Ġne at
cons ist
cons ists
Ġht k
Ġht symm
Ġht sup
Ġht clos
Ġhg G
Ġhg top
Ġhg bot
Ġhg HK
span d
span áµĴáµĸ
dex ists
we igh
Ġhn S
Ġhn v
Ġhn pow
Ġhn Î¼
Ġhn ps
Ġhn qp
Ġpar ents
alen ce
In stance
In dex
In Comp
In formally
In voking
In stanti
Ġinv s
cancel led
ĠÎµ X
ĠÎµ Y
ĠÎµ s
ĠÎµ y
Ġ... ).
Ġ... âŁ©
Ġ... ]`.
Ġinter change
Ġinter sected
Ġinter polation
ÏĢ Y
Ġcomm it
'. _
Ġ(â ģħ
Ġnon Z
Ġnon singular
Ġnon adjacent
Ġnon standard
Ġnon sense
Ġnon deterministic
Ġnon degeneracy
ĠÎł x
ĠZ mono
ĠZ ip
ĠZ áµ¢
ĠZ aanen
'' ']
'' âŁ¯)
per formed
per haps
erenti ally
Ġid v
hx F
hx J
back wards
Ġhc k
Ġhc ri
Ġhc ab
Ġhc pd
Ġhc uv
Ġhc nemp
Ġar tific
Ġar rays
subtype s
Ġsome how
Ġlt ll
Ġmon ot
fact s
Ġleft hand
-- |
eval x
eval uations
restrict ing
restrict âĤĹ
ie udon
]) -/
]) âŁ©âŁ©
mon omorphisms
am ings
am sey
Ġâĭ ģ_
Ġhm zero
Ġhm by
Ġch d
ĠâĨĳ "
Ġdesc ri
cd ot
Ġ_âŁ©, _âŁ©);
Ġmulti dimensional
ps ilon
onal ity
Ġ`( #
Ġ`( *
Ġ`( âģ»
Ġ`( âĪı
Ġ`( âĬ¥,
Ġ`( _)
Ġ`( âĪĳ'
Ġ`( âĬ¤,
Ġ`( âĬĶ
Re port
Re interpret
Re ader
Re indexing
ĠQ A
ĠQ âĤĸ
)` ``
Ġgroup ing
ĠâĪĤ ((
sq F
ĠÎ´ xle
Ġover flow
Ġover approximation
Ġover lapping
io ds
distrib ute
distrib utivity
multi plying
exp onentially
ĠIn vertible
Ġclass Name
Ġreal izations
Ġfa ke
Ïĥ b
âĪŀ ÃĹ
âĪŀ )),
âĪŀ ))),
sheaf ed
cle an
Ġad opt
cre ating
Ġneg ligible
char s
ank fully
Ġih Î±
Ġhr J
Ġhr U
Ġhr c
Ġhr v
Ġhr z
Ġhr Îµ
Îµ s
Ġsem ilattices
Ġder angement
Ġbas h
âŁ©âŁ© `
âŁ©âŁ© |
âŁ©âŁ© `.
âŁ©âŁ© )).
Ġpi le
domain s
âģ ´
ĠâĬ¤ "
ĠâĬ¤ âŁ©,
ĠâĬ¤ },
ĠâĬ¤ )`
gen b
'] },
'] `;
Ġopen ed
ĠâŁ¨âŁ¨ _|
Ġqu alified
Ġno vel
conj uncts
Ġtrans verse
hp a
hp b
hp k
hp t
hp Î±
Ġ(- ((
Ġ(- âĪĳ
try ing
))) ^
))) âŁ©,
))) âģ»
ĠâŁ¨_, âŁ¨
cent red
anti podal
Ġ[] }
nil radical
Ġtri gg
Ġhz R
Ġhz e
Ġhz f
Ġhz i
Ġhz q
Ġhz fx
Ġhz Vy
Ġhu card
gener ates
Ġmax im
Ġbo ils
Ġmin ima
Ġ\ |=
ht U
ht b
ht g
ht l
ĠâĬ¥ ;
ĠâĬ¥ ))
ĠâĬ¥ )`
ĠâĬ¥ âŁ©)
ĠâĬ¥ })
ĠâĬ¥ `),
Ġhab k
Ġhab z
Ġhab ove
fle ctive
Ġpos b
hb g
hb l
hb x
hb ase
hb ad
hy d
Ġ_âŁ© ]
Ġ_âŁ© ))
Ġ_âŁ© ],
Ġ_âŁ© `,
Ġ_âŁ© )),
Ġlimit ation
gra ding
Ġhk h
Ġhk o
Ġhk q
Ġhk ltp
star s
Ġthere by
hn b
hn z
Ġclosed ness
dup uis
ĠâĪŀ .
pect s
hc ab
hc pd
free k
free ze
Ġhd q
Ġhd om
bo wtie
dis k
dis covery
hr x
Î´ pos
Ġarg ued
connected ness
Ġhl H
Ġhl b
Ġhl q
ĠWe dderburn
adj acency
sin es
}) `.
}) \,
Ġperm uted
Ġer asing
tition s
"] ]
ĠIH s
ĠIH ll
Ġhq dn
Ġhe ÏĢ
Ġhe art
Ġhe avy
We istrass
Ġ3 0
Ġ3 2
Ġ3 00
ĠÎ½ pos
Ġlie u
Ġdegree wise
Ġhv c
Ġhv l
Ġhv m
Ġhv o
option ally
Ġmv pz
'` ),
áµ¥ nil
00 73
rat ing
Inter pret
Ġout right
Ġout line
Ġvari ety
Ġvari eties
Ġanti period
Ġanti holomorphic
ĠO re
ĠO plax
wh atever
natural s
Ġdis continu
'} ",
Ġfr âĤĻ
Ġimp oses
Ġimp roper
coprime s
ĠâĪħ },
Ġcompact a
hi u
hi x
âĢ Ļ
Ġbin ds
Ġsym metrify
multilinear ity
Ġsur prising
iter ations
Ġ`` [`
âĤĺ B
Ġ(âī¤ )âŁ©
ug get
Ġ_)) âŁ©âŁ©
Ġ_)) )))
Ġ_)) ))))
Ġ. -/
ĠSort ing
ĠâĨĳ( {
)âŁ© ;
ĠRe f
ĠRe index
ĠRe factor
ĠRe peat
ĠRe balance
ĠRe interpreting
Ġnumber ing
adjoin tify
Ġadj usted
hm c
Ġir red
Ġsequ encing
Ġ`[ âĪĢ
Ġ(âĨ ¾
Ġ(âĨ ¿
lintegral âĤĹ
âŁ« ),
âŁ« ))
Ġsingle d
Ġiso G
ĠCon cept
ĠCon cave
ĠCon volution
ĠCon tains
cess ary
ĠðĿĵ ļ
ĠðĿĵ ŀ
hd n
sem idirect
ow ksi
Ġsee ded
ĠhÎ¼ sc
respon ding
last B
âģĨ )^[
ĠâŁª -
Ġconj unctive
:: _),
Ġsimple st
Ġhw u
Ġhw w
bers hip
ĠâŁ¨( ((
ĠâŁ¨( âĬĶ
Ġcof actor
âĪ¥âĤĬ `
âĪ¥âĤĬ ),
âĪ¥âĤĬ `.
âĪ¥âĤĬ âģ»
Ġâĩĳ( @
Ġsepar ator
Ġsepar ability
ĠhU c
sqrt s
Ġiter ative
ĠhS A
ĠhS ne
âĪ¥) ],
âĪ¥) âĪ¥âĤĬ
arch im
Ġdefault ing
âŁ§ ',
âŁ§ )]
exact ness
qui re
Ġro ad
Ġ(âŁ¨ âŁ©
ĠÎ±áµĴáµĪ áµĴáµĪ
ĠhT S
Ġ[( _
Ġ[( âĬĩ
ĠhJ J
ĠhÎµ C
ĠhÎµ c
ĠhÎµ y
ĠhÎµ Î´
sign ificant
]âŁ© }
Ġmod ifiers
Ġ# _
pot entially
Ġper tur
Ġper iods
]} ]
ves ti
Ġcover age
Ġver ification
Ġver tically
Ġpositive s
Ġwork around
Ġdepend ents
ĠâĪŀ) :
Ġbdd A
ĠDe bug
ĠDe construct
abelian ize
ðĿĵ ĳ
ðĿĵ ļ
Ġ(âĪĥ (
ĠComp onent
ĠComp utes
ĠComp ared
ĠComp aring
rhs s
sh all
sh uffle
ĠComm uting
Ġ(< )âŁ©
pseudo edist
Ġsh ut
plicit ly
Î£ l
Ġmeta programming
orth ornormal
âĮ Ł
Comm utative
Ġcharacter isations
For mal
For malized
For mulation
commut ativity
ĠâĢ¹ âĪĢ
(( âŁ¨
(( _:
Ġcontinu es
Type classes
ĠhI P
ĠhI w
ĠhI maximal
cospan áµĴáµĸ
direct ory
Ġ`âĪ £
Ġ`âĪ ł
number ed
names p
ĠhC q
ĠCáµĴáµĸ áµĴáµĸ
Ġ}âŁ© ))
Ġic Î²
Ġac complished
Ġac quire
diagram s
Ġ(âĨĳ -
Ġhst f
tac s
monad s
hv m
Ġpb ED
ĠhK v
ĠMon omials
ĠMon roe
Ġâģħ âĬ¤,
Ġho st
Î¶ âĤļ
Ġpseudo edistance
general izing
Ġ(` âĬ¥
Ġinitial ized
)âĪ¥ `
Ġupdate ex
Ġ5 43
ĠhA t
ĠhA meas
Ġformal isation
ĠhF G
ĠhF i
Ġ(* )).
Ġ(* )))
Ġ(âĨĳ( âĪ¥
Ġ(âĨĳ( âĨĳ(
hq f
auto mated
Ġres id
Ġnonneg ate
ĠâĪ¥( -
ĠâĪ¥( âŁ¨
ĠâĪ¥( âĪı
ĠâĪ¥( -(âĨĳ
Ġhlt s
ĠhB t
Ġabelian ize
erc ise
most ly
dec ending
Ġmaximal ly
hz b
hz x
hz int
hz pos
]`. )
]`. ",
An alo
ĠhP L
ĠhP g
ĠhP root
âŁ¨âŁ¨ âĬ¥
âŁ¨âŁ¨ âĬ¤,
izer s
ns áµ¢
Ġtra il
Ġtra versing
Ġtra ditionally
Ġ`âĪ¥ `
ĠEx pan
ĠEx tracting
ĠEx ception
ĠEx plain
ĠEx ercise
next n
ĠPro cess
ĠPro ves
ĠPro duces
ĠPro viding
âĮĭ ).
âŁ¯ ).
âŁ¯ ),
âŁ¯ `,
âŁ¯ âŁ®
Ġâī¥ ,
Ġâī¥ />
covering s
ĠâĢ¹_âĢº ]
ĠâĢ¹_âĢº âŁ©,
prefix es
Ġ(*) `,
ĠTo ols
ĠĠĠĠĠĠĠĠĠĠĠĠĠĠĠĠĠĠĠĠĠĠĠĠĠĠĠĠĠĠĠĠ ĠĠĠĠĠĠĠĠĠĠĠĠĠĠĠĠĠĠĠĠ
ĠĠĠĠĠĠĠĠĠĠĠĠĠĠĠĠĠĠĠĠĠĠĠĠĠĠĠĠĠĠĠĠ ĠĠĠĠĠĠĠĠĠĠĠĠĠĠĠĠĠĠĠĠĠĠĠĠĠĠĠĠĠĠĠĠĠ
ĠhN K
ĠhN Îº
ĠhN xn
Ġ((( *)
ĠhÎ´ z
Ġconnected ness
Ġformat ting
Ġrecur sing
Ġrecur rences
Ġrecur sors
]] ).
ĠhM T
ĠhM d
abel s
ordinal s
Ġauto mated
sequ entially
): ((_:
Ġcore striction
special ize
Ġwhisker ings
!" **
Ġim b
Ġim xs
ĠhÏĨ m
Ġ[" ðŁ
ĠÏģ s
strong er
ĠSemi conjugate
Ġ`: `
âĭ ¯
Ïķ y
position s
Ġdifferenti ating
tan ley
Ġparame tr
Ġrot ations
hA K
hA N
hA s
Ġnames p
Ġhomogeneous ly
ĠâĮĬ âĪ¥
â¨ į
Ġinst s
Ġclose st
ĠAs sign
ĠAs sociativity
'`. -/
hI M
hI jac
grade s
hB N
hB int
Ġij k
Ġ(# _),
')) âŁ©
Order ing
*> `
color ed
][ ]
shrink s
Ġ(+ )`
ĠSpec ification
van ish
ĠInter action
ĠInter nally
ĠInter secting
Con verts
Ġed it
hF s
ĠhÏĥ inv
Ġseparated ness
Al ong
Ġ9 4
Ġ9 5
Ġ9 99
ĠScheme áµĴáµĸ
Ġafter ward
run ning
Ġâĩĳ |
Ġhac c
Ġhand ful
Ġcs A
20 12
20 16
Ġ' \
Ġcg rowth
Ġbijective ly
hw s
hw x
Ġhel ping
ĠUn i
ĠUn it
ĠUn less
ĠUn itary
ĠUn currying
âģº `.
âĬ¤ "
Comp lex
Comp ared
ĠPre p
ĠPre term
Ġfac ing
Ġfac ilitate
Ġpat ches
Ġgre edy
ĠhL E
ĠhL top
ĠhL HS
Ġ([ `(_
Ġgc fs
dot sm
Ġxy ab
Ġformul ating
imon y
hK K
*` /`
Ġhba x
post erior
sa id
ĠAl ong
radical s
ĠAPI s
|) $.
âĬ¥ "
hÎµ s
Ġhat Kstar
Ġ`(@ _
Ġcache s
Ġinfin itary
Ġhow s
lob ular
Ġpexpr s
19 42
19 35
25 4
25 80
ĠhX m
ĠhX p
Ġsqu aring
Ġlib raries
Ġacc ident
vection s
Ġwas n
Ġ`âĪĳ '_{
infer red
Ġsti tch
hP Q
Ex pression
Ex plicitly
}`. "
interpret ed
interpret ation
Ġatom istic
ĠSt u
ĠSt ab
ĠSt ereo
ĠSt alks
ĠSt reet
cer tain
Ġtac s
Ġ#( {
remove d
âŁ©)) âŁ©
Ġconsist ently
Ġam enable
sz emeredi
ĠFr anÃ§ois
Ġtransfer ing
ĠCo limits
ĠLocallyRingedSpace áµĴáµĸ
Ġhuv t
hM g
ĠhQ P
ĠhQ Îµ
Ġ(âī¥ )`
Ġ`_ )
Ġhnm cp
sch roeder
Ġrandom ized
Ġlb p
loc ator
âĭĨ )âģ»
squ ashed
ĠâŁ¨_ âŁ©âŁ©,
ĠâŁ¨_ âŁ©âŁ©âŁ©,
Ġparallel s
Ġsplitting s
ĠhÏĦ i
ĠhÏĦ n
âĮī `
Ġ`âī¤ `,
Ġoutput ting
hJ l
Ġoccur ence
Ġequi continuous
Ġequi ps
anal y
Ġwhat soever
Ġloop ing
ĠâĨ¥( {
Ġ_âŁ©âŁ© ))
Ġ_âŁ©âŁ© âŁ©;
ĠSheafedSpace s
Ġradical s
ĠSub set
ĠSub tract
ĠSub modules
ĠSub objects
ĠSub semigroups
`/` âī¥
Ġknow ing
Ġfan cy
ðĿĶ ®
ðĿĶ ½
[...]
