{"<s>":0,"<pad>":1,"</s>":2,"<unk>":3,"<mask>":4,"!":5,"\"":6,"#":7,"$":8,"%":9,"&":10,"'":11,"(":12,")":13,"*":14,"+":15,",":16,"-":17,".":18,"/":19,"0":20,"1":21,"2":22,"3":23,"4":24,"5":25,"6":26,"7":27,"8":28,"9":29,":":30,";":31,"<":32,"=":33,">":34,"?":35,"@":36,"A":37,"B":38,"C":39,"D":40,"E":41,"F":42,"G":43,"H":44,"I":45,"J":46,"K":47,"L":48,"M":49,"N":50,"O":51,"P":52,"Q":53,"R":54,"S":55,"T":56,"U":57,"V":58,"W":59,"X":60,"Y":61,"Z":62,"[":63,"\\":64,"]":65,"^":66,"_":67,"`":68,"a":69,"b":70,"c":71,"d":72,"e":73,"f":74,"g":75,"h":76,"i":77,"j":78,"k":79,"l":80,"m":81,"n":82,"o":83,"p":84,"q":85,"r":86,"s":87,"t":88,"u":89,"v":90,"w":91,"x":92,"y":93,"z":94,"{":95,"|":96,"}":97,"~":98,"¡":99,"¢":100,"£":101,"¤":102,"¥":103,"¦":104,"§":105,"¨":106,"©":107,"ª":108,"«":109,"¬":110,"®":111,"¯":112,"°":113,"±":114,"²":115,"³":116,"´":117,"µ":118,"¶":119,"·":120,"¸":121,"¹":122,"º":123,"»":124,"¼":125,"½":126,"¾":127,"¿":128,"À":129,"Á":130,"Â":131,"Ã":132,"Ä":133,"Å":134,"Æ":135,"Ç":136,"È":137,"É":138,"Ê":139,"Ë":140,"Ì":141,"Í":142,"Î":143,"Ï":144,"Ð":145,"Ñ":146,"Ò":147,"Ó":148,"Ô":149,"Õ":150,"Ö":151,"×":152,"Ø":153,"Ù":154,"Ú":155,"Û":156,"Ü":157,"Ý":158,"Þ":159,"ß":160,"à":161,"á":162,"â":163,"ã":164,"ä":165,"å":166,"æ":167,"ç":168,"è":169,"é":170,"ê":171,"ë":172,"ì":173,"í":174,"î":175,"ï":176,"ð":177,"ñ":178,"ò":179,"ó":180,"ô":181,"õ":182,"ö":183,"÷":184,"ø":185,"ù":186,"ú":187,"û":188,"ü":189,"ý":190,"þ":191,"ÿ":192,"Ā":193,"ā":194,"Ă":195,"ă":196,"Ą":197,"ą":198,"Ć":199,"ć":200,"Ĉ":201,"ĉ":202,"Ċ":203,"ċ":204,"Č":205,"č":206,"Ď":207,"ď":208,"Đ":209,"đ":210,"Ē":211,"ē":212,"Ĕ":213,"ĕ":214,"Ė":215,"ė":216,"Ę":217,"ę":218,"Ě":219,"ě":220,"Ĝ":221,"ĝ":222,"Ğ":223,"ğ":224,"Ġ":225,"ġ":226,"Ģ":227,"ģ":228,"Ĥ":229,"ĥ":230,"Ħ":231,"ħ":232,"Ĩ":233,"ĩ":234,"Ī":235,"ī":236,"Ĭ":237,"ĭ":238,"Į":239,"į":240,"İ":241,"ı":242,"Ĳ":243,"ĳ":244,"Ĵ":245,"ĵ":246,"Ķ":247,"ķ":248,"ĸ":249,"Ĺ":250,"ĺ":251,"Ļ":252,"ļ":253,"Ľ":254,"ľ":255,"Ŀ":256,"ŀ":257,"Ł":258,"ł":259,"Ń":260,"Ġ:":261,"in":262,"Ġ(":263,"ĠĠ":264,"Ġâ":265,"on":266,"le":267,"Ġa":268,"Ġh":269,"Ġs":270,"er":271,"or":272,"Ġt":273,"ma":274,"is":275,"ĠÎ":276,"Ġf":277,"Ġ:=":278,"en":279,"al":280,"re":281,"mp":282,"ti":283,"Ġc":284,"se":285,"Ġ[":286,"Ġ{":287,"âĤ":288,"Ġb":289,"it":290,"of":291,"Ġ`":292,"su":293,"me":294,"at":295,"Ġ_":296,"Ġx":297,"Ġr":298,"co":299,"he":300,"Ġn":301,"ro":302,"ĠâĨ":303,"ĠĠĠ":304,"Ġp":305,"Ġe":306,"an":307,"ar":308,"ul":309,"un":310,"ac":311,"de":312,"ĠâĪ":313,"imp":314,"st":315,"ĠÎ±":316,"Ġi":317,"Ġ=":318,"mul":319,"lem":320,"ve":321,"Ġin":322,"tion":323,"eq":324,"lemma":325,"ing":326,"ly":327,"if":328,"ri":329,"as":330,"ab":331,"map":332,"âŁ":333,"eg":334,"Ġis":335,"Ġthe":336,"ĠâĨĴ":337,"to":338,"Ġl":339,"dd":340,"ge":341,"iv":342,"ĠĠĠĠ":343,"Ġ}":344,"end":345,"om":346,").":347,"ĠâŁ":348,"able":349,"âŁ©":350,"ct":351,"pp":352,"Ġg":353,"Ġ-":354,"Ġex":355,"pe":356,"Ġw":357,"Ġâī":358,"ce":359,"con":360,"âĤĤ":361,"fin":362,"iff":363,"po":364,"âĤģ":365,"Ġm":366,"Ġof":367,"ĠR":368,"Ġd":369,"set":370,"ĠâŁ¨":371,"lo":372,"add":373,"Ġsimp":374,"Ġrw":375,"ic":376,"Ġre":377,"ot":378,"zer":379,"ed":380,"int":381,"one":382,"/-":383,"act":384,"mm":385,"ĠâĦ":386,"ype":387,"Ġy":388,"zero":389,"ĠT":390,"id":391,"et":392,"ist":393,"Î»":394,"ith":395,"@[":396,"us":397,"sub":398,"),":399,"du":400,"comp":401,"Ġsu":402,"mem":403,"lt":404,"Ġan":405,"fl":406,"Ġto":407,"ĠM":408,"Ġcon":409,"Ġco":410,"Ġth":411,"simp":412,"ent":413,"der":414,"ction":415,"tive":416,"li":417,"))":418,"op":419,"/--":420,"ĠÎ²":421,"ĠÎ»":422,"Ġ0":423,"Ġby":424,"gh":425,"ĠA":426,"pac":427,"Ġ-/":428,"tr":429,"Ġ},":430,"ght":431,"ono":432,"Ġ*":433,"Ġset":434,"pply":435,"pro":436,"Ġexact":437,"pace":438,"ðĿ":439,"ĠĠĠĠĠ":440,"Ġde":441,"Ġon":442,"asu":443,"],":444,"measu":445,"Ġha":446,"qu":447,"up":448,"ance":449,"ĠI":450,"Ġlemma":451,"hom":452,"Ġv":453,"em":454,"ft":455,"Ġ$":456,"ex":457,"ase":458,"ĠC":459,"ra":460,"ĠâĪĪ":461,"orm":462,"Ġâī¤":463,"mono":464,"left":465,"by":466,"egin":467,"`.":468,"ut":469,"Ġ+":470,"so":471,"ĠS":472,"ĠF":473,"Ġ1":474,"ne":475,"space":476,"ous":477,"tin":478,"ari":479,"Ġu":480,"ation":481,"tinu":482,"right":483,"ymm":484,"ĠX":485,"Ġwith":486,"coe":487,"tri":488,"Ġsub":489,"Ġint":490,"es":491,"Ġfin":492,"Ġrfl":493,"ver":494,"lim":495,"âŁ©,":496,"âĪ":497,"ĠâĨĲ":498,"Ġand":499,"tinuous":500,"equ":501,"comm":502,"begin":503,"ĠâĪĢ":504,"Ġmul":505,"ĠâĬ":506,"ine":507,"stance":508,"ion":509,"vari":510,"ory":511,"ĠG":512,"ring":513,"the":514,"ĠP":515,"je":516,"fi":517,"roup":518,"rable":519,"ĠType":520,"ort":521,"Ġj":522,"Ġk":523,"Ġun":524,"def":525,"fun":526,"ĠðĿ":527,"Ġ<":528,"symm":529,"inear":530,"Ġle":531,"order":532,"Ġo":533,"Ġhave":534,"ĠE":535,"Ġas":536,"mo":537,"Ġhx":538,"Ġonly":539,"ans":540,"Ġmap":541,"Ġpro":542,"variable":543,"smul":544,"orem":545,"neg":546,"cc":547,"ĠâĦķ":548,"Ġat":549,"nat":550,"has":551,"geb":552,"ĠH":553,"pre":554,"ser":555,"equiv":556,"ite":557,"Ġfor":558,"..":559,"instance":560,"ases":561,"gebra":562,"Ġ_,":563,"inv":564,"`,":565,"variables":566,"monoid":567,"ĠL":568,"fine":569,"Ġfun":570,"Î±":571,"ĠâĨĶ":572,"ch":573,"mage":574,"Ġfi":575,"cal":576,"open":577,"Ġhas":578,"his":579,"pow":580,"with":581,"measurable":582,"ĠâĦĿ":583,"ame":584,"ĠĠĠĠĠĠĠĠ":585,"group":586,"limit":587,"apply":588,"ty":589,"mk":590,"ctive":591,"val":592,"trans":593,"il":594,"Ġal":595,"ad":596,"Ġapply":597,"Ġz":598,"ange":599,"cl":600,"top":601,"ķľ":602,"type":603,"ĠÏ":604,"ial":605,"ĠÎ¹":606,"ho":607,"ĠK":608,"ĠY":609,"prod":610,"th":611,"ift":612,"Ġadd":613,"Ġ2":614,"non":615,"jective":616,"ur":617,"sum":618,"ta":619,"ateg":620,"itive":621,"dule":622,"ctor":623,"ard":624,"âĤĢ":625,"let":626,"ĠÎ¼":627,"pos":628,"log":629,"Ġthat":630,"áµ":631,"mpty":632,"ca":633,"hf":634,"Ġthis":635,"ategory":636,"image":637,"Ġhf":638,"Ġpo":639,"ate":640,"soc":641,"ĠN":642,"ical":643,"ity":644,"lter":645,"-/":646,"um":647,"real":648,"Ġcomp":649,"pl":650,"el":651,"âĨ":652,"pr":653,"ext":654,"âŁ¨":655,"Ġ((":656,"Ġrefine":657,"measure":658,"mi":659,"ol":660,"succ":661,"Ġma":662,"theorem":663,"ĠB":664,"ĠðĿķľ":665,"Ġ_)":666,"Ġif":667,"gr":668,"algebra":669,"di":670,"ass":671,"rom":672,"clo":673,"linear":674,"ists":675,"iso":676,"Ġfunction":677,"Ġext":678,"',":679,"all":680,"sing":681,"iz":682,"Ġq":683,"Ġcontinuous":684,"continuous":685,"âĨĲ":686,"assoc":687,"ĠThe":688,"Ġnat":689,"ir":690,"polog":691,"Ġ^":692,"Ġ[âĨĲ":693,"ree":694,"orp":695,"subset":696,"module":697,"Ġcoe":698,"sto":699,"ral":700,"ĠâĢ":701,"Ġmem":702,"norm":703,"*}":704,"lf":705,"oun":706,"tic":707,"deriv":708,"ģ»":709,"endsto":710,"additive":711,"self":712,"ĠâŁ¶":713,"Ġequ":714,"Î¼":715,"div":716,"Ġintro":717,"cases":718,"âĪ¥":719,"range":720,"Ġpre":721,"te":722,"ds":723,"Ġâīł":724,"Ġ|":725,"ĠâĢ¢":726,"str":727,"jo":728,"Ġfinset":729,"sed":730,"Ġit":731,"ded":732,"Ġfrom":733,"Ġnot":734,"Ġ..":735,"erm":736,"Ġ/":737,"Ġhs":738,"unit":739,"diff":740,"par":741,"ors":742,"ĠV":743,"for":744,"ĠJ":745,"cted":746,"ĠĠĠĠĠĠĠ":747,"pri":748,"Ġlist":749,"semi":750,"egral":751,"Ġus":752,"Â¹":753,"app":754,"ha":755,"Ġâī«":756,"im":757,"##":758,"ure":759,"not":760,"supp":761,"orphis":762,"orphism":763,"ant":764,"inter":765,"import":766,"section":767,"Ġusing":768,"dist":769,"ff":770,"finite":771,"Ġhy":772,"cast":773,"within":774,"ight":775,"si":776,"name":777,"len":778,"Ġob":779,"leton":780,"stri":781,"mal":782,"Ġdef":783,"const":784,"bot":785,"ĠD":786,"class":787,"Ġor":788,"ob":789,"card":790,"lift":791,"rop":792,"ÃĹ":793,"ens":794,"Ġthen":795,"get":796,"univ":797,"pi":798,"uct":799,"bas":800,"Ġwh":801,"omial":802,"strict":803,"au":804,"duct":805,"local":806,"hs":807,"Ġbe":808,"onempty":809,"ĠâĪ¥":810,"Ġcategory":811,"congr":812,"ĠâĪ§":813,"injective":814,"ĠÃĹ":815,"Ġhb":816,"pological":817,"Ġare":818,"Ġlinear":819,"sure":820,"âģ»":821,"ĠâĪĥ":822,"ere":823,"singleton":824,"Ġlo":825,"sup":826,"Ġwe":827,"rib":828,"serve":829,"pan":830,"Ġcases":831,"Ġone":832,"ci":833,"trix":834,"âī":835,"ble":836,"finset":837,"Î¹":838,"Ġzero":839,"joint":840,"tain":841,"lement":842,"ĠÎ³":843,"Ġmeasurable":844,"Ġright":845,"ounded":846,"actic":847,"wo":848,"Ġab":849,"Ġâīĥ":850,"Ġ_).":851,"Ġeq":852,"intro":853,"nreal":854,"integral":855,"nor":856,"ome":857,"Ġring":858,"tient":859,"âĤĥ":860,"Ġhp":861,"Ġtype":862,"Ġsimpa":863,"ĠU":864,"Ġhi":865,"ull":866,"do":867,"Ġtheorem":868,"gree":869,"ers":870,"ener":871,"vd":872,"otient":873,"enti":874,"quotient":875,"Ġintros":876,"nonneg":877,"hds":878,"cid":879,"plit":880,"duction":881,"ative":882,"ker":883,"list":884,"Ġequiv":885,"ue":886,"filter":887,"namespace":888,"ag":889,"med":890,"Ġsum":891,"deal":892,"nomial":893,"lynomial":894,"')":895,"omm":896,"Ġnorm":897,"âĤĹ":898,"Ġfilter":899,"ces":900,"theory":901,"Ġtr":902,"Ġhom":903,"Ġ\"":904,"cidable":905,"cone":906,"Ġ--":907,"max":908,"Ġmeasure":909,"ind":910,"af":911,"inal":912,"ĠProp":913,"semiring":914,"ack":915,")]":916,"rfl":917,"eld":918,"ĠâĬĨ":919,"iform":920,"âĦ":921,"nd":922,"and":923,"Ġlet":924,"nion":925,"ated":926,"obj":927,"Ġdo":928,"Ġtendsto":929,"Ġorder":930,"air":931,"Ġend":932,"inf":933,"Ġst":934,"Ġdefin":935,"/-!":936,"verse":937,"Ġ(âĪ":938,"category":939,"Ġen":940,"Ġrintro":941,"ĠW":942,"Ġne":943,"ucture":944,"be":945,")).":946,"ĵĿ":947,"Ġrefl":948,"ally":949,"action":950,"prime":951,".{":952,"wer":953,"sc":954,"lex":955,"ancel":956,"nhds":957,"Ġdist":958,"dvd":959,"ke":960,"Ġfile":961,"nonempty":962,"ary":963,"cons":964,"Ġmono":965,"Ġht":966,"Ġrcases":967,"ise":968,"exists":969,"colimit":970,"Ġalgebra":971,"ies":972,"Ġmo":973,"tected":974,"Ġobtain":975,"basis":976,"no":977,"ense":978,"Ġhg":979,"ĠÏĥ":980,"ae":981,"Ġ_),":982,"span":983,"aux":984,"dex":985,"ĠâĪĺ":986,"we":987,"Ġhn":988,"tric":989,"ator":990,"closed":991,"Ġpar":992,"Ġstr":993,"alen":994,"Ġtactic":995,"sert":996,"ong":997,"fintype":998,"In":999,"omorphism":1000,"ig":1001,"Ġinv":1002,"ĠâĦ¤":1003,"empty":1004,"¥¤":1005,"Ġâ¥¤":1006,"Ġclo":1007,"Ġexists":1008,"cancel":1009,"product":1010,"unt":1011,"Ġbegin":1012,"refl":1013,"Ġunder":1014,"ĠÎµ":1015,"min":1016,"âī¥":1017,"Ġ...":1018,"Ġinter":1019,"Union":1020,"Ġop":1021,"tis":1022,"Ġspace":1023,"ization":1024,"ition":1025,"ÏĢ":1026,"Ġcomm":1027,"isjoint":1028,"'.":1029,"rel":1030,"Ġ(â":1031,"closure":1032,"wise":1033,"support":1034,"Ġnon":1035,"Ġ@":1036,"ĠÎł":1037,"ĠZ":1038,"Ġse":1039,"degree":1040,"''":1041,"vial":1042,"Ġfinite":1043,"ute":1044,"Ġcan":1045,"topological":1046,"some":1047,"Ġmk":1048,"tiset":1049,"per":1050,"Ġprod":1051,"tendsto":1052,"root":1053,"que":1054,"protected":1055,"metric":1056,"Ġelement":1057,"erenti":1058,"dding":1059,"Ġuse":1060,"heaf":1061,"Ġid":1062,"hx":1063,"atti":1064,"back":1065,"how":1066,"bedding":1067,"Ġlift":1068,"Ġhc":1069,"vector":1070,"oo":1071,"ence":1072,"num":1073,"Ġar":1074,"Ġcongr":1075,"Ġall":1076,"subtype":1077,"Ġsome":1078,"ullback":1079,"Ġsplit":1080,"oth":1081,"old":1082,"Ġassu":1083,"elim":1084,"Ġlt":1085,"functor":1086,"attice":1087,"comap":1088,"main":1089,"fst":1090,"ang":1091,"ique":1092,"fderiv":1093,"pec":1094,"Ġmon":1095,"decidable":1096,"fact":1097,"coeff":1098,"Ġleft":1099,"Ġdiff":1100,"--":1101,"Î²":1102,"Ġcl":1103,"mod":1104,"eval":1105,"restrict":1106,"egrable":1107,"abs":1108,"simps":1109,"arg":1110,"},":1111,"plic":1112,"field":1113,"erentiable":1114,"á¶":1115,"ie":1116,"ĠIf":1117,"vert":1118,"ll":1119,"])":1120,"The":1121,"mon":1122,"Ġgener":1123,"tial":1124,"Ġinstance":1125,"iven":1126,"Ġlocal":1127,"normed":1128,"Ġsmul":1129,"lete":1130,"Ġfunctor":1131,"ĠâĪ©":1132,"ore":1133,"gth":1134,"Ġmonoid":1135,"pair":1136,"dual":1137,"Ġcont":1138,"snd":1139,"am":1140,"ject":1141,"ize":1142,"Ġâĭ":1143,"vex":1144,"ball":1145,"compact":1146,"ich":1147,"Ġhm":1148,"serves":1149,"Ġch":1150,"`:":1151,"Ġpoint":1152,"Ġlim":1153,"ĠâĨĳ":1154,"Ġdesc":1155,"cd":1156,"bounded":1157,"Ġsubmodule":1158,"wa":1159,"bit":1160,"inl":1161,"ast":1162,"hg":1163,"insert":1164,"Ġdi":1165,"inr":1166,"out":1167,"ðĿĵĿ":1168,"Ġ_âŁ©,":1169,"matrix":1170,"mpr":1171,"Ġmulti":1172,"pend":1173,"Ġcard":1174,"Ġtwo":1175,"ps":1176,"rec":1177,"meta":1178,"compl":1179,"Ġmatrix":1180,"ck":1181,"onal":1182,"Ġ`(":1183,"union":1184,"Ġnor":1185,"ss":1186,"nel":1187,"áµĴ":1188,"Re":1189,"sur":1190,"ali":1191,"ĠQ":1192,"áµĴáµ":1193,"bi":1194,"forall":1195,")),":1196,"point":1197,"Ġdsimp":1198,"Ġval":1199,"Ġimage":1200,"ĠĠĠĠĠĠĠĠĠĠĠĠĠĠĠĠ":1201,"pology":1202,"Ġpri":1203,"Ġexpr":1204,"Ġequivalen":1205,"ural":1206,")`":1207,"Ġâĸ":1208,"ensor":1209,"'_":1210,"Ġgroup":1211,"ates":1212,"etwe":1213,"ter":1214,"etween":1215,"polynomial":1216,"_,":1217,"rw":1218,"ĠâĪĤ":1219,"ĠĠĠĠĠĠĠĠĠ":1220,"ased":1221,"Ġrel":1222,"ph":1223,"limits":1224,"ner":1225,"und":1226,"sq":1227,"ðĿķľ":1228,"low":1229,"ĠÎ´":1230,"ension":1231,"series":1232,"Ġinduction":1233,"cy":1234,"*)":1235,"ations":1236,"ber":1237,"ents":1238,"urn":1239,"ĠÏĨ":1240,"Ġover":1241,"preimage":1242,"io":1243,"Ġâĸ¸":1244,"Ġdescrib":1245,"its":1246,"trivial":1247,"distrib":1248,"Ġinf":1249,"served":1250,"ĠâĪĳ":1251,"ideal":1252,"otone":1253,"Ġwhich":1254,"multi":1255,"uniform":1256,"seq":1257,"exp":1258,"ually":1259,"ord":1260,"utable":1261,"embedding":1262,"cont":1263,"ĠIn":1264,"Ġclass":1265,"Ġreal":1266,"Aut":1267,"redu":1268,"opy":1269,"ĠAll":1270,"nth":1271,"Ġdescribed":1272,"Ġ20":1273,"sig":1274,"Ġfa":1275,"Ġapp":1276,"Ïĥ":1277,"Ġnum":1278,"ĠâĨĴ+":1279,"count":1280,"âĪŀ":1281,"Ġreserved":1282,"ry":1283,"sheaf":1284,"cle":1285,"CE":1286,"NS":1287,"Ġad":1288,"Ġdiv":1289,"Copy":1290,"hors":1291,"ICE":1292,"leased":1293,"Ġlic":1294,"ĠApac":1295,"ĠLICE":1296,"Ġrights":1297,"Released":1298,"Authors":1299,"NSE":1300,"Copyright":1301,"Ġlicense":1302,"ĠApache":1303,"ĠLICENSE":1304,"cre":1305,"Ġdefinition":1306,"Ġ::":1307,"ŁĻ":1308,"Ġneg":1309,"ym":1310,"char":1311,"ank":1312,"Ġennreal":1313,"wap":1314,"Ġrwa":1315,"vi":1316,"Ġassume":1317,"Ġconvert":1318,"ĠĠĠĠĠĠ":1319,"ive":1320,"Ġquotient":1321,"ĠÏĢ":1322,"tra":1323,"Ġshow":1324,"inj":1325,"single":1326,"Ġih":1327,"Ġideal":1328,"Ġbetween":1329,"hab":1330,"vent":1331,"Icc":1332,"cible":1333,"Ġsubset":1334,"Ġhr":1335,"function":1336,"diag":1337,"Â¬":1338,"ace":1339,"Ġâģ»":1340,"Îµ":1341,"Ġsem":1342,"Ġder":1343,"Ġsubtype":1344,"ordered":1345,"ain":1346,"row":1347,"ses":1348,"Ġtopological":1349,"Îł":1350,"Ġstructure":1351,"induction":1352,"sition":1353,"`-":1354,"Ġmultiset":1355,"Ġbas":1356,"ÏĨ":1357,"âŁ©âŁ©":1358,"index":1359,"Ġ''":1360,"Ġpi":1361,"domain":1362,"depend":1363,"This":1364,"ular":1365,"Ġany":1366,"reducible":1367,"calar":1368,"computable":1369,"ĠâĬĹ":1370,"ĠâĦĤ":1371,"``":1372,"ventually":1373,"Ġpolynomial":1374,"duce":1375,"ful":1376,"length":1377,"two":1378,"Ġeval":1379,"âģ":1380,"Ġ%":1381,"Ġequal":1382,"ĠâĬ¤":1383,"osition":1384,"ĠâĪ«":1385,"ach":1386,"Ġrange":1387,"gen":1388,"intype":1389,"Ġel":1390,"finsupp":1391,"Ġprove":1392,"Io":1393,"ersion":1394,"']":1395,"ĠThis":1396,"Ġopen":1397,"Ġname":1398,"ĠâŁ¨âŁ¨":1399,"Ġconstr":1400,"join":1401,"fold":1402,"Ġpow":1403,"surjective":1404,"turn":1405,"ĠâĬĵ":1406,"Ġqu":1407,"Ġno":1408,"icator":1409,"Ġuniform":1410,"conj":1411,"Ġfintype":1412,"Ġvector":1413,"ĠÂ¬":1414,"Ġuniv":1415,"Ġtrans":1416,"submodule":1417,"fr":1418,"Ġmodule":1419,"ongly":1420,"Ġdifferentiable":1421,"kernel":1422,"hp":1423,"Ġ(-":1424,"ata":1425,"Ġfact":1426,"term":1427,"res":1428,"Ġclosure":1429,"Ġdisjoint":1430,"Ġae":1431,"erase":1432,"Ġord":1433,"bin":1434,"Ġproduct":1435,"pred":1436,"Ġcoeff":1437,"mily":1438,"unique":1439,"antis":1440,"try":1441,")))":1442,"cale":1443,"Ġbi":1444,"ound":1445,"fix":1446,"Ġelse":1447,"Ġreturn":1448,"ĠâŁ¨_,":1449,"cent":1450,"crete":1451,"imal":1452,"Ġintegral":1453,"dependent":1454,"mali":1455,"Ġfunctions":1456,"supr":1457,"anti":1458,"ip":1459,"alk":1460,"expr":1461,"noncomputable":1462,"gcd":1463,"ĠâĭĻ":1464,"á¶ł":1465,"antisymm":1466,"Ġmorphism":1467,"Ġrintros":1468,"Ġiff":1469,"jection":1470,"dim":1471,"áµĲ":1472,"habit":1473,"fn":1474,"scalar":1475,"trib":1476,"Ġderiv":1477,"Ġ[]":1478,"complete":1479,"ĠâĬĶ":1480,"tom":1481,"Ġsuch":1482,"sol":1483,"ĠâĪ¨":1484,"adic":1485,"nil":1486,"sigma":1487,"Ġalso":1488,"fa":1489,"structure":1490,"nected":1491,"oal":1492,"Ġtri":1493,"sult":1494,"###":1495,"Ġhz":1496,"Ġhu":1497,"habited":1498,"alizer":1499,"angle":1500,"gener":1501,"Ġclassical":1502,"Ġbounded":1503,"tribute":1504,"undle":1505,"ee":1506,"Ġits":1507,"disjoint":1508,"Ġmax":1509,"ell":1510,"Ġunit":1511,"pullback":1512,"Ġterm":1513,"Ġintegrable":1514,"ĠâĨĴ+*":1515,"Ġbo":1516,"ĠâĪ£":1517,"rank":1518,"basic":1519,"factor":1520,"ak":1521,"Ġversion":1522,"ose":1523,"orph":1524,"perm":1525,"Ġnonempty":1526,"Ġmin":1527,"Ġ\\":1528,"swap":1529,"Ġassoc":1530,"trict":1531,"ĠâĪª":1532,"ht":1533,"cur":1534,"ĠâĬ¥":1535,")}":1536,"Ġpreserves":1537,"indicator":1538,"rt":1539,"Ġabs":1540,"áµĴáµĸ":1541,"Ġhab":1542,"fle":1543,"tch":1544,"inci":1545,"Ġpos":1546,"Ġwhen":1547,"like":1548,"ath":1549,"omorph":1550,"Ġmonotone":1551,"hb":1552,"Ġ(âĪĢ":1553,"hy":1554,"Ġstrict":1555,"Ġ_âŁ©":1556,"Ġsemi":1557,"urce":1558,"Ġâīħ":1559,"Ġsame":1560,"Ġexp":1561,"âĦĿ":1562,"Ġcal":1563,"Ġcase":1564,"Ġlimit":1565,"Ġsets":1566,"Sup":1567,"alg":1568,"Ġ>":1569,"dition":1570,"Ġsubgroup":1571,"Ġbasis":1572,"gra":1573,"prop":1574,"Ġhk":1575,"ste":1576,"gt":1577,"ou":1578,"Inf":1579,"maliz":1580,"variant":1581,"very":1582,"Ġgeneral":1583,"star":1584,"tensor":1585,"Ġthere":1586,"Ġnone":1587,"core":1588,"Ġadditive":1589,"split":1590,"];":1591,"hape":1592,"ys":1593,"from":1594,"Ġoption":1595,"Ġequivalence":1596,"Ġ202":1597,"hn":1598,"spec":1599,"Ġclosed":1600,"ffi":1601,"incl":1602,"ove":1603,"Ġform":1604,"Ġmultiplic":1605,"dup":1606,"ĠÎĵ":1607,"alse":1608,"ĠâĪŀ":1609,"ffices":1610,"lie":1611,"subgroup":1612,"pect":1613,"Ġgiven":1614,"duced":1615,"Lp":1616,"Ġsig":1617,"hc":1618,"free":1619,"Ġhd":1620,"Ġdecidable":1621,"lattice":1622,"Ġpullback":1623,"Ġ++":1624,"locale":1625,"bo":1626,"inverse":1627,"Ġmaps":1628,"Ġconvex":1629,"dis":1630,"Ġso":1631,"form":1632,"Ġnatural":1633,"rst":1634,"Ġ(@":1635,"ide":1636,"pper":1637,"hr":1638,"rpow":1639,"incip":1640,"ĠðĿĵĿ":1641,"tactic":1642,"Ġsing":1643,"Ġisomorphism":1644,"divis":1645,"Î´":1646,"ior":1647,"Ġdata":1648,"rect":1649,"strongly":1650,"Ġarg":1651,"_.":1652,"uld":1653,"convex":1654,"cod":1655,"vec":1656,"connected":1657,"Ġcommut":1658,"Ġelements":1659,"Ġchange":1660,"object":1661,"Ico":1662,"mple":1663,"ny":1664,"Ġhl":1665,"âŁ©)":1666,"ĠWe":1667,"integrable":1668,"complex":1669,"Ġwhere":1670,"arget":1671,"Ġordinal":1672,"adj":1673,"infi":1674,"dic":1675,"sin":1676,"lic":1677,"Ġpair":1678,"topology":1679,"Ġstar":1680,"mable":1681,"Ġconst":1682,"submonoid":1683,"ensional":1684,"Ġobject":1685,"other":1686,"ority":1687,"meas":1688,"adjoint":1689,"})":1690,"ĠhaveI":1691,"source":1692,"ĠâĨĴ*":1693,"âĤģâĤĤ":1694,"Ġsuffices":1695,"Ġfield":1696,"ample":1697,"part":1698,"Ġpure":1699,"Ġconstru":1700,"Ġhomomorphism":1701,"homo":1702,"'s":1703,"uation":1704,"lin":1705,"independent":1706,"append":1707,"upd":1708,"unop":1709,"Ġproof":1710,"equalizer":1711,"Ġassoci":1712,"Ġperm":1713,"Ġsup":1714,"ĠðĿĴ":1715,"tot":1716,"power":1717,"Ġchar":1718,"Ġcardinal":1719,"update":1720,"Ġsupp":1721,"localization":1722,"cau":1723,"Ġer":1724,"are":1725,"tition":1726,"poly":1727,"Ġresult":1728,"Ġproper":1729,"\"]":1730,"ĠIH":1731,"shape":1732,"Ġxs":1733,"ote":1734,"Ġhq":1735,"itt":1736,"ortho":1737,"olu":1738,"eventually":1739,"semigroup":1740,"Ġhe":1741,"We":1742,"bind":1743,"func":1744,"fg":1745,"Ġcone":1746,"Ġ3":1747,"Ġevery":1748,"Ġinjective":1749,"ends":1750,"true":1751,"cocone":1752,"code":1753,"ĠÎ½":1754,"Ġhj":1755,"Ġunique":1756,"multiset":1757,"ðĿŁĻ":1758,"Ġlie":1759,"Ġcount":1760,"ork":1761,"Ġinto":1762,"Ġdegree":1763,"Ġâ¨":1764,"Ġbit":1765,"Ġnormed":1766,"âī¤":1767,"á¶ľ":1768,"Ġcalc":1769,"Ġpr":1770,"preserves":1771,"diagonal":1772,"Ġhv":1773,"enom":1774,"have":1775,"cover":1776,"Ġeach":1777,"Ġ(âĭ":1778,"Ġbut":1779,"move":1780,"Ġcomap":1781,"ude":1782,"separ":1783,"Ġget":1784,"Ġtopology":1785,"ay":1786,"nnreal":1787,"cond":1788,"option":1789,"Ġmv":1790,"preorder":1791,"inner":1792,"Ġcomplex":1793,"pt":1794,"ĠâĦļ":1795,"simple":1796,"prim":1797,"'`":1798,"gular":1799,"áµ¥":1800,"countable":1801,"âĤĲ":1802,"lower":1803,"metry":1804,"00":1805,"âĤĽ":1806,"lock":1807,"pres":1808,"Ġdefine":1809,"rat":1810,"Inter":1811,"Space":1812,"desc":1813,"Ġsin":1814,"ison":1815,"forget":1816,"ĳ(":1817,"ill":1818,"ven":1819,"dimensional":1820,"incipal":1821,"os":1822,"curry":1823,"âĪĢ":1824,"Ġsupport":1825,"Ġout":1826,"Ġ%%":1827,"tower":1828,"Ġcolimit":1829,"Ġem":1830,"Ġ//":1831,"total":1832,"rou":1833,"Ġvari":1834,"her":1835,"Ġcho":1836,"tible":1837,"Ġanti":1838,"ffine":1839,"ĠO":1840,"sets":1841,"wh":1842,"hout":1843,"ushout":1844,"Ioo":1845,"ized":1846,"Ġdefined":1847,"bor":1848,"Ġprime":1849,"differentiable":1850,"Ġfree":1851,"factors":1852,"Ġhxy":1853,"Ġfirst":1854,"ility":1855,"Ġcontain":1856,"Ġ###":1857,"spect":1858,"ust":1859,"mooth":1860,"cof":1861,"xi":1862,"natural":1863,"ĠIo":1864,"ram":1865,"unital":1866,"Ġaffine":1867,"chy":1868,"Ġspan":1869,"ult":1870,"quot":1871,"onent":1872,"edSpace":1873,"Ġwill":1874,"this":1875,"Ġcons":1876,"Ġhomo":1877,"Ġmatch":1878,"Ġ(â¨":1879,"ward":1880,"Ġdis":1881,"'}":1882,"arrow":1883,"Ġindex":1884,"Ġused":1885,"Ġcomplete":1886,"base":1887,"nn":1888,"ĠAn":1889,"Ġspec":1890,"normal":1891,"tomic":1892,"ual":1893,"\",":1894,"Ġ(âĬ":1895,"ault":1896,"Ġsubmonoid":1897,"equivalen":1898,"gonal":1899,"Ġker":1900,"codable":1901,"det":1902,"Ġâĩ":1903,"orthogonal":1904,"Ġfr":1905,"itial":1906,"flect":1907,"Ġimp":1908,"ties":1909,"seu":1910,"univer":1911,"ment":1912,"Ring":1913,"subsingleton":1914,"clotomic":1915,"Ġrelation":1916,"cos":1917,"above":1918,"ĠðĿŁĻ":1919,"coprime":1920,"ĠâĪħ":1921,"node":1922,"ĠâĪī":1923,"age":1924,"áµĴáµĪ":1925,"ĠâĪı":1926,"mption":1927,"ify":1928,"Ġdecl":1929,"Ġcompact":1930,"tail":1931,"fraction":1932,"hi":1933,"âĢ":1934,"Ġpart":1935,"chart":1936,"Ioc":1937,"Ġbin":1938,"cycle":1939,")`.":1940,"tsub":1941,"Ġsucc":1942,"repr":1943,"lian":1944,"struct":1945,")âģ»":1946,"cm":1947,"ĠGiven":1948,"zpow":1949,"Ġsym":1950,"size":1951,"ĠMain":1952,"divisors":1953,"partition":1954,"che":1955,"Ġlemmas":1956,"multilinear":1957,"Ġother":1958,"itz":1959,"proj":1960,"affine":1961,"psch":1962,"Ġtrivial":1963,"bUnion":1964,"ennreal":1965,"Ġforget":1966,"none":1967,"Ġfamily":1968,"pschitz":1969,"bound":1970,"Ġball":1971,"Ġsur":1972,"iter":1973,"units":1974,"lean":1975,"Ġ``":1976,"âĤĺ":1977,"ulift":1978,"edist":1979,"place":1980,"la":1981,"OD":1982,"Ġpower":1983,"ators":1984,"denom":1985,"Ġinhabited":1986,"Ġerw":1987,"Ġthan":1988,"epi":1989,"Ġ(âī¤":1990,"âĤĦ":1991,"ian":1992,"ug":1993,"lies":1994,"pose":1995,"Ġforall":1996,"Ioi":1997,"Ġsq":1998,"Ġsigma":1999,"Ġ_))":2000,"mat":2001,"osite":2002,"Ġpreimage":2003,"Ġ.":2004,"Ġderivative":2005,"vsub":2006,"Ġoper":2007,"ĠSort":2008,"mt":2009,"Ġcos":2010,"arith":2011,"â¦":2012,"âĤĬ":2013,"partial":2014,"ability":2015,"Ġlog":2016,"Ġequivalent":2017,"seudo":2018,"```":2019,"naturality":2020,"ĠĠĠĠĠĠĠĠĠĠĠ":2021,"Ġdiag":2022,"â¦Ħ":2023,"Ġgcd":2024,"ĠâĨĳ(":2025,"show":2026,"var":2027,"gl":2028,"Ġspaces":2029,"Ġâ¦":2030,")âŁ©":2031,"âĤĻ":2032,"ilattice":2033,"ading":2034,"Ġâ¦ĥ":2035,"attribute":2036,"Ġnth":2037,"Ġcomposition":2038,"elian":2039,"Ġcor":2040,"sym":2041,"Ġli":2042,"center":2043,"Ġedist":2044,"pposite":2045,"ĠIcc":2046,"ĠâĬķ":2047,"mdiff":2048,"Ġinverse":2049,"ĠRe":2050,"colimits":2051,"home":2052,"aus":2053,"Ġassumption":2054,"Ġ>>":2055,"Ġcast":2056,"Î³":2057,"Ġbundle":2058,"find":2059,"universes":2060,"Ġtt":2061,"composition":2062,"áµ¢":2063,"oals":2064,"Ġbot":2065,"dom":2066,"ving":2067,"Ġff":2068,"Ġvalue":2069,"Ġnumber":2070,"false":2071,"Ġtrue":2072,"Ġargum":2073,"points":2074,"adjoin":2075,"Ġadj":2076,"Ġabout":2077,"family":2078,"nontrivial":2079,"Ġcommutative":2080,"Ġembedding":2081,"Ici":2082,"Ġmetric":2083,"multiplic":2084,"hm":2085,"discrete":2086,"mall":2087,"Ġir":2088,"associ":2089,"Ġinterval":2090,"resp":2091,"Ġcocone":2092,"Ġsequ":2093,"Ġtensor":2094,"Ġlen":2095,"atis":2096,"ĠFor":2097,"fer":2098,"ĠSee":2099,"Ġlocally":2100,"igh":2101,"Ġ`[":2102,"Ġnew":2103,"Ġ(âĨ":2104,"Ġtheory":2105,"ĠÏĦ":2106,"Ġlimits":2107,"$>":2108,"alo":2109,"lintegral":2110,"ub":2111,"Ġta":2112,"locally":2113,"]`":2114,"unc":2115,"Ġ(âĭĥ":2116,"âŁ«":2117,"Ġlength":2118,"Ġsingle":2119,"Iic":2120,"principal":2121,"Ġ4":2122,"Ġcy":2123,"Ġiso":2124,"target":2125,"Ġdefinitions":2126,"include":2127,"unction":2128,"Ġdoes":2129,"âĬ":2130,"ĠIco":2131,"wr":2132,"homeomorph":2133,"verg":2134,"hen":2135,"Ġincl":2136,"lor":2137,"ĠâĬ¢":2138,"tone":2139,"Ġme":2140,"Ġprovi":2141,"press":2142,"Ġ201":2143,"rier":2144,"Ġbool":2145,"tt":2146,"leph":2147,"alking":2148,"game":2149,"chain":2150,"Ġinner":2151,"condition":2152,"wn":2153,"Ġâ§":2154,"del":2155,"ĠCon":2156,"cir":2157,"reverse":2158,"ollow":2159,"Ġfinsupp":2160,"binary":2161,"ĠIoo":2162,"topy":2163,"cess":2164,"graph":2165,"ĠðĿĵ":2166,"Iio":2167,"ga":2168,"hd":2169,"hisker":2170,"âĦķ":2171,"extend":2172,"monotone":2173,"Ġordered":2174,"regular":2175,"dean":2176,"interval":2177,"calc":2178,"fac":2179,"sem":2180,"roots":2181,"Ġthese":2182,"ĠNote":2183,"ow":2184,"Ġsee":2185,"led":2186,"cyclotomic":2187,"rot":2188,"ĠInf":2189,"equivalence":2190,"ding":2191,"ĠhÎ¼":2192,"isometry":2193,"ick":2194,"Ġconstant":2195,"oper":2196,"Ġsummable":2197,"priority":2198,"les":2199,"Ġeventually":2200,"ounds":2201,"Ġfollow":2202,"usion":2203,"dor":2204,"Ġfix":2205,"respon":2206,"dorff":2207,"dire":2208,"generate":2209,"tsum":2210,"Ġsubsingleton":2211,"ting":2212,"Ġinsert":2213,"ductive":2214,"malize":2215,"last":2216,"...":2217,"products":2218,"ating":2219,"present":2220,"mula":2221,"head":2222,"âģĨ":2223,"ags":2224,"vers":2225,"If":2226,"letion":2227,"Ġunfold":2228,"'t":2229,"ĠðĿķ":2230,"monic":2231,"ĠâŁª":2232,"ĠâĪ«âģ»":2233,"Ġau":2234,"assu":2235,"Ġdvd":2236,"Ġattribute":2237,"od":2238,"pure":2239,"Ġprim":2240,"ĠðĿĴľ":2241,"Ġnotation":2242,"ius":2243,"upper":2244,"Ġdense":2245,"Ġconj":2246,"bundle":2247,"ice":2248,"ient":2249,"Ġgra":2250,"onents":2251,"âŁ©âŁ©,":2252,"Ġfunext":2253,"âĦĴ":2254,"Ġpoints":2255,"ther":2256,"::":2257,"irreducible":2258,"peat":2259,"Ġsimple":2260,"Ġreplace":2261,"Ġtypes":2262,"ream":2263,"Ġlin":2264,"pression":2265,"Ġquot":2266,"ration":2267,"iodic":2268,"omp":2269,"Ġsmooth":2270,"Ġsatis":2271,"Ġwell":2272,"âĪŀ)":2273,"Ġ100":2274,"Ġlower":2275,"Ġhw":2276,"âĦĴp":2277,"Ġempty":2278,"Ġrestrict":2279,"equal":2280,"alois":2281,"quare":2282,"pairwise":2283,"inhabited":2284,"stead":2285,"Ġinfinite":2286,"Ġpartial":2287,"Ġidenti":2288,"Ġgive":2289,"Ġ<$>":2290,"Ġinfi":2291,"sdiff":2292,"âĤĽâĤĹ":2293,"Ġkernel":2294,"ifs":2295,"Ġvariable":2296,"pothe":2297,"Ġresults":2298,"Ġconv":2299,"Ġunits":2300,"eous":2301,"bers":2302,"Ġcom":2303,"toid":2304,"block":2305,"ĠâŁ¨(":2306,"Ġcof":2307,"arrier":2308,"idy":2309,"âĪ¥âĤĬ":2310,"ÏĦ":2311,"Ġtidy":2312,"ithful":2313,"hould":2314,"ink":2315,"red":2316,"Ġcorrespon":2317,"Ġ(âĪĳ":2318,"Ġterms":2319,"Ġâĩĳ(":2320,"Ġhij":2321,"Ġsepar":2322,"ĠhU":2323,"ilin":2324,"central":2325,"mv":2326,"Ġ[âĪĢ":2327,"sqrt":2328,"cause":2329,"Ġfail":2330,"ensity":2331,"Ġcondition":2332,"Ġiter":2333,"See":2334,"Ġfind":2335,"ĠhS":2336,"âĪ¥)":2337,"onical":2338,"maximal":2339,"Ġnormal":2340,"Ġanal":2341,"Ġbinary":2342,"infinite":2343,"Ġunion":2344,"continu":2345,"Ġsurjective":2346,"alance":2347,"constant":2348,"Ġnil":2349,"arch":2350,"Ġalg":2351,"monomial":2352,"Ġwho":2353,"Ġdec":2354,"Ġmorphisms":2355,"ausdorff":2356,"Ġdomain":2357,"Ġspecial":2358,"ih":2359,"Ë£":2360,"Ġsubst":2361,"well":2362,"induced":2363,"Ġdefault":2364,"flects":2365,"Ġâ§¸":2366,"finrank":2367,")^":2368,"goals":2369,"subalgebra":2370,"Ġmany":2371,"Ġlocalization":2372,"').":2373,"Ġdim":2374,"Ġsequence":2375,"âŁ§":2376,"geneous":2377,"vate":2378,"zmod":2379,"active":2380,"Ġtop":2381,"cally":2382,"Ġhypothe":2383,"com":2384,"Ġmore":2385,"interior":2386,"ĠIoc":2387,"Ġup":2388,"ĠSup":2389,"ighbor":2390,"ODO":2391,"Ġfold":2392,"`)":2393,"ud":2394,"bounds":2395,"vertible":2396,"Ġsubalgebra":2397,"Ġinfer":2398,"Ġsupr":2399,"exact":2400,"auchy":2401,"han":2402,"morphism":2403,"Ġnhds":2404,"pushout":2405,"Ġthey":2406,"opens":2407,"Ġdirect":2408,"Ġaction":2409,"value":2410,"qui":2411,"¬Ŀ":2412,"Ġshould":2413,"Ġobj":2414,"uniformity":2415,"ish":2416,"derive":2417,"uc":2418,"Ġupper":2419,"ĠJo":2420,"Ġswap":2421,"density":2422,"Ġ({":2423,"Ġste":2424,"Ġro":2425,"Ġzpow":2426,"over":2427,"Ġ(âŁ¨":2428,"Ġconstructor":2429,"semilattice":2430,"element":2431,"|>":2432,"ĠÎ±áµĴáµĪ":2433,"ĠMor":2434,"projection":2435,"ĠhT":2436,"Ġsymm":2437,"Ġ[(":2438,"Ġbox":2439,"Ġ~":2440,"ache":2441,"initial":2442,"mation":2443,"ime":2444,"Ġâ¬Ŀ":2445,"ilinear":2446,"Ġcommute":2447,"Ġfinrank":2448,"cott":2449,"nodup":2450,"assume":2451,"Ġ(_":2452,"Ġinterior":2453,"Ġcha":2454,"acter":2455,"nonpos":2456,"Ġarrow":2457,"alf":2458,"ĠhJ":2459,"ĠScott":2460,"orsion":2461,"Ġps":2462,"Ġmultiplication":2463,"alle":2464,"Ġdual":2465,"dexp":2466,"Ġpairwise":2467,"ges":2468,"Ġroot":2469,"termin":2470,"private":2471,"lementation":2472,"Ġgoal":2473,"Ġla":2474,"cokernel":2475,"Ġneed":2476,"ued":2477,"oned":2478,"ĠhÎµ":2479,"Ġrequi":2480,"ategor":2481,"Ġfraction":2482,"oneda":2483,"hl":2484,"rum":2485,"Ġexpression":2486,"Ġmonoidal":2487,"Ġ<|>":2488,"sign":2489,"Ġsnorm":2490,"Ġke":2491,"rison":2492,"ĠMorrison":2493,"nsmul":2494,"son":2495,"Ġcent":2496,"poid":2497,"roupoid":2498,"Ġinstead":2499,"path":2500,"ĠâĨª":2501,"monoidal":2502,"Ġinduced":2503,"Ġbundled":2504,"lhs":2505,"Ġfactor":2506,"Ġbind":2507,"Ġproperty":2508,"lying":2509,"Ġalong":2510,"Ġsemiring":2511,"medi":2512,"Ġnnreal":2513,"ometry":2514,"âĪŀ}":2515,"]âŁ©":2516,"atem":2517,"same":2518,"âĤľ":2519,"Ġdefines":2520,"atom":2521,"Ġmod":2522,"Ġdire":2523,"Ġ#":2524,"Ġtak":2525,"Ġboth":2526,"pot":2527,"presheaf":2528,"olume":2529,"Ġper":2530,"ĠJohan":2531,"rox":2532,"Ġ2021":2533,"bl":2534,"Ġlintegral":2535,"proper":2536,"Ġprojection":2537,"mediate":2538,"ts":2539,"loor":2540,"dense":2541,"Ġfalse":2542,"Ġinstances":2543,"Ġ>>=":2544,"cing":2545,"Îĵ":2546,"Ġhol":2547,"âĢº":2548,"Ġchain":2549,")],":2550,"opposite":2551,"summable":2552,"Ġconstruct":2553,"box":2554,"]}":2555,"allel":2556,"aleph":2557,"ether":2558,"Ġchoose":2559,"rary":2560,"utation":2561,"Ġzmod":2562,"ves":2563,"ably":2564,"Ġbecause":2565,"Ġexample":2566,"Ġcover":2567,"ĠLe":2568,"separable":2569,"Ġpath":2570,"Ġsecond":2571,"omorphic":2572,"flip":2573,"operators":2574,"below":2575,"Ġpriority":2576,"ĠTop":2577,"Ë¢":2578,"Ġver":2579,"classical":2580,"Ġbasic":2581,"etherian":2582,"witt":2583,"Ġpositive":2584,"'],":2585,"ues":2586,"Ġwork":2587,"Ġdepend":2588,"Ġ2020":2589,"nnnorm":2590,"att":2591,"where":2592,"icken":2593,"rob":2594,"Ġtheir":2595,"Ġlinarith":2596,"Ġwalking":2597,"est":2598,"Ġabv":2599,"iterate":2600,"ĠðĿĶ":2601,"Ïģ":2602,"Ġreassoc":2603,"Ġprovide":2604,"vadd":2605,"Ġinteg":2606,"subobject":2607,"Ġprotected":2608,"bre":2609,"Ġhfg":2610,"angent":2611,"ĠâĪŀ)":2612,"cewise":2613,"Ġnote":2614,"ysis":2615,"write":2616,"Ġbdd":2617,"adra":2618,"Ġextends":2619,"ĠDe":2620,"param":2621,"adratic":2622,"Ġsize":2623,"Ġbound":2624,"ĠIt":2625,"Ġmultilinear":2626,"ĠÎ·":2627,"cor":2628,"odule":2629,"abelian":2630,"Ġnontrivial":2631,"duces":2632,"bijective":2633,"change":2634,"áµĲáµĴáµĸ":2635,"gre":2636,"man":2637,"Ġdeclar":2638,"Ġtot":2639,"trim":2640,"arison":2641,"ðĿĵ":2642,"Ġstatem":2643,"Ġaeval":2644,"ĠâĪĳ'":2645,"logy":2646,"Ġ(âĪĥ":2647,"Group":2648,"equality":2649,"Ġthem":2650,"Ġdet":2651,"ĠComp":2652,"eries":2653,"enius":2654,"ducing":2655,"Ġantitone":2656,"robenius":2657,"brevi":2658,"'âŁ©":2659,"ĠTODO":2660,"founded":2661,"rhs":2662,"Ġpointwise":2663,"sh":2664,"Ã¶":2665,"ific":2666,"cus":2667,"Ġgenerated":2668,"Î½":2669,"ences":2670,"dep":2671,"aeval":2672,"valuation":2673,"else":2674,"Ġâĭĥ":2675,"Ġnodup":2676,"heck":2677,"step":2678,"ok":2679,"Ġkey":2680,"`;":2681,"Ġtarget":2682,"string":2683,"Ġ})":2684,"ĠComm":2685,"ĠletI":2686,"factorization":2687,"Ġcorresponding":2688,"Ġseries":2689,"Ġstring":2690,"Ġprimrec":2691,"Ġ(<":2692,"ater":2693,"Ġcir":2694,"Ġcanonical":2695,"scalars":2696,"pseudo":2697,"decl":2698,"ning":2699,"Ġsh":2700,"Ġlattice":2701,"components":2702,"Ġsqrt":2703,"Ġbig":2704,"plicit":2705,"Mon":2706,"sort":2707,"Î£":2708,"xs":2709,"ĠLie":2710,"fixed":2711,"//":2712,"Ġmeta":2713,"iver":2714,"ĠÏī":2715,"://":2716,"Ġrespect":2717,"ray":2718,"orth":2719,"Ġstep":2720,"compose":2721,"formula":2722,"Ġtsub":2723,"Ġrepresent":2724,"Ġproperties":2725,"asses":2726,"Ġcontains":2727,"Ġcb":2728,"whisker":2729,"match":2730,"encodable":2731,"outer":2732,"Ġcoeffic":2733,"ĠHausdorff":2734,"Ġextend":2735,")`,":2736,"Ġpgame":2737,"semicontinuous":2738,"Ġnumbers":2739,"ĠâĬ¢,":2740,"fiber":2741,"gc":2742,"nating":2743,"choo":2744,"alias":2745,"Ġidentity":2746,"tradic":2747,"choose":2748,"tradiction":2749,"**":2750,"fy":2751,"vel":2752,"ĠLp":2753,"ĠÏĪ":2754,"Ġcompl":2755,"approx":2756,"ĠUnion":2757,"spectrum":2758,"âĮ":2759,"Ġfst":2760,"Ġcontra":2761,"breviation":2762,"Ġdiscrete":2763,"Comm":2764,"Ġcharacter":2765,"vergence":2766,"ĠÎ¸":2767,"SL":2768,"Ġsign":2769,"For":2770,"leading":2771,"igen":2772,"Ġmultiplicative":2773,"col":2774,"Ġ(âĪı":2775,"drop":2776,"commut":2777,"ĠâĢ¹":2778,"Ġgenerate":2779,"bool":2780,"Ġirreducible":2781,"Ġcle":2782,"Ġyou":2783,"Ġaddition":2784,"Ġdivis":2785,"Ġassociated":2786,"Ġanalysis":2787,"tps":2788,"mplementation":2789,"Ġâīĥ+":2790,"((":2791,"cum":2792,"lub":2793,"inite":2794,"Ġeven":2795,"Ġdiffer":2796,"ess":2797,"Ġtrace":2798,"weight":2799,"factorial":2800,"Ġobjects":2801,"Ġstrongly":2802,"Ġopens":2803,"Ġseq":2804,"ĠTags":2805,"Ġcontinu":2806,"lidean":2807,"Ġmost":2808,"uclidean":2809,".\"]":2810,"Type":2811,"Ġcre":2812,"coequalizer":2813,"lope":2814,"solute":2815,"primitive":2816,"Ġclear":2817,"lcm":2818,"ðĿĴ":2819,"doc":2820,"rev":2821,"ĠâŁ¦":2822,"iq":2823,"Ġcategor":2824,"utations":2825,"ĠĠĠĠĠĠĠĠĠĠĠĠĠ":2826,"Ġdistrib":2827,"terminal":2828,"solve":2829,"ru":2830,"fork":2831,"invariant":2832,"ĠhI":2833,"ĠexactI":2834,"component":2835,"Ġargument":2836,"rotate":2837,"cospan":2838,"Ġpushout":2839,"Î»x":2840,"ently":2841,"iling":2842,"noetherian":2843,"Ġreturns":2844,"tiv":2845,"Ġsingleton":2846,"pen":2847,"zip":2848,"Ġcol":2849,"â¦Ħ,":2850,"Ġgives":2851,"'),":2852,"Ġcokernel":2853,"direct":2854,"Ġmodel":2855,"hu":2856,"Ġcheck":2857,"ĠâŁ©":2858,"bdd":2859,"Ġ`âĪ":2860,"lied":2861,"Ġwhose":2862,"hull":2863,"Ġsnd":2864,"Ġrat":2865,"number":2866,"pf":2867,"serving":2868,"periodic":2869,"adjunction":2870,"'âŁ©,":2871,"ultra":2872,"Ġ**":2873,"ĠĠĠĠĠĠĠĠĠĠĠĠ":2874,"Ġpred":2875,"names":2876,"small":2877,"Ġpadic":2878,"Ġdif":2879,"lipschitz":2880,"then":2881,"ush":2882,"blocks":2883,"Ġ/-":2884,"ĠhC":2885,"Ġdiagram":2886,"ormal":2887,"ĠCáµĴáµĸ":2888,"Ġ(â¨Ĩ":2889,"Ġsheaf":2890,"seg":2891,"ĠCar":2892,"Ġ(âĬ¤":2893,"Ġfderiv":2894,"funext":2895,"tag":2896,"Ġ}âŁ©":2897,"sy":2898,"Ġisomorphic":2899,"biproduct":2900,"potent":2901,"eve":2902,"uage":2903,"parallel":2904,"anguage":2905,"enum":2906,"Ġic":2907,"Ġinr":2908,"Ġtry":2909,"antidiagonal":2910,"Ġjust":2911,"mum":2912,"Ġblock":2913,"Ġinl":2914,"ĠÏķ":2915,"Ġfollowing":2916,"Top":2917,"Ġpredic":2918,"Ġac":2919,"trunc":2920,"onormal":2921,"Ġalter":2922,"Ġhere":2923,"Ġang":2924,"emi":2925,"orthonormal":2926,"].":2927,"Ġexplicit":2928,"Ġitself":2929,"Ġappro":2930,"ickening":2931,"Ġwo":2932,"Ġalgebraic":2933,"Ġsection":2934,"malized":2935,"cept":2936,"diagram":2937,"yoneda":2938,"Ġpunit":2939,"contra":2940,"lice":2941,"Ġvalues":2942,"Ġvectors":2943,"^[":2944,"data":2945,"ighborho":2946,"half":2947,"Ã©":2948,"ĠĠĠĠĠĠĠĠĠĠ":2949,"ĠðĿķĤ":2950,"uncurry":2951,"Ġpreorder":2952,"Ġ(âĨĳ":2953,"deq":2954,"subring":2955,"Ġdistance":2956,"vious":2957,"measur":2958,"mes":2959,"sible":2960,"minpoly":2961,"ury":2962,"Ġ_)),":2963,"unitor":2964,"ĠIoi":2965,"Ġ_)).":2966,"vars":2967,"Ġvariables":2968,"lists":2969,"Ġsy":2970,"Ġconstruction":2971,"Ġav":2972,"Ġrb":2973,"istic":2974,"interactive":2975,"ĠâīĪ":2976,"Ġfixed":2977,"state":2978,"Ġadjoin":2979,"Ġ(â¨ħ":2980,"ras":2981,"covariant":2982,"Ġsubring":2983,"ĠâĬ¤)":2984,"Ġgeneraliz":2985,"wards":2986,"ultrafilter":2987,"ename":2988,"hov":2989,"áµĥ":2990,"Ġcur":2991,"Ġ`{":2992,"ashov":2993,"fld":2994,"ĠKud":2995,"ĠYury":2996,"derivative":2997,"pie":2998,"Given":2999,"vary":3000,"}`":3001,"Ġhst":3002,"maps":3003,"ĠImplementation":3004,"info":3005,"tac":3006,"conv":3007,"))).":3008,"monad":3009,"Ã¶l":3010,"piecewise":3011,"atible":3012,"ĠhV":3013,"counit":3014,"Ġunderlying":3015,"Ġcycle":3016,"Ã«":3017,"Ġbu":3018,"radi":3019,"Ġabove":3020,"formation":3021,"faithful":3022,"Î·":3023,"transpose":3024,"radius":3025,"hv":3026,"ki":3027,"ĠÎº":3028,"liary":3029,"directed":3030,"emetric":3031,"traction":3032,"sieve":3033,"Ġpb":3034,"ryashov":3035,"ĠKudryashov":3036,"ĠhK":3037,"read":3038,"Ġleading":3039,"Ġ(âĪ¥":3040,"Ġreverse":3041,"ĠMon":3042,"sound":3043,"ĠĠĠĠĠĠĠĠĠĠĠĠĠĠ":3044,"oangle":3045,"Ġmfld":3046,"down":3047,"Ġmonad":3048,"Ġvaluation":3049,"nes":3050,"ometric":3051,"ĠðĿĶ¸":3052,"tivity":3053,"super":3054,"sinh":3055,"Ġindexed":3056,"iro":3057,"neiro":3058,"triangle":3059,"extension":3060,"Ġâ¨Ĩ":3061,"Ġfunctors":3062,"ario":3063,"realize":3064,"onti":3065,"Ġnormalize":3066,"Ġangle":3067,"stem":3068,"proof":3069,"ontier":3070,"ģħ":3071,"zsmul":3072,"Ġinequality":3073,"Ġcategories":3074,"`).":3075,"multiplicity":3076,"Ġwould":3077,"Ġâģħ":3078,"Ġact":3079,"Ġho":3080,"Ġbiprod":3081,"olution":3082,"Ġ(âī¤)]":3083,"take":3084,"Ġdoc":3085,"Ġparse":3086,"homotopy":3087,"inductive":3088,"resheaf":3089,"Ġcancel":3090,"abbreviation":3091,"homogeneous":3092,"Ġholds":3093,".,":3094,"Î¶":3095,"Ġpseudo":3096,"Ġ*,":3097,"ĠHÃ¶l":3098,"general":3099,"Ġ(âĬ¥":3100,"resheafedSpace":3101,"bu":3102,"Ġ(`":3103,"Ġinitial":3104,"bination":3105,"Ġhead":3106,"ĠCarneiro":3107,"here":3108,"ution":3109,"Ġsquare":3110,"Ġwr":3111,"notation":3112,"Ġ(âī¤)":3113,"put":3114,"Ġbase":3115,"coprod":3116,"locus":3117,"Ġarguments":3118,"Ġerase":3119,"Ġys":3120,"trace":3121,"Ġcountable":3122,"xiliary":3123,"ple":3124,"snorm":3125,"Ġsel":3126,"Ġsmall":3127,"âĦ¤":3128,"inate":3129,"ĠMario":3130,"olint":3131,"glb":3132,"Ġtotal":3133,"cho":3134,"cauchy":3135,"Ġouter":3136,"multiplicative":3137,")âĪ¥":3138,"Ġupdate":3139,"defin":3140,"irrefl":3141,"Ġhomotopy":3142,"floor":3143,"ler":3144,"Ġ`âĬ":3145,"preconnected":3146,"Ġtypeclass":3147,"Ġorthogonal":3148,"torsion":3149,"Ġproj":3150,"Ġpredicate":3151,"triz":3152,"Ġfactors":3153,"gebras":3154,"Ġtrunc":3155,"Ġpolynomials":3156,"Ġ5":3157,"ĠhA":3158,"ifi":3159,"hfg":3160,"Ġbilin":3161,"Ġjo":3162,"moves":3163,"ugate":3164,"stalk":3165,"Ġvolume":3166,"Ġcompletion":3167,"hrink":3168,"Ġassociates":3169,"Ġmeans":3170,"Ġformal":3171,"Ġlipschitz":3172,"Ġself":3173,"+)":3174,"pret":3175,"_[":3176,"py":3177,"ĠhF":3178,"Ġtest":3179,"atter":3180,"cones":3181,"default":3182,"Ġstrictly":3183,"Ġgeneralizing":3184,"Ġ(*":3185,"Ġneighborho":3186,"Ġstrong":3187,"Ġ(âĨĳ(":3188,"Ġsatisfy":3189,"groupoid":3190,"line":3191,"âĤĤâĤģ":3192,"Ġregular":3193,"wf":3194,"Ġbalance":3195,"Ġâīª":3196,"which":3197,"ites":3198,"Ġrepeat":3199,"ereal":3200,"hq":3201,"haar":3202,"Ġfinitely":3203,"Ġderive":3204,"division":3205,"dfinsupp":3206,"ĠâĦ±":3207,"Ġcoprime":3208,"ticular":3209,"auto":3210,"oolean":3211,"stream":3212,"Ġres":3213,"Ġmake":3214,"circle":3215,"ĠhÎ¼s":3216,"carrier":3217,"ending":3218,"completion":3219,"Ġnonneg":3220,"Ġmonomial":3221,"Ġ(âĭĤ":3222,"invertible":3223,"done":3224,"Ġadjoint":3225,"ia":3226,"Ġhxs":3227,"Ġline":3228,"ĠâĪ¥(":3229,"Ġuseful":3230,"Ġbiproduct":3231,"zl":3232,"Ġhlt":3233,"Ġparticular":3234,"morphisms":3235,"superset":3236,"ĠhB":3237,"Ġhne":3238,"Ġ[*":3239,"Ġind":3240,"Ġabelian":3241,"erc":3242,"End":3243,"Ġisometry":3244,"most":3245,"algebraic":3246,"zy":3247,"inated":3248,"Ġnn":3249,"Ġgl":3250,"áµĩ":3251,"Ġquadratic":3252,"dec":3253,"upwards":3254,"clm":3255,"Ġoperations":3256,"preserving":3257,"functions":3258,"Ġsá¶ľ":3259,"art":3260,"under":3261,"âģħ":3262,"Ġcontrapose":3263,"setoid":3264,"bitrary":3265,"example":3266,"`.\"]":3267,"phere":3268,"Ġmaximal":3269,"splits":3270,"cheme":3271,"Ġstream":3272,"ĠJohannes":3273,"ĠHÃ¶lzl":3274,"]),":3275,"hz":3276,"reflects":3277,"elds":3278,"Ġintermediate":3279,"Ġâ¨ħ":3280,"ercion":3281,"]`.":3282,"aco":3283,"Ġsol":3284,"repeat":3285,"Ġless":3286,"omorphisms":3287,"surj":3288,"fract":3289,"law":3290,"germ":3291,"sis":3292,"Ġextension":3293,"Ġnumer":3294,"between":3295,"commute":3296,"An":3297,"}}":3298,"Ġulift":3299,"Ġsa":3300,"âŁ©),":3301,"Ġpresheaf":3302,"direction":3303,"lar":3304,"comparison":3305,"Ġman":3306,"Ġinclusion":3307,"bt":3308,"encode":3309,"asi":3310,"Ġdom":3311,"pand":3312,"cofork":3313,"Ġdiagonal":3314,"rational":3315,"Ġjoin":3316,"gue":3317,"Ġgroups":3318,"Ġpp":3319,"condexp":3320,"eta":3321,"tract":3322,"quently":3323,"modeq":3324,"Ġtake":3325,"ix":3326,"Ġhome":3327,"ider":3328,"Ġfractional":3329,"bson":3330,"smooth":3331,"Ġrpow":3332,"Ġrad":3333,"Ġcode":3334,"instances":3335,"Ġstate":3336,"Ġimplies":3337,"acobson":3338,"Ġlast":3339,"roth":3340,"foldr":3341,"flex":3342,"ĠâĮ":3343,"ĠhP":3344,"Ġsie":3345,"âŁ¨âŁ¨":3346,"solution":3347,"inator":3348,"Ġrevert":3349,"ness":3350,"Ġnonzero":3351,"Ġchoice":3352,"null":3353,"Ġequality":3354,"izer":3355,"omit":3356,"Ġcomputation":3357,"stru":3358,"ĠÎ£":3359,"decomposition":3360,"Ġunop":3361,"Ġsetoid":3362,"inducing":3363,"requently":3364,"Ġexist":3365,"atest":3366,"RingedSpace":3367,"Ġiterate":3368,"Ġâīĥ+*":3369,"resolve":3370,"fty":3371,"measurability":3372,"ns":3373,"ĠIci":3374,"fp":3375,"tmul":3376,"Ġslice":3377,"Ġindependent":3378,"âĤĤâĤĥ":3379,"ĠâĦµ":3380,"ental":3381,"that":3382,"circum":3383,"Ġsatisfi":3384,"_âĢº":3385,"Ġway":3386,"Ġequals":3387,"hyp":3388,"Spec":3389,"result":3390,"Ġhypotheses":3391,"padic":3392,"ĠAdd":3393,"iginal":3394,"nilpotent":3395,"Ġdivision":3396,"Ġtra":3397,"Ġâī¡":3398,"ushf":3399,"Ġappend":3400,"rough":3401,"ushfor":3402,"frobenius":3403,"Î¸":3404,"Ġ`âĪ¥":3405,"))),":3406,"ners":3407,"Ġpush":3408,"Ġinductive":3409,"ĠEx":3410,"Ġapplic":3411,"âģ°":3412,"ĠðĿĵŁ":3413,"las":3414,"nolint":3415,"Ġcarrier":3416,"ries":3417,"integ":3418,"Ġsubspace":3419,"heafedSpace":3420,"ĠâĬĹ[":3421,"ency":3422,"mmap":3423,"deg":3424,"Ġvan":3425,"foldl":3426,"Ġcommutes":3427,"xiom":3428,"Ġhypothesis":3429,"dam":3430,"Ġepi":3431,"Ġmay":3432,"striction":3433,"normalize":3434,"ification":3435,"Ġcauchy":3436,"Ġgalois":3437,"sertion":3438,"inclusion":3439,"segment":3440,"ushforward":3441,"next":3442,"rn":3443,"Ġtime":3444,"https":3445,"Ġ2022":3446,"can":3447,"Ġhle":3448,"Ġmt":3449,"âī«":3450,"hk":3451,"ients":3452,"Ġite":3453,"Ġopposite":3454,"classes":3455,"Ġparser":3456,"ocally":3457,"ĠPro":3458,"Ġlists":3459,"cave":3460,"Ġminimal":3461,"flection":3462,"ather":3463,"Ġcardinality":3464,"Ġsince":3465,"âĮĭ":3466,"our":3467,"ze":3468,"orner":3469,"âŁ¯":3470,"Ġâī¥":3471,"ĠIic":3472,"Ġprob":3473,"Ġqs":3474,"âŁ®":3475,"complement":3476,"first":3477,"localized":3478,"args":3479,"covering":3480,"Ġlike":3481,"cs":3482,"ither":3483,"context":3484,"Module":3485,"Ġfs":3486,"using":3487,"types":3488,"Ġmain":3489,"weak":3490,"Ġ``(":3491,"Ġdirection":3492,"ĠâĢ¹_âĢº":3493,"Note":3494,"eigen":3495,"ĠIio":3496,"Ġvalid":3497,"^(":3498,"odd":3499,"Ġreflects":3500,"prefix":3501,"ĠĠĠĠĠĠĠĠĠĠĠĠĠĠĠ":3502,"Ġbelow":3503,"Ġcircle":3504,"system":3505,"csin":3506,"cache":3507,"Ġtends":3508,"Ġuniver":3509,"Ġsemigroup":3510,"Ġneighborhood":3511,"Ġindicator":3512,"Ġhh":3513,"Ġweight":3514,"ĠâĹ":3515,"Ġheq":3516,"Ġâīĥ*":3517,"glue":3518,"Ġcolle":3519,"kip":3520,"Ġge":3521,"coord":3522,"Ġleast":3523,"Ġequalizer":3524,"side":3525,"ror":3526,"Ġsubsemiring":3527,"uniformly":3528,"ough":3529,"Ġlcm":3530,"sublist":3531,"trices":3532,"ocallyRingedSpace":3533,"imedean":3534,"bilin":3535,"square":3536,"vable":3537,"Ġ(*)":3538,"Ġcontradiction":3539,"preadditive":3540,"Ġrings":3541,"Ġmultiplicity":3542,"Ġscalar":3543,"âģ¿":3544,"Ġoperation":3545,"ĠTo":3546,"tructure":3547,"Ġallow":3548,"clic":3549,"topic":3550,"ĠĠĠĠĠĠĠĠĠĠĠĠĠĠĠĠĠĠĠĠĠĠĠĠĠĠĠĠĠĠĠĠ":3551,"bes":3552,"rder":3553,"ĠhN":3554,"Ġbs":3555,"mega":3556,"Ġru":3557,"Ġ(((":3558,"Ġtypevec":3559,"graded":3560,"iki":3561,"Ġsubobject":3562,"Ġ(âĪ«":3563,"![":3564,"ĠhÎ´":3565,"stmt":3566,"Ġsimps":3567,"Ġcalled":3568,"ĠhR":3569,"tically":3570,"ĠâĨ¦":3571,"Ġwide":3572,"Ġconnected":3573,"Ġcenter":3574,"Ġformat":3575,"cardinal":3576,"Ġsymmetric":3577,"property":3578,"inst":3579,"metic":3580,"Ġemetric":3581,"Ġomega":3582,"Ġthrough":3583,"ld":3584,"isation":3585,"Ġcond":3586,"pointwise":3587,"Ġtriangle":3588,"Ġcoefficients":3589,"uence":3590,"second":3591,"dig":3592,"%%":3593,"balance":3594,"okup":3595,"rewrite":3596,"Ġes":3597,"Ġvia":3598,"formal":3599,"Ġoriginal":3600,"Ġstates":3601,"borel":3602,"Ġ2018":3603,"format":3604,"omega":3605,"âĦĤ":3606,"Ġmonic":3607,"Ġinj":3608,"Ġrecur":3609,"Ġprincipal":3610,"separated":3611,"]]":3612,"qs":3613,"ĠhM":3614,"Ġsay":3615,"Ġpl":3616,"Ġcoprod":3617,"Ġexacts":3618,"sive":3619,"ordinate":3620,"Ġproducts":3621,"splitting":3622,"blank":3623,"reindex":3624,"metriz":3625,"Ġdone":3626,"ild":3627,"Ġadm":3628,"licit":3629,"Ġstatement":3630,"MOD":3631,"cov":3632,"Ġns":3633,"nection":3634,"ĠNot":3635,"ential":3636,"Ġhomomorphisms":3637,"subspace":3638,"parser":3639,"imum":3640,"alities":3641,".)":3642,"Ġside":3643,"ĠÎ¶":3644,"mpot":3645,"abel":3646,"Ġfork":3647,"logical":3648,"Ġpartition":3649,"ordinal":3650,"Ġtaking":3651,"used":3652,"Ġtangent":3653,"Ġcfg":3654,"Ġ[`":3655,"off":3656,"ĠâĭĤ":3657,"Ġsieve":3658,"hT":3659,"mfderiv":3660,"Ġtl":3661,"Ġtsum":3662,"ĠâīĮ":3663,"Ġhpq":3664,"lawful":3665,");":3666,"wiki":3667,"Ġcau":3668,"ifold":3669,"lib":3670,"triv":3671,"structured":3672,"generated":3673,"combination":3674,"Ġcreates":3675,"cat":3676,"search":3677,"Ġstructures":3678,"lax":3679,")âŁ©,":3680,"Ġnext":3681,"Ġauto":3682,"Ġrequire":3683,"Ġdeclaration":3684,"Ġereal":3685,"math":3686,"mmersion":3687,"nonzero":3688,"Ġinvertible":3689,"Ġlanguage":3690,"olutive":3691,"ĠConstruct":3692,"Ġspecialize":3693,"ect":3694,"wide":3695,"sequ":3696,"hes":3697,"Ġodd":3698,"shift":3699,"Ġalternating":3700,"gether":3701,"ĠThen":3702,"elab":3703,"minimal":3704,"Ġintersection":3705,"malizer":3706,"weighted":3707,"):":3708,"Ġts":3709,"Ġtan":3710,"Ġcore":3711,"artial":3712,"Ġmeasures":3713,"special":3714,"Î¦":3715,"Ġess":3716,"Ġrepr":3717,"Ġcoercion":3718,"fter":3719,"keys":3720,"Ġsemiconj":3721,"Ġtail":3722,"Ġâīªâī«":3723,"unity":3724,"dest":3725,"Ġcomputable":3726,"fore":3727,"mid":3728,"Ġwhisker":3729,"normalized":3730,"Ġfaithful":3731,"powerset":3732,"!\"":3733,"cfg":3734,"Ġim":3735,"iding":3736,"Ġobvious":3737,"Ġnaturality":3738,"besgue":3739,"fs":3740,"Ġsemin":3741,"ĠhÏĨ":3742,"Ġinduces":3743,"ĠMe":3744,"lip":3745,"Ġdirected":3746,"endie":3747,"Ġcould":3748,"Ġuses":3749,"Ġrelations":3750,"trivialization":3751,"rothendie":3752,"rothendieck":3753,"alter":3754,"Ġ[\"":3755,"surd":3756,"disj":3757,"hU":3758,"Ïī":3759,"Ġtgt":3760,"ged":3761,"Ġnotes":3762,"Ġhmn":3763,"bicone":3764,"Ġdifferent":3765,"gma":3766,"opow":3767,"uniq":3768,"Ġwithin":3769,"`(":3770,"even":3771,"Ġfull":3772,"Ġnsmul":3773,"Ġcondexp":3774,"ĠÏģ":3775,"spanning":3776,"circumcenter":3777,"Ġsatisfies":3778,"walk":3779,"Ġbilinear":3780,"Ġsimpl":3781,"Ġcolimits":3782,"ĠCom":3783,"ilar":3784,"imilar":3785,"permutations":3786,"Ġdimension":3787,"Ġ(<)":3788,"ĠCauchy":3789,"ĠÏĩ":3790,"strong":3791,"iod":3792,"Ġsmal":3793,"Ġtags":3794,"Ġsuc":3795,"diam":3796,"Ġirrational":3797,"derived":3798,"rack":3799,"many":3800,"eqv":3801,"ĠSemi":3802,"âĪĪ":3803,"corners":3804,"uard":3805,"attr":3806,"Ġold":3807,"Ġordering":3808,"trailing":3809,"Ġconsider":3810,"Ġcharacteristic":3811,"ready":3812,"ified":3813,"Ġ`:":3814,"ric":3815,"valued":3816,"Ġuniformity":3817,"Ġcontaining":3818,"Ġbinder":3819,"Ġordnode":3820,"Ġ2019":3821,"greatest":3822,"pped":3823,"Ġdrop":3824,"edges":3825,"havi":3826,"Ġavo":3827,"pmap":3828,"tangent":3829,"Ġlex":3830,"Ġdiam":3831,"Ġquiver":3832,"licial":3833,"ishing":3834,"attach":3835,"hÎ¼":3836,"nal":3837,"âĭ":3838,"Ġdenom":3839,"Ġconcrete":3840,"arily":3841,"thing":3842,"eliminator":3843,"elements":3844,"Ġcontinuity":3845,"ai":3846,"galois":3847,"hether":3848,"Ġlevel":3849,"traverse":3850,"Ġprincip":3851,"Ġprovided":3852,"aternion":3853,"fan":3854,"Ġwseq":3855,"Ġarbitrary":3856,"compacts":3857,"Ġadjunction":3858,"ferences":3859,"ping":3860,"Ïķ":3861,"Ġcoequalizer":3862,"entries":3863,"Ġdetermin":3864,"Ġwithout":3865,"position":3866,"elong":3867,"Ġabsurd":3868,"Ġcongruence":3869,"Ġcontext":3870,"equivalent":3871,"oint":3872,"Ġorthonormal":3873,"Ġultrafilter":3874,"âĤģâĤĥ":3875,"clopen":3876,"ants":3877,"Ġdifferenti":3878,"Ġiterated":3879,"rename":3880,"tan":3881,"Ġra":3882,"Ġalready":3883,"Ġencodable":3884,"Ġperiodic":3885,"cSup":3886,"Ġtauto":3887,"als":3888,"convergence":3889,"ĠTM":3890,"Ġcollection":3891,"pd":3892,"ille":3893,"primrec":3894,"Ġdeclarations":3895,"Ġstatements":3896,"mpotent":3897,"gi":3898,"ples":3899,"Ġparame":3900,"antitone":3901,"Ġisomorphisms":3902,"colum":3903,"}]":3904,"Ġbelong":3905,"lemmas":3906,"ifford":3907,"Ġthose":3908,"extr":3909,"associated":3910,"It":3911,"Ġhbc":3912,"Ġcovering":3913,"jacobson":3914,"Ġskip":3915,"melin":3916,"Ġrot":3917,"unctor":3918,"ĠâŁ¹":3919,"Ġgraph":3920,"Ã«l":3921,"damental":3922,"Ġuniverse":3923,"reassoc":3924,"Ġpreadditive":3925,"filtered":3926,"Ġsatisfying":3927,"kind":3928,"slope":3929,"ormed":3930,"way":3931,"Ġfoldr":3932,"Ġsubsemigroup":3933,"ĠReferences":3934,"signed":3935,"Ġtakes":3936,"Ġprovides":3937,"ðĿĵ¤":3938,"ytic":3939,"plus":3940,"associator":3941,"Ġfoldl":3942,"digits":3943,"`),":3944,"lation":3945,"Ġsdiff":3946,"Ġelim":3947,"Ġmak":3948,"acks":3949,"Ġapproxi":3950,"hA":3951,"Ġeither":3952,"Ġmust":3953,"Ġred":3954,"Ġconven":3955,"Ġnames":3956,"Ġhomogeneous":3957,"Ġinclude":3958,"fae":3959,"hS":3960,"trop":3961,"Ġalmost":3962,"test":3963,"ares":3964,"euclidean":3965,"ided":3966,"walking":3967,"Ġnull":3968,"ĠLet":3969,"flexive":3970,"Ġavoid":3971,"))))":3972,"Ġabsolute":3973,"period":3974,"continued":3975,"ĠâĮĬ":3976,"â¨":3977,"Ġ&":3978,"org":3979,"Ġfg":3980,"Ġlinter":3981,"Ġ-(":3982,"Ġwhether":3983,"projective":3984,"Ġalgebras":3985,"Ġenat":3986,"primcodable":3987,"_{":3988,"punit":3989,"Ġcall":3990,"geon":3991,"fig":3992,"fully":3993,"Ġtransformation":3994,"Ġsymmetry":3995,"iled":3996,"insertion":3997,"Ġhfi":3998,"Ġinst":3999,"âŁ©).":4000,"connection":4001,"Ġtogether":4002,"Ġusu":4003,"plac":4004,"Ġmodules":4005,"archimedean":4006,"CommGroup":4007,"constru":4008,"Ġanother":4009,"Ġformula":4010,"Ġgeneralized":4011,"Structure":4012,"ske":4013,"atlas":4014,"Ġexpres":4015,"Ġwant":4016,"Ġmatrices":4017,"Ġweak":4018,"Ġclose":4019,"Ġpossible":4020,"attern":4021,"rad":4022,"Ġgraded":4023,"continuity":4024,"ĠCommelin":4025,"round":4026,"degenerate":4027,"Ġgerm":4028,"ĠAs":4029,"malization":4030,"'`.":4031,"hI":4032,"ville":4033,"pex":4034,"Ġsimplex":4035,"edge":4036,"ĠModule":4037,"grade":4038,"Ġproofs":4039,"Ġcyclotomic":4040,"versable":4041,"Ġbalanced":4042,"Ġprinciple":4043,"hB":4044,"sUnion":4045,"absolute":4046,"ĠTwo":4047,"stein":4048,"ĠðĿĵ¤":4049,"Ġsends":4050,"ĠÎĽ":4051,"Ġij":4052,"Ġwitt":4053,"Ġsupre":4054,"urns":4055,"ĠðĿĴ°":4056,"cosh":4057,"aÃ«l":4058,"ŁŃ":4059,"Ġ(#":4060,"Ġ-[":4061,"Ġkno":4062,"âĨĳ":4063,"Ġinteractive":4064,"Ġchart":4065,"bundled":4066,"Ġsolve":4067,"pim":4068,"involutive":4069,"Ġfields":4070,"ically":4071,"version":4072,"uple":4073,"emb":4074,"tect":4075,"Ġbeing":4076,"fail":4077,"Ġtrivialization":4078,"grees":4079,"commutes":4080,"racket":4081,"'))":4082,"frequently":4083,"nf":4084,"patt":4085,"Ġvec":4086,"decode":4087,"âŁ©;":4088,"illies":4089,"ĠYaÃ«l":4090,"ĠDillies":4091,"solvable":4092,"Ġotherwise":4093,"pimorphism":4094,"Order":4095,"sphere":4096,"Ġtag":4097,"ended":4098,"heq":4099,"lta":4100,"entially":4101,"Ġarith":4102,"ĠCommRing":4103,"Ġ[*,":4104,"orig":4105,"Ġtorsion":4106,"std":4107,"Ġdon":4108,"Ġconvergence":4109,"Ġzip":4110,"Ġmonoids":4111,"ampleable":4112,"check":4113,"'',":4114,"IH":4115,"orn":4116,"ortion":4117,"mand":4118,"ĠÎ¦":4119,"Ġreset":4120,"Ġcomponent":4121,"ways":4122,"*>":4123,"bs":4124,"semin":4125,"color":4126,"Ġ(âĪħ":4127,"Ġminpoly":4128,"seminorm":4129,"NF":4130,"][":4131,"new":4132,"reduce":4133,"Ġconstructed":4134,"Ġinteger":4135,"btw":4136,"shrink":4137,"Ġcontained":4138,"ĠâĦį":4139,"Ġ<+":4140,"âĤĹáµ¢":4141,"----":4142,"Add":4143,"rb":4144,"Î¨":4145,"copy":4146,"ĠAny":4147,"ĠâĬ£":4148,"Ġprojective":4149,"supported":4150,"Ġcofork":4151,"port":4152,"á´":4153,"also":4154,"roid":4155,"thru":4156,"thickening":4157,"exponent":4158,"Ġfrontier":4159,"Ġfollows":4160,"bilinear":4161,"Ġ![":4162,"Ġ(+":4163,"Ġmdifferentiable":4164,"prepartition":4165,"Ġcompatible":4166,"noc":4167,"Ġsplits":4168,"ordan":4169,"content":4170,"Ġsinh":4171,"Ġarithmetic":4172,"she":4173,"reflect":4174,"oph":4175,"alternating":4176,"pnat":4177,"Ġbl":4178,"ĠâĨ¥":4179,"ulli":4180,"ĠThere":4181,"Ġifp":4182,"andom":4183,"noulli":4184,"argum":4185,"aylor":4186,"herence":4187,"aut":4188,"immersion":4189,"infty":4190,"Ġinjection":4191,"converg":4192,"ĠSpec":4193,"SheafedSpace":4194,"van":4195,"Ġbor":4196,"Ġback":4197,"Ġrhs":4198,"Ġlhs":4199,"ĠInter":4200,"Con":4201,"aves":4202,"subst":4203,"Ġconver":4204,"Ġnecess":4205,"Ġmove":4206,"Ġsource":4207,"arge":4208,"Ġlarge":4209,"fib":4210,"Ġsubsets":4211,"Ġexpressions":4212,"Ġsupremum":4213,"ĠresetI":4214,"PresheafedSpace":4215,"fpower":4216,"Ġsending":4217,"Ġflip":4218,"Ġed":4219,"ash":4220,"Ġgoals":4221,"âĪĳ":4222,"Ġpigeon":4223,"Ġeverywhere":4224,"ĠðĿķİ":4225,"ientation":4226,"'`,":4227,"Ġske":4228,"normalizer":4229,"Ġencode":4230,"corec":4231,"generalized":4232,"bra":4233,"Ġaleph":4234,"Ġsuper":4235,"rame":4236,"model":4237,"ĠâĬ¥)":4238,"boxes":4239,"Ġderived":4240,"hF":4241,"Ġcodomain":4242,"Ġprepartition":4243,"Ġforgetful":4244,"Ġcoefficient":4245,"hta":4246,"sep":4247,"verage":4248,"Ġenum":4249,"relation":4250,"associates":4251,"When":4252,"xy":4253,"time":4254,"ĠChr":4255,"Ġfailed":4256,"eded":4257,"ĠhG":4258,"Ġ`@[":4259,"dekind":4260,"Ġsums":4261,"ĠChris":4262,"volume":4263,"tio":4264,"quiv":4265,"Ġcomplement":4266,"numer":4267,"Ġappe":4268,"Ġnow":4269,"Ġbijection":4270,"rotation":4271,"Ġradius":4272,"Ġseminorm":4273,"ĠhÏĥ":4274,"compatible":4275,"Ġdelta":4276,"ĠSet":4277,"áµĢ":4278,"cyclic":4279,"Ġobviously":4280,"dy":4281,"|_":4282,"ret":4283,"ars":4284,"pping":4285,"Ġrestriction":4286,"subsemiring":4287,"Ġ<*>":4288,"ĠĠĠĠĠĠĠĠĠĠĠĠĠĠĠĠĠ":4289,"Ġnamespace":4290,"Ġcentral":4291,"ince":4292,"matically":4293,"expand":4294,"ĠBhavi":4295,"Ġsemilattice":4296,"cmd":4297,"ĠMehta":4298,"ĠBhavik":4299,"pushforward":4300,"indep":4301,"Ġtree":4302,"Ġalways":4303,"shapes":4304,"params":4305,"Ġshort":4306,"Ġcurr":4307,"dif":4308,"init":4309,"iting":4310,"Ġpf":4311,"substructure":4312,"singular":4313,"Ġwhole":4314,"chotom":4315,"kg":4316,"uxiliary":4317,"Ġshape":4318,"Ġls":4319,"Ġexactly":4320,"homotopic":4321,"cofinite":4322,"Ġseparated":4323,"Ġroots":4324,"tx":4325,"rol":4326,"Ġuniq":4327,"izes":4328,"evaluation":4329,"iou":4330,"Ġsupported":4331,"Al":4332,"Lattice":4333,"cInf":4334,"dedup":4335,"ersal":4336,"Ġapplied":4337,"Ġ9":4338,"Ġcmp":4339,"Ġreg":4340,"ðĿķ":4341,"ĠScheme":4342,"Ġtheorems":4343,"ĠLean":4344,"ail":4345,"goal":4346,"Ġ`-":4347,"Ġour":4348,"Ġ..(":4349,"Ġmonovary":4350,"Ġbicone":4351,"Ġauxiliary":4352,"Ġintegers":4353,"hst":4354,"ption":4355,"Ġafter":4356,"Ġty":4357,"contradiction":4358,"Ġcounit":4359,"ĠWhen":4360,"infix":4361,"coproduct":4362,"Ġdfinsupp":4363,"Ġproposition":4364,"linarith":4365,"Ġerr":4366,"ĠDefin":4367,"Set":4368,"run":4369,"âŁ¦":4370,"icategory":4371,"Ġpresieve":4372,"Ġstalk":4373,"GH":4374,"Ġinher":4375,"Ġgroupoid":4376,"Ġseparable":4377,"ili":4378,"itivity":4379,"Ġnm":4380,"Ġgo":4381,"emma":4382,"Ġforms":4383,"parts":4384,"but":4385,"cr":4386,"sg":4387,"xx":4388,"least":4389,"replace":4390,"stab":4391,"Ġremain":4392,"Ġobtained":4393,"Ġâĩĳ":4394,"odory":4395,"choice":4396,">]":4397,"[>]":4398,"npow":4399,"rans":4400,"Ġhac":4401,"Ġ`âĪĢ":4402,"Ġ_;":4403,"unfold":4404,"asing":4405,"idx":4406,"Ġcommon":4407,"Ġproves":4408,"Ġantivary":4409,"full":4410,"hC":4411,"áĹ":4412,"inates":4413,"Ġhand":4414,"mate":4415,"Ġ[@":4416,"applic":4417,"ffer":4418,"Ġmultiple":4419,"Ġ2017":4420,"Ġshift":4421,"áĹ®":4422,"boolean":4423,"zation":4424,"zel":4425,"Ġfloor":4426,"Ġcs":4427,"ĠPresheafedSpace":4428,"applied":4429,"sequence":4430,"axiom":4431,"ile":4432,"Ġaround":4433,"tices":4434,"unpair":4435,"abv":4436,"Ġ-,":4437,"pol":4438,"Ġvsub":4439,"neighbor":4440,"Ġsubfield":4441,"urent":4442,"Ġneeded":4443,"ĠÎµpos":4444,"Ġnoncomputable":4445,"Ġideals":4446,"Ġcurry":4447,"20":4448,"car":4449,"Ġ'":4450,"Ġcg":4451,"subfield":4452,"ĠHug":4453,"frontier":4454,"idem":4455,"Ġassociator":4456,"Ġemb":4457,"Ġsurj":4458,"iterated":4459,"Ġarrows":4460,"covby":4461,"ĠHughes":4462,"ÏĪ":4463,"reflection":4464,"Ġpa":4465,"prec":4466,"Ġrelated":4467,"Ġbijective":4468,"Ġterminal":4469,"cpow":4470,"hw":4471,"Ġhel":4472,"Ġ};":4473,"edu":4474,"ĠFq":4475,"powers":4476,"Ġcomparison":4477,"ĠUn":4478,"Ġinvol":4479,"âģº":4480,"âĬ¤":4481,"Comp":4482,"xor":4483,"Î»a":4484,"Ġlinearly":4485,"Ġevalu":4486,"Ġconverges":4487,"Semi":4488,"face":4489,"hle":4490,"hne":4491,"hÏĨ":4492,"Ġgp":4493,"ctively":4494,"Ġenough":4495,"nology":4496,"creasing":4497,"tails":4498,"tien":4499,"Ġ[])":4500,"Ġrun":4501,"ĠPre":4502,"ĠDo":4503,"antiate":4504,"Ġgrade":4505,"bump":4506,"pgame":4507,"Ġtrop":4508,"Ġfac":4509,"Ġpat":4510,"destruct":4511,"Ġgre":4512,"ceil":4513,"ational":4514,"ĠHa":4515,"chie":4516,"bij":4517,"conts":4518,"ĠâŁ¨âŁ¨_,":4519,"Ġoperator":4520,"Ġlogic":4521,"LocallyRingedSpace":4522,"ĠhL":4523,"Ġhalf":4524,"Ġspect":4525,"Ġxn":4526,"geometry":4527,"geometric":4528,"quadratic":4529,"Ġfinprod":4530,"wever":4531,"biprod":4532,"countably":4533,"Ġuniversal":4534,"Ġgeneralize":4535,"partrec":4536,"Ġvariant":4537,"Ġdependent":4538,"iouville":4539,"ssubset":4540,"err":4541,"Ġrank":4542,"Ġeigen":4543,"Ġguard":4544,"tinian":4545,"Ġsublists":4546,"equalities":4547,"Ġ...,":4548,"Ġnotion":4549,"Ġnndist":4550,"hÏĦ":4551,"sent":4552,"tree":4553,"Ġ([":4554,"orbit":4555,"alt":4556,"times":4557,"ĠKen":4558,"Ġenv":4559,"creates":4560,"Ġshows":4561,"Ġpowers":4562,"Ġanalytic":4563,"ters":4564,"Ġsense":4565,"Ġctx":4566,"see":4567,"Ġnd":4568,"Ġgc":4569,"trichotom":4570,"ĠGou":4571,"linder":4572,"Ġdoesn":4573,"terminated":4574,"searchable":4575,"}),":4576,"Ïĩ":4577,"Ġfib":4578,"three":4579,"multiples":4580,"zpowers":4581,"cker":4582,"dot":4583,"hj":4584,"Ġber":4585,"athe":4586,"Ġxy":4587,"ane":4588,"unk":4589,"ĠâĪĻ":4590,"ĠRing":4591,"ĠÎ²áµĴáµĪ":4592,"ĠPoint":4593,"Ġformul":4594,"suming":4595,"Ġpreform":4596,"imon":4597,"bastien":4598,"ĠUse":4599,"Ġdefining":4600,"idempotent":4601,"Ġpairs":4602,"Ġcosh":4603,"conditionally":4604,"PI":4605,"]`,":4606,"hK":4607,"}.":4608,"Ġhyz":4609,"Ġhts":4610,"Ġclasses":4611,"udon":4612,"ĠComposition":4613,"Ġbelongs":4614,"*`":4615,"Ġinput":4616,"ĠSÃ©":4617,"Ġhba":4618,"ĠâĪĤ(":4619,"Ġrequires":4620,"Ã«zel":4621,"ĠGouÃ«zel":4622,"ĠSÃ©bastien":4623,"bility":4624,"lp":4625,"any":4626,"âĪļ":4627,"ĠTheorem":4628,"sections":4629,"hxy":4630,"Ġlifts":4631,"Ġ`(%%":4632,"homology":4633,"Ġpowerset":4634,"truncate":4635,"arou":4636,"magma":4637,"Ġrewrite":4638,"subordinate":4639,"Ġfiber":4640,"nondiscrete":4641,"Ġ(âĪĪ":4642,"hyps":4643,"Ġworks":4644,"integer":4645,"applicative":4646,"aroubi":4647,"bd":4648,"ever":4649,"tization":4650,"post":4651,"Ġden":4652,"Ġremove":4653,"Ġsubtraction":4654,"Ġunbounded":4655,"Ġcontrol":4656,"ĠâĬ¤,":4657,"Ġcones":4658,"atomic":4659,"Haus":4660,"ap":4661,"sa":4662,"zing":4663,"Ġ,":4664,"Ġseg":4665,"Ġsimilar":4666,"Ġfound":4667,"cobounded":4668,"ross":4669,"ĠAl":4670,"Ġstmt":4671,"Ġantidiagonal":4672,"fractional":4673,"contravariant":4674,"radical":4675,"^âĪŀ":4676,"ments":4677,"znum":4678,"Ġfe":4679,"Ġrather":4680,"Ġnpow":4681,"ĠAPI":4682,"ĠLau":4683,"hxs":4684,"Ġversions":4685,"Ġ_âŁ©âŁ©,":4686,"Ġhomology":4687,"Ġmakes":4688,"ilizer":4689,"ĠKenny":4690,"Prop":4691,"]))":4692,"falso":4693,"Ġsort":4694,"Ġfrobenius":4695,"Ġeuclidean":4696,"implicit":4697,"Ġhttps":4698,"Ġmonomorphism":4699,"Ġequivalences":4700,"Ġtagged":4701,"\")":4702,"@(":4703,"To":4704,"language":4705,"|)":4706,"Ġ)":4707,"onential":4708,"atri":4709,"ulus":4710,"Ġinvariant":4711,"variance":4712,"ĠGroup":4713,"Ġprop":4714,"dia":4715,"incide":4716,"Ġassumptions":4717,"âĬ¥":4718,"==":4719,"hÎµ":4720,"ilter":4721,"lead":4722,"Ġhat":4723,"cocompact":4724,"entry":4725,"ĠSimon":4726,"Ġabel":4727,"âĦĵ":4728,"Ġsubmodules":4729,"Ġtape":4730,"Ġlazy":4731,"Ġratfunc":4732,"Ġ(*))":4733,"ailable":4734,"Hausdorff":4735,"ech":4736,"ħŁ":4737,"ĠâĨĴ.":4738,"Ġreplac":4739,"ĠEric":4740,"ĠLemma":4741,"Ġ`(@":4742,"Ġrealize":4743,"Ġuniformly":4744,"**:":4745,"Ġrule":4746,"Ġimport":4747,"Ġ(Â¬":4748,"eness":4749,"Ġbc":4750,"Ġbra":4751,"Ġrename":4752,"Ġrec":4753,"Ġdecode":4754,"quiver":4755,"ccur":4756,"ĠHudon":4757,"cies":4758,"Ġargs":4759,"Ġinfimum":4760,"contextual":4761,"dite":4762,"osing":4763,"encies":4764,"Ġcache":4765,"hed":4766,"ulti":4767,"sta":4768,"Ġinfin":4769,"Ġds":4770,"Ġconcave":4771,"ĠAuxiliary":4772,"Ġassert":4773,"prev":4774,"Ġlookup":4775,"binder":4776,"ratfunc":4777,"commutative":4778,"Ġrbnode":4779,"big":4780,"native":4781,"Ġepimorphism":4782,"ĠÎ±áµĲáµĴáµĸ":4783,"Ġide":4784,"subsemigroup":4785,"Ġcomput":4786,"Ġcomponents":4787,"equalizers":4788,"Ġcofix":4789,"gal":4790,"less":4791,"reme":4792,"stacks":4793,"Ġdot":4794,"ĠTrans":4795,"hou":4796,"dir":4797,"Ġeqv":4798,"Ġparts":4799,"Ġglue":4800,"lmul":4801,"rone":4802,"Ġhow":4803,"Ġturn":4804,"envel":4805,"Ġrs":4806,"arcsin":4807,"lob":4808,"liminf":4809,"âĪ¥`":4810,"Ġpermutations":4811,"ðĿĵŁ":4812,"Ġdifference":4813,"metrizable":4814,"ronecker":4815,"ale":4816,"dent":4817,"ĶĢ":4818,"erge":4819,"Ġpexpr":4820,"ung":4821,"))`":4822,"prob":4823,"Ġ_)]":4824,"tics":4825,"bia":4826,"Ġballs":4827,"Ġadmits":4828,"columbia":4829,"Ġusual":4830,"bung":4831,"pb":4832,"ĠRË£":4833,"Ġcoincide":4834,"jectiveRe":4835,"auge":4836,"andid":4837,"ĠĠĠĠĠĠĠĠĠĠĠĠĠĠĠĠĠĠĠĠ":4838,"nndist":4839,"constants":4840,"Ġrepresentation":4841,"chiebung":4842,"static":4843,"jectiveResolution":4844,"19":4845,"25":4846,"ax":4847,"bInter":4848,"horner":4849,"pwo":4850,"rep":4851,"anach":4852,"Ġreduce":4853,"Î»p":4854,"Ġmapping":4855,"itten":4856,"Ġ(âĪĳ'":4857,"Ġdominated":4858,"my":4859,"tprod":4860,"Ġhorner":4861,"concave":4862,"sublists":4863,"limsup":4864,"valid":4865,"Ġzsmul":4866,"freezing":4867,"ches":4868,"centralizer":4869,"ĠdimH":4870,"Ġautomatically":4871,"ĠhX":4872,"ĠbUnion":4873,"Ġgs":4874,"Ġznum":4875,"intermediate":4876,"Ġloc":4877,"Ġlax":4878,"Ġvertices":4879,"Ġwrite":4880,"Ġnonnegative":4881,"Ġnnnorm":4882,"Ġmanifold":4883,"ĠAddCommGroup":4884,"Ġprobability":4885,"]âŁ©,":4886,"hat":4887,"tuple":4888,"Ġ(|":4889,"Ġsqu":4890,"Ġpie":4891,"Ġinside":4892,"ason":4893,"ctan":4894,"pointed":4895,"resh":4896,"antichain":4897,"rting":4898,"Ġcombin":4899,"ðĿĴľ":4900,"Ġavailable":4901,"Ixx":4902,"hh":4903,"pth":4904,"pedia":4905,"Ġvol":4906,"Ġunfreezing":4907,"biproducts":4908,"Ġfails":4909,"Ġweighted":4910,"bracket":4911,"hR":4912,"uing":4913,"Ġlp":4914,"ĠNF":4915,"ĠcasesI":4916,"Ġtransitivity":4917,"Ġlib":4918,"rtingale":4919,"bol":4920,"lab":4921,"Ġacc":4922,"Ġtfae":4923,"timal":4924,"Ġcf":4925,"Ġrational":4926,"Ġpempty":4927,"ĠâŁ¨-":4928,"ĠðĿŁŃ":4929,"Ġproduces":4930,"Ġendow":4931,"Ġhomeomorphism":4932,"Ġtimes":4933,"Ġapproximat":4934,"Ġsegment":4935,"ofinite":4936,"typein":4937,"ffic":4938,"iew":4939,"charted":4940,"Ġtotally":4941,"Ġ(<)]":4942,"atheodory":4943,"restate":4944,"Ġcopy":4945,"think":4946,"Ġpermutation":4947,"Ġallows":4948,"*][":4949,"lest":4950,"coset":4951,"vection":4952,"Ġwas":4953,"concrete":4954,"Ġdig":4955,"Ġtoo":4956,"Ġmat":4957,"close":4958,"âŁ©âŁ©âŁ©":4959,"Ġâ¨¯":4960,"uster":4961,"sizeof":4962,"Ġintervals":4963,"ĠðĿĵĺ":4964,"Ġ`âĪĳ":4965,"Ġincludes":4966,".-/":4967,"snoc":4968,"Ġhpos":4969,"decompose":4970,"ĠRet":4971,"ister":4972,"Ġdestruct":4973,"esian":4974,"ĠPatri":4975,"isometric":4976,"infer":4977,"ĠĠĠĠĠĠĠĠĠĠĠĠĠĠĠĠĠĠĠĠĠ":4978,"Ġrespe":4979,"eigenspace":4980,"ĠâĹģ":4981,"midpoint":4982,"ĠunfreezingI":4983,"ĠPatrick":4984,"As":4985,"Lim":4986,"ativity":4987,"rcases":4988,"uz":4989,"Ġsti":4990,"Ġet":4991,"eds":4992,"Ġvs":4993,"Ġcannot":4994,"Ġnegation":4995,"Ġexponent":4996,"Ġ(âĪ«âģ»":4997,"pdf":4998,"bfamily":4999,"hP":5000,"sampleable":5001,"Ġpolar":5002,"ĠBa":5003,"stopping":5004,"factorisation":5005,"cmp":5006,"Ġ(+)":5007,"lev":5008,"lebesgue":5009,"Ġshrink":5010,"ĠâĨĴ[":5011,"nondegenerate":5012,"olds":5013,"Ġorders":5014,"Ġtraverse":5015,"Ġrecursive":5016,"iltered":5017,"nstein":5018,"Ġsolution":5019,"Ġful":5020,"Ġexfalso":5021,"othe":5022,"Ġuncurry":5023,"Ġmach":5024,"Ġpreserve":5025,"universe":5026,"symmetric":5027,"Ġseparate":5028,"rules":5029,"itesimal":5030,"Ġsmaller":5031,"Ġcurrent":5032,"/`":5033,"lam":5034,"iftr":5035,"Ġrewr":5036,"Ġreason":5037,"ĠâĦĻ":5038,"internal":5039,"Ġbeen":5040,"cancell":5041,"Ġâĸ·":5042,"clear":5043,"âĢ¢":5044,"Ġvert":5045,"Ġsigned":5046,"Ġapplication":5047,"canonical":5048,"ĠDefinition":5049,"Ex":5050,"hV":5051,"sen":5052,"sat":5053,"use":5054,"}`.":5055,"Ġentries":5056,"Ġ_)âŁ©":5057,"interpret":5058,"Ġensure":5059,"Ġinclu":5060,"Ġsuccess":5061,"Ġvertex":5062,"There":5063,"ection":5064,"md":5065,"mdifferentiable":5066,"Ġag":5067,"ised":5068,"tially":5069,"contain":5070,"Ġcovariant":5071,"Ġvadd":5072,"ansion":5073,"ĠBounded":5074,"Ġ_)],":5075,"Ġintroduce":5076,"attices":5077,"Ġnegative":5078,"Ġnode":5079,"ĠâĬ¥,":5080,"pis":5081,"tk":5082,"inct":5083,"Ġ(\"":5084,"Ġatom":5085,"Ġaxiom":5086,"Ġcc":5087,"Ġreflect":5088,"))]":5089,"ĠSt":5090,"ĠSince":5091,"Ġhcd":5092,"ood":5093,"CommRing":5094,"Ġexplicitly":5095,"Ġactually":5096,"Ġfully":5097,"cer":5098,"jordan":5099,"Ġtac":5100,"ress":5101,"coherence":5102,"artinian":5103,"gest":5104,"âĤĤâĤĤ":5105,"Ġmy":5106,"Ġdetails":5107,"hol":5108,"Ġprec":5109,"sheafify":5110,"centroid":5111,"Ġ#(":5112,"definition":5113,"bly":5114,"rc":5115,"ten":5116,"anen":5117,"dedekind":5118,"Ġsimplicial":5119,"Ġrest":5120,"process":5121,"Ġhyp":5122,"Ġident":5123,"arger":5124,"Ġprint":5125,"symmetry":5126,"Ġaux":5127,"Ġprimitive":5128,"buffer":5129,"Ġdeterminant":5130,"fficient":5131,"levant":5132,"';":5133,"apt":5134,"ccos":5135,"ev":5136,"hfi":5137,"ĠxR":5138,"Ġassuming":5139,"âŁ¨_,":5140,"Ġbefore":5141,"intros":5142,"amma":5143,"Ġâ§ı":5144,"aches":5145,"artesian":5146,"Ġrotate":5147,"cancellable":5148,"ÎĽ":5149,"remove":5150,"Ġxr":5151,"Ġpnat":5152,"Ġinde":5153,"oted":5154,"Ġhahn":5155,"Ġuni":5156,"ĠEvery":5157,"homological":5158,"Ġconstants":5159,"Ġfactorization":5160,"wikipedia":5161,"ĠDoorn":5162,"ords":5163,"mann":5164,"âŁ©))":5165,"âĤģâĤģ":5166,"Ġhfs":5167,"plift":5168,"stricted":5169,"Ġelab":5170,"Ġquasi":5171,"Ġâ¨ģ":5172,"Ġconsist":5173,"Ġdirectly":5174,"Ġprojections":5175,"airing":5176,"hint":5177,"ls":5178,"Ġam":5179,"Ġnfp":5180,"Ġgame":5181,"lookup":5182,"Ġreindex":5183,"quaternion":5184,"ĠâĬŀ":5185,"####":5186,"âĦļ":5187,"lexand":5188,"bilimit":5189,"Ġdefinitional":5190,"Ġevaluation":5191,"coding":5192,"Ġsupports":5193,"Ġconditionally":5194,"ĠCommMon":5195,"pretty":5196,"arguments":5197,"Normed":5198,"Ġ[],":5199,"geom":5200,"ĠMulti":5201,"Ġposition":5202,"irr":5203,"ched":5204,"Ġactions":5205,"densityáµ¥":5206,"âĮĭâĤĬ":5207,"artialOrder":5208,"ĠBaanen":5209,"NormedGroup":5210,"owever":5211,"sz":5212,"Ġ6":5213,"mass":5214,"isomorphisms":5215,"Ġ[-":5216,"Ġindep":5217,"iving":5218,"ĠFr":5219,"Ġfundamental":5220,"Ġmade":5221,"andard":5222,"Ġdown":5223,"ĠĠĠĠĠĠĠĠĠĠĠĠĠĠĠĠĠĠĠ":5224,"Ġtransfer":5225,"pullbacks":5226,"Ġ`âĬ¥":5227,"tracting":5228,"caratheodory":5229,"vig":5230,"Ġ`â¨":5231,"Ġlater":5232,"Ġrev":5233,"Ġyoneda":5234,"Ġthree":5235,"protect":5236,"aries":5237,"Ġsubgraph":5238,"ĠWies":5239,"Ġchosen":5240,"constructor":5241,"ĠWieser":5242,"(@":5243,"Ġagree":5244,"ĠhH":5245,"Ġ{}":5246,"Ġ`+":5247,"array":5248,"Ġdup":5249,"Î»n":5250,"Ġcolor":5251,"ĠCo":5252,"ĠLocallyRingedSpace":5253,"orsor":5254,"Ġuser":5255,"Ġnormalized":5256,"indexed":5257,"Ġproved":5258,"Ġtransitive":5259,"Ġhuv":5260,"complemented":5261,"andidates":5262,"dsimp":5263,"elem":5264,"hM":5265,"mise":5266,"oadd":5267,"utive":5268,"mpto":5269,"Ġgho":5270,"Ġmid":5271,"ĠâĦĿâģ¿":5272,"áµ¤":5273,"cay":5274,"priate":5275,"haus":5276,"Ġarcsin":5277,"Ġabsor":5278,"Ġ(*),":5279,"Ġsimplify":5280,"Ġconvenient":5281,"lobal":5282,"Ġpiecewise":5283,"othety":5284,"Ġghost":5285,"jor":5286,"Ġsphere":5287,"such":5288,"hel":5289,"ratio":5290,"ĠSheaf":5291,"ĠFlor":5292,"Ġ10":5293,"ĠGalois":5294,"sibly":5295,"normalization":5296,"Ġsubgroups":5297,"gram":5298,"ĠAnne":5299,"Ġpartrec":5300,"defined":5301,"Ġexistence":5302,"Ġstill":5303,"ĠFloris":5304,"]).":5305,"fect":5306,"ipschitz":5307,"ost":5308,"rofinite":5309,"|âŁ¨":5310,"Îº":5311,"Ġ()":5312,"ĠhQ":5313,"matic":5314,"algebras":5315,"suffices":5316,"Ġeasi":5317,"ription":5318,"Ġwhile":5319,"Ġconsists":5320,"Ġhomological":5321,"Ġlogb":5322,"Ġsequences":5323,"]},":5324,"ĸ£":5325,"Ġ(âī¥":5326,"erem":5327,"along":5328,"Ġ`_":5329,"Ġinducing":5330,"Ġisometric":5331,"Ġexpand":5332,"Ġcoord":5333,"ftaylor":5334,"adow":5335,"âĪ¥,":5336,"âĦ±":5337,"Ġmultip":5338,"Ġdivide":5339,"Ġspecific":5340,"Ġimplement":5341,"Ġstronger":5342,"Ġsays":5343,"Ġexpressed":5344,"vanishing":5345,"ympto":5346,"Ġput":5347,"Ġinit":5348,"Ġsure":5349,"ĠMass":5350,"Ġunused":5351,"Ġhfm":5352,"Ġequation":5353,"ĠWitt":5354,"Ġhnm":5355,"Ġordinals":5356,"totally":5357,"Ġboxes":5358,"manifold":5359,"enumer":5360,"pexpr":5361,"Ġduplic":5362,"eremy":5363,"Pro":5364,"sch":5365,"ĠhÎ¶":5366,"Ġrandom":5367,"Ġlb":5368,"config":5369,"loc":5370,"hole":5371,"Ġsearch":5372,"Ġcontent":5373,"Ġdioph":5374,"ĠâĩĴ":5375,"weights":5376,"Ġnecessary":5377,"Ġrespectively":5378,"vigad":5379,"nm":5380,"nhd":5381,"Ġnc":5382,"Ġpd":5383,"Ġ}),":5384,"Ġwf":5385,"polar":5386,"Ġreflection":5387,"âĪ«":5388,"Ġ<$":5389,"Ġopow":5390,"Ġtactics":5391,"export":5392,"Ġmean":5393,"potency":5394,"Ġappropriate":5395,"Ġrules":5396,"âĭĨ":5397,"Ġregister":5398,"Let":5399,"You":5400,"cul":5401,"roff":5402,"sf":5403,"squ":5404,"uring":5405,"âĤħ":5406,"ings":5407,"Ġliouville":5408,"Ġdir":5409,"Ġread":5410,"))âŁ©":5411,"plane":5412,"Ġprevious":5413,"âīł":5414,"minor":5415,"Ġfunctorial":5416,"Ġdefinitionally":5417,"Ġstart":5418,"Ġconditions":5419,"Ġ`âĪ«":5420,"Ġsmallest":5421,"ĠSemiRing":5422,"á´´":5423,"Ġlibrary":5424,"ĠMassot":5425,"GÎ´":5426,"Then":5427,"cb":5428,"torsor":5429,"ĠâŁ¨_":5430,"usive":5431,"âŁ¨(":5432,"milies":5433,"Ġparallel":5434,"Ġ(âĢ":5435,"Ġsplitting":5436,"ĠĠĠĠĠĠĠĠĠĠĠĠĠĠĠĠĠĠ":5437,"hpq":5438,"cofan":5439,"continuants":5440,"Ġsteps":5441,"midt":5442,"Ġagain":5443,"lexandroff":5444,"oc":5445,"pattern":5446,"ĺ),":5447,"ĠhÏĦ":5448,"decay":5449,"Ġ==":5450,"ddle":5451,"finprod":5452,"ĠMar":5453,"ĠEnd":5454,"ĠBo":5455,"Ġfilters":5456,"Ġclifford":5457,"Ġvalued":5458,"Ġapplies":5459,"Ġtranspose":5460,"Ġmaximum":5461,"ustom":5462,"TODO":5463,"](":5464,"ipointed":5465,"inators":5466,"itali":5467,"ĠxL":5468,"mmer":5469,"triple":5470,"Ġsublist":5471,"veral":5472,"urally":5473,"Ġexponential":5474,"glued":5475,")^(":5476,"âĮī":5477,"Ġblocks":5478,"skeleton":5479,"âĦĵp":5480,"helper":5481,".\",":5482,"martingale":5483,"Ġ`âī¤":5484,"Ġoften":5485,"Ġthickening":5486,"opt":5487,"'']":5488,"Ġcountp":5489,"Ġoutput":5490,"black":5491,"Ġmidpoint":5492,"'')":5493,"hJ":5494,"push":5495,"orientation":5496,"Ġpq":5497,"simplicial":5498,"Ġoccur":5499,"pretrivialization":5500,"hammer":5501,"terms":5502,"Ġintegrals":5503,"Ġprf":5504,"Ġimplicit":5505,"Ġ._,":5506,"ĠReinterpret":5507,"clog":5508,"rs":5509,"sion":5510,"ensto":5511,"restr":5512,"Ġcar":5513,"Ġgen":5514,"ĠAvigad":5515,"Ġ*]":5516,"clifford":5517,"Ġ((*)":5518,"Ġ_)âŁ©,":5519,"Ġequi":5520,"quee":5521,"itting":5522,"mented":5523,"Ġderivatives":5524,"associative":5525,"projections":5526,"Ġsizeof":5527,"Ġcreate":5528,"stmts":5529,"enstock":5530,"onic":5531,"lect":5532,"Ġca":5533,"anal":5534,"posed":5535,"simplex":5536,"âĪĥ":5537,"Ġadding":5538,"noncomm":5539,"extreme":5540,"Ġextended":5541,"ĠJeremy":5542,"hahn":5543,"distortion":5544,"Ġwhat":5545,"Ġloop":5546,"âĪŀ`":5547,"Ġwhenever":5548,"Ġbottom":5549,"Ġlaw":5550,"Ġadditional":5551,"Ġknown":5552,"ĠâĨ¥(":5553,"quivalen":5554,"Ġendowed":5555,"queeze":5556,"/(":5557,"Scheme":5558,"bc":5559,"hand":5560,"Ġhence":5561,"Ġslope":5562,"ulo":5563,"Ġredu":5564,"otonic":5565,"fundamental":5566,"call":5567,"assumption":5568,"numeral":5569,"Ġappear":5570,"lsub":5571,"wis":5572,"Ġ_âŁ©âŁ©":5573,"Ġrow":5574,"ann":5575,"user":5576,"lique":5577,"`.-/":5578,"ĠSheafedSpace":5579,"ĠPi":5580,"transvec":5581,"positive":5582,"derivation":5583,"ourier":5584,"separating":5585,"Ġvarious":5586,"Ġcorrect":5587,"graphic":5588,"presentation":5589,"densely":5590,"ickened":5591,"Ġcanonically":5592,"Ġedge":5593,"culant":5594,"return":5595,"Ġcartesian":5596,"Ġdite":5597,"ĠâŁ¨âŁ©,":5598,"ltration":5599,"expression":5600,"Ġfinsets":5601,"Ġmonadic":5602,"traversable":5603,"ĠOne":5604,"Ġ(â¨ģ":5605,"terminates":5606,"Ġradical":5607,"reduced":5608,"enumerable":5609,"ffix":5610,"ran":5611,"zeta":5612,"Ġbounds":5613,"mean":5614,"Ġpps":5615,"asc":5616,"Ġgrothendieck":5617,"ĠâŁ¨âŁ©":5618,"Ġreflexive":5619,"Ġrestricted":5620,"Ġonce":5621,"ĠSub":5622,"Ġapplying":5623,"pren":5624,"ĠTheory":5625,"Ġnaturally":5626,"agon":5627,"Ġassumes":5628,"Ġquaternion":5629,"separation":5630,"ihil":5631,"ĠLebesgue":5632,"Ġconstructions":5633,"ĠNotation":5634,"convergents":5635,"SemiRing":5636,"`/`":5637,"isim":5638,"til":5639,"coinduced":5640,"ĠâĪĨ":5641,"velo":5642,"Ġinequalities":5643,"Ġexcept":5644,"pected":5645,"Ġthink":5646,"prove":5647,"Ġdecomposition":5648,"Ġlean":5649,"Ġproduce":5650,"âĨĴ":5651,"cidence":5652,"Ġseveral":5653,"Ġcomma":5654,"Ġacross":5655,"Ġsquarefree":5656,"Ġessentially":5657,"Ġknow":5658,"schmidt":5659,"Ġ(âĢ¢":5660,"az":5661,"ods":5662,"ton":5663,"Ġfan":5664,"ement":5665,"malga":5666,"hij":5667,"Ġnilpotent":5668,"Ġsyn":5669,"Ġbinders":5670,"stabilizer":5671,"uration":5672,"rei":5673,"tit":5674,"sec":5675,"âĤĸ":5676,"Ġboolean":5677,"Ġ`#":5678,"Ġpattern":5679,"Ġconformal":5680,"ðĿĶ":5681,"angements":5682,"cofiltered":5683,"ramer":5684,"Ġembeddings":5685,"âŁ«)":5686,"Ġmetavariables":5687,"Ġ`âĬ¤":5688,"Ġinstantiate":5689,"?)":5690,"`[":5691,"hX":5692,"Ġfrequently":5693,"enri":5694,"itch":5695,"suc":5696,"cocones":5697,"Ġgood":5698,"Ġrefle":5699,"Ġanalo":5700,"Ġcovariance":5701,"ĠâĬĤ":5702,"variate":5703,"nonym":5704,"Ġmath":5705,"Ġequalities":5706,"Ġlook":5707,"Ġstandard":5708,"Ġhgf":5709,"Ġsometimes":5710,"elling":5711,"Ġterminates":5712,"hnf":5713,"ĠâĪŀ,":5714,"Ġcombination":5715,"Ġsylow":5716,"convolution":5717,"sheaves":5718,"braided":5719,"Ġdigits":5720,"hickening":5721,"rk":5722,"Ġ8":5723,"ĠhÏĢ":5724,"Ġfoo":5725,"refle":5726,"cthickening":5727,"Ġmb":5728,"etter":5729,"Ġconverg":5730,"Ġcocones":5731,"Ġpoly":5732,"ĠThese":5733,"stract":5734,"Ġgenerates":5735,"Ġfacts":5736,"tomorphism":5737,"^âĪŀâŁ®":5738,"Ġetc":5739,"Ġmachine":5740,"Ġprecise":5741,"ymptotics":5742,"ihilator":5743,"Pi":5744,"average":5745,"fection":5746,"scale":5747,"whnf":5748,"Ġ7":5749,"Ġhis":5750,"Ġfl":5751,"tical":5752,"Ġbicategory":5753,"abelling":5754,"totient":5755,"Ġglobal":5756,"ĠyR":5757,"Ġyn":5758,"light":5759,"utually":5760,"Ġalist":5761,"bert":5762,"âĪŀ,":5763,"Ġeverything":5764,"ugates":5765,"boolalg":5766,"Ġwritten":5767,"Ġproblem":5768,"Ġdifferentiability":5769,"Ġconsisting":5770,"HS":5771,"mf":5772,"osed":5773,"Ġcer":5774,"colex":5775,"stor":5776,"Ġmight":5777,"Ġreaches":5778,"except":5779,"âĪħ":5780,"ĠâĪĢ{":5781,"Ġhash":5782,"Ġhfx":5783,"Ġmembers":5784,"ĠÃĹ[":5785,"Ġimages":5786,"Ġstructured":5787,"binom":5788,"dimH":5789,"bour":5790,"Ġantilipschitz":5791,"Ġconvolution":5792,"Ġnumeric":5793,"Ġplus":5794,"Ġbernoulli":5795,"csupr":5796,"sInter":5797,"satis":5798,"uch":5799,"Î¾":5800,"âĶĢ":5801,"ĠhÎ±":5802,"ĠpSet":5803,"Ġinformation":5804,"ivity":5805,"ped":5806,"Ġrefer":5807,"ĠFin":5808,"Ġunity":5809,"Ġuntrop":5810,"ĠintrosI":5811,"ĠĠĠĠĠĠĠĠĠĠĠĠĠĠĠĠĠĠĠĠĠĠĠ":5812,"conjugate":5813,"pts":5814,"dominated":5815,"Ġalternative":5816,"precated":5817,"Ġspectrum":5818,"trichotomy":5819,"probability":5820,"Ġmathlib":5821,"cri":5822,"merge":5823,"rence":5824,"Ġsf":5825,"âĤķ":5826,"Ġ```":5827,"Ġnp":5828,"ĠâŁ¨{":5829,"mkpair":5830,"supports":5831,"verts":5832,"Ġadded":5833,"Ġ(-(":5834,"ĠLewis":5835,"Ġtruncated":5836,"ĠSemiNormedGroup":5837,"ðĿķĤ":5838,"polish":5839,"Ġ(âī¥)":5840,"`'":5841,"yn":5842,"Ġaway":5843,"orus":5844,"Ġcthickening":5845,"coproducts":5846,"Ġna":5847,"acent":5848,"serv":5849,"mkq":5850,"images":5851,"irst":5852,"Ġlocale":5853,"Ġdimensional":5854,"ðĿĴ°":5855,"Ġfew":5856,"av":5857,"eomorph":5858,"ml":5859,"pfunctor":5860,"sor":5861,"Ġ`|":5862,"Ġdunfold":5863,"ĠÎ»x":5864,"Ġdedup":5865,"ĠSe":5866,"ĠEi":5867,"ilbert":5868,"there":5869,"Ġbeco":5870,"relindex":5871,"Ġlifted":5872,"Theory":5873,"recur":5874,"Ġcomon":5875,"CommMon":5876,"pencer":5877,"Ġnumeral":5878,"ĠâĮĪ":5879,"De":5880,"bsup":5881,"four":5882,"rand":5883,"wice":5884,"Ġ(_,":5885,"Ġhsub":5886,"orelse":5887,"issible":5888,"enat":5889,"Ġbetter":5890,"ĠyL":5891,"subcategory":5892,"chhammer":5893,"ĠâĪĥ!":5894,"relations":5895,"Ġihn":5896,"ĠðĿĴ¢":5897,"presents":5898,"Ġexamples":5899,"Ġbuild":5900,"Ġglued":5901,"Ġtrailing":5902,"Ġvanishing":5903,"Ġdifferential":5904,"Ġinherit":5905,"Ġgreater":5906,"\".":5907,"fic":5908,"ib":5909,"pkg":5910,"srange":5911,"âŁª":5912,"Ġlf":5913,"Ġlattices":5914,"Ġgauge":5915,"ĠMË£":5916,"Ġconfig":5917,"Ġvars":5918,"Ġproving":5919,"adr":5920,"Ġhigh":5921,"Ġcommutator":5922,"seud":5923,"Ġsymbol":5924,"Ġcommand":5925,"absolutely":5926,"Ġskew":5927,"ĠLemmas":5928,")âŁ§":5929,"Fin":5930,"case":5931,"foo":5932,"hG":5933,"ling":5934,"rarily":5935,"tgt":5936,"inc":5937,"error":5938,"Ġtp":5939,"Ġtá¶ľ":5940,"Ġfn":5941,"Ġ_)))":5942,"coatom":5943,"Ġindic":5944,"Ġunify":5945,"ĠEquivalen":5946,"logb":5947,"Ġprev":5948,"sups":5949,"eneral":5950,"key":5951,"Ġexistsi":5952,"bitrarily":5953,"ĠðĿĴ¥":5954,"Ġdomains":5955,"Ġ(_|_":5956,"correct":5957,"Ġnontriviality":5958,"whiskering":5959,"measurably":5960,"pext":5961,"Ġsuperpolynomial":5962,"Ġdivides":5963,"Ġequipped":5964,"lint":5965,"ĠÂ":5966,"Ġ/--":5967,"only":5968,"Ġ`<":5969,"ĠÎ±Ë£":5970,"Ġmsg":5971,"Ġrelevant":5972,"Ġhxz":5973,"ĠHe":5974,"translation":5975,"Ġmagma":5976,"semiconj":5977,"Ġdefeq":5978,"Ġorbit":5979,"charpoly":5980,"Ġfract":5981,"sorted":5982,"Ġchecks":5983,"Ġ[*]":5984,"flexivity":5985,"Ġ(+),":5986,"Ġcentralizer":5987,"prenex":5988,"reiman":5989,"ays":5990,"tp":5991,"upp":5992,"Ġhold":5993,"erior":5994,"env":5995,"Ġpkg":5996,"decor":5997,"Ġinfix":5998,"Ġlr":5999,"Ġrepresents":6000,"ĠMa":6001,"ĠAnd":6002,"ĠâĬ¨":6003,"values":6004,"ĠNow":6005,"Ġ\"`":6006,"tispan":6007,"ĠĠĠĠĠĠĠĠĠĠĠĠĠĠĠĠĠĠĠĠĠĠ":6008,"Ġfamilies":6009,"solvent":6010,"Ġâ¨¿":6011,"when":6012,"intervals":6013,"verschiebung":6014,"Ġholor":6015,"Ġdivisors":6016,"ðĿĴ¢":6017,"Ġtruncate":6018,"metrization":6019,"Ġparameter":6020,"origin":6021,"contains":6022,"^{":6023,"mvars":6024,"Ġ####":6025,"Ġaverage":6026,"coyoneda":6027,"arctan":6028,"conformal":6029,"Ġview":6030,"tape":6031,"lifting":6032,"Ġhoms":6033,"Ġfiles":6034,"multicospan":6035,"Ġgeneralization":6036,"Ġcountably":6037,"Ġimplementation":6038,"Ġrequired":6039,"blsub":6040,"depth":6041,"commutator":6042,"Ġparameters":6043,"braiding":6044,"postcompose":6045,"Ġdenoted":6046,"apted":6047,"Ġ<$$>":6048,"Ġcomonad":6049,"01":6050,"ov":6051,"Ġpqs":6052,"arts":6053,"arbitrary":6054,"endomorphism":6055,"Ġgiving":6056,"Ġub":6057,"ĠLo":6058,"Ġstd":6059,"Ġnoncomm":6060,"Ġgenerally":6061,"ymmetrization":6062,"disjointed":6063,"Ġminimum":6064,"Ġstarting":6065,"Ġspecified":6066,"Ġcyclic":6067,"operator":6068,"Ġconsidered":6069,"convergent":6070,"adrant":6071,"!)":6072,"away":6073,"eil":6074,"gf":6075,"mrange":6076,"pat":6077,"pairing":6078,"uis":6079,"reflexive":6080,"Ġhaving":6081,"Ġpost":6082,"middle":6083,"antor":6084,"functorial":6085,"These":6086,"Ġâĭĸ":6087,"cylinder":6088,"Ġsingular":6089,"Ġcontravariant":6090,"definable":6091,"hough":6092,"otonicity":6093,"amalga":6094,"fmt":6095,"go":6096,"áĺ":6097,"Ġaug":6098,"Ġfast":6099,"tian":6100,"Ġ{(":6101,"Ġrr":6102,"Ġpushforward":6103,"ifunctor":6104,"Ġonto":6105,"ĠLift":6106,"Ġprefix":6107,"ober":6108,"Ġhcb":6109,"Ġarbitrarily":6110,"bornology":6111,"Ġcorresponds":6112,"Ġdepends":6113,"Ġsections":6114,"Ġlevels":6115,"tropical":6116,"Ġborel":6117,"ĠReturns":6118,"áĺģ":6119,"!,":6120,"50":6121,":=":6122,"hÏĥ":6123,"Ġshe":6124,"ĠcInf":6125,"Ġray":6126,"Ġlong":6127,"Ġsufficient":6128,"Ġcoproduct":6129,"utter":6130,"Ġsubstructure":6131,"Ġmajor":6132,"Ġpreterm":6133,"Ġpresent":6134,"parame":6135,"Ġderivation":6136,"cofix":6137,"Ġspanning":6138,"Ġcompacts":6139,"Ġfractions":6140,"sylow":6141,"squarefree":6142,"skew":6143,"Ġhelp":6144,"ĠPointwise":6145,"uzzy":6146,"ĠDefinitions":6147,"Ġindeed":6148,")},":6149,"fresh":6150,"hH":6151,"linter":6152,"onment":6153,"ley":6154,"Ġea":6155,"cech":6156,"Ġantis":6157,"optimal":6158,"Ġdepth":6159,"spaces":6160,"Ġatlas":6161,"premise":6162,"urther":6163,"ironment":6164,"Ġprefer":6165,"temp":6166,"Ġ/.":6167,"note":6168,"Ġorientation":6169,"ĠZF":6170,"modify":6171,"ĠâĭĨ":6172,"hmn":6173,"Ġvery":6174,"Ġsynonym":6175,"Ġsaying":6176,"column":6177,"CompHaus":6178,"TM":6179,"Ġ;":6180,"Ġsta":6181,"Ġsized":6182,"Ġbsup":6183,"ofunctor":6184,"ltensor":6185,"ctions":6186,"Ġoangle":6187,"Ġ((-":6188,"ĠBanach":6189,"parse":6190,"generator":6191,"Ġ_âŁ©),":6192,"adjugate":6193,"boolring":6194,"library":6195,"errors":6196,"ranch":6197,"Lhom":6198,"Mo":6199,"hip":6200,"tfae":6201,"itable":6202,"Ġxt":6203,"aron":6204,"unused":6205,"endre":6206,"derson":6207,"ĠAaron":6208,"ĠBor":6209,"dices":6210,"diffeomorph":6211,"Ġmodeq":6212,"Ġoplax":6213,"ĠĠĠĠĠĠĠĠĠĠĠĠĠĠĠĠĠĠĠĠĠĠĠĠĠĠĠ":6214,"expansion":6215,"ĠAnderson":6216,"Ġverify":6217,"Ġrepresented":6218,"Ġpigeons":6219,"Ġbraided":6220,"11":6221,"incidence":6222,"Ġhmeas":6223,"Ġ`âŁ¨":6224,"ics":6225,"Ġvar":6226,"Ġhxt":6227,"ĠKev":6228,"ird":6229,"modules":6230,"Ġpreserving":6231,"Ġhyx":6232,"Ġabbreviation":6233,"cket":6234,"character":6235,"ĠâŁ¨âŁ¨âŁ¨":6236,"Ġsemireducible":6237,"Ġdeclare":6238,"Ġsaid":6239,"Ġapplicative":6240,"Ġsucce":6241,"Ġrotation":6242,"Ġcharted":6243,"Ġeasier":6244,"annihilator":6245,"ĠKevin":6246,"hN":6247,"late":6248,"nc":6249,"random":6250,"slice":6251,"spencer":6252,"Ļ¯":6253,"Ġrl":6254,"Ġlabel":6255,"peated":6256,"Ġwords":6257,"Ġmmap":6258,"lias":6259,"Ġdesi":6260,"Ġâī¤[":6261,"ĠProfinite":6262,"Ġunf":6263,"Ġ_);":6264,"Ġstack":6265,"countp":6266,"Ġtranslation":6267,"Ġbij":6268,"Ġbiproducts":6269,"inclusive":6270,"disconnected":6271,"Ġresulting":6272,"Ġ._":6273,"âŁ«_":6274,"Ġneeds":6275,"Ġrespects":6276,"Ġinherits":6277,"12":6278,"clique":6279,"hÎ´":6280,"kts":6281,"lass":6282,"nim":6283,"restriction":6284,"tidy":6285,"Ġpseud":6286,"concat":6287,"Ġyet":6288,"Ġsetting":6289,"utes":6290,"Ġkaroubi":6291,"ĠHowever":6292,"ĠLipschitz":6293,"Ġcluster":6294,"pher":6295,"kernels":6296,"Ġspecify":6297,"laurent":6298,"Ġ[(âĪ":6299,"atoms":6300,"ĠDefine":6301,"Ġcircum":6302,"Ġsystem":6303,"balanced":6304,"Ġesti":6305,"âĭĥ":6306,"Ġnecessarily":6307,"ĠAlgebra":6308,"TC":6309,"guard":6310,"ĠhE":6311,"Ġexpl":6312,"Ġâīº":6313,"ĠCh":6314,"ĠPol":6315,"presieve":6316,"mitian":6317,"dioph":6318,"ĠÂ¬(":6319,"versals":6320,"Ġautomorphism":6321,"combo":6322,"rule":6323,"Ġacts":6324,"Ġgeom":6325,"Alg":6326,"Ġremaining":6327,"salem":6328,"ĠTransfer":6329,"âĢ¢)":6330,"success":6331,"Dist":6332,"grothendieck":6333,"kin":6334,"}\"":6335,"};":6336,"}))":6337,"Ġscale":6338,"Ġbased":6339,"Î»i":6340,"Ġdegrees":6341,"defs":6342,"mode":6343,"smulâĤĽâĤĹ":6344,"hfs":6345,"ĠInt":6346,"ĠOn":6347,"Ġhomotopic":6348,"Ġdisj":6349,"Ġinference":6350,"mands":6351,"ÏīSup":6352,"Ġblsub":6353,"Ġbornology":6354,"Ġconfiguration":6355,"uppose":6356,"hing":6357,"}`,":6358,"Ġba":6359,"costructured":6360,"Ġgi":6361,"âĤģâģ°":6362,"eth":6363,"Ġ*>":6364,"ĠShow":6365,"ĠBas":6366,"ĠDáµĴáµĸ":6367,"aug":6368,"aming":6369,"Ġapprox":6370,"fixing":6371,"Ġbitvec":6372,"decls":6373,"Ġmatches":6374,"ĠMark":6375,"obert":6376,"nfp":6377,"zmultiples":6378,"âħŁ":6379,"Ġxl":6380,"Ġgt":6381,"Ġexpect":6382,"pell":6383,"ĠRobert":6384,"ĠMac":6385,"uting":6386,"ĠFirst":6387,"negative":6388,"Ġattr":6389,"Ġmark":6390,"pologies":6391,"Ġhys":6392,"Ġones":6393,"Ġdistinct":6394,"Ġadjugate":6395,"ighbour":6396,"Ġconjugate":6397,"Ġseparation":6398,"ĠCompact":6399,"Ġtransformations":6400,"Ġrewriting":6401,"ighbourho":6402,"._":6403,"GL":6404,"Sheaf":6405,"Un":6406,"ZMOD":6407,"[âīł":6408,"bicategory":6409,"Ġhmem":6410,"ĠÎ¨":6411,"ĠÎ©":6412,"constr":6413,"Î»y":6414,"Ġcostructured":6415,"thd":6416,"Ġ((<":6417,"irthd":6418,"lifts":6419,"Ġtypeclasses":6420,"''}":6421,"Ġelementwise":6422,"binfi":6423,"Ġassociative":6424,"ĠhÎ¼t":6425,"Ġfactorial":6426,"Ġtropical":6427,"Ġreducible":6428,"[âīł]":6429,"$.":6430,"<]":6431,"[<]":6432,"aker":6433,"cg":6434,"gm":6435,"Ġentry":6436,"infin":6437,"Ġhex":6438,"Ġfour":6439,"enne":6440,"Ġbt":6441,"loat":6442,"Î»s":6443,"Ġforward":6444,"ĠLim":6445,"Ġfiltration":6446,"hfm":6447,"âĪ¥^":6448,"noteq":6449,"Ġindexing":6450,"ĠâĪħ,":6451,"âĢ¹":6452,"boundaries":6453,"initialize":6454,"Ġcontinued":6455,"coequalizers":6456,"ĠâŁ©,":6457,"Ġjoined":6458,"sentence":6459,"Ġsorted":6460,"Ġinfinity":6461,"PartialOrder":6462,"`\"]":6463,"kronecker":6464,"mvar":6465,"Ġframe":6466,"sect":6467,"Ġ`*`":6468,"rod":6469,"Ġlarger":6470,"Ġml":6471,"idual":6472,"Ġconverse":6473,"trac":6474,"ĠFâĤĹ":6475,"Ġcompute":6476,"extends":6477,"mir":6478,"dslope":6479,"Ġhsc":6480,"parency":6481,"Ġ`(-":6482,"Ġihy":6483,"Ġcoeffs":6484,"Ġ_âŁ©;":6485,"Ġerror":6486,"rotated":6487,"short":6488,"argument":6489,"Algebra":6490,"dirac":6491,"ĠMultiplic":6492,"+}":6493,">.":6494,"ave":6495,"bisim":6496,"hal":6497,"hang":6498,"ont":6499,"Ġhint":6500,"Ġtre":6501,"coinsertion":6502,"Ġpmap":6503,"degrees":6504,"Ġextract":6505,"Ġmn":6506,"raverse":6507,"Ġfinmap":6508,"ĠBe":6509,"formul":6510,"forward":6511,"ereo":6512,"Ġnondegenerate":6513,"ĠÎłi":6514,"Ġ:::":6515,"Ġhjk":6516,"Ġantiperiodic":6517,"elementary":6518,"Ġdependencies":6519,"tagged":6520,"hÎ¼s":6521,"Ġpaths":6522,"unks":6523,"lightly":6524,"Ġcertain":6525,"$$":6526,"100":6527,"lst":6528,"msg":6529,"qpf":6530,"ĠâħŁ":6531,"Ġsent":6532,"Ġsampleable":6533,"represent":6534,"Ġpfunctor":6535,"Ġihx":6536,"Ġindices":6537,"Ġ}.":6538,"`.)":6539,"ĠSem":6540,"Ġfinpartition":6541,"transversals":6542,"prf":6543,"Ġequations":6544,"Ġtypein":6545,"kerase":6546,"ÏĢi":6547,"rtensor":6548,"Ġcylinder":6549,"Ġdistributive":6550,"--------":6551,"Ġtyp":6552,"Ġelabor":6553,"ĠFrÃ©":6554,"decorate":6555,")|":6556,"gendre":6557,"Ĥ[":6558,"Ġ_]":6559,"cographic":6560,"Ġnb":6561,"Ġpsq":6562,"implies":6563,"Ġinversion":6564,"ifolds":6565,"Ġresolution":6566,"ghas":6567,"ðĿŁŃ":6568,"near":6569,"ĠHs":6570,"ĠHere":6571,"transfer":6572,"partially":6573,"interedges":6574,"afe":6575,"Ġclopen":6576,"Ġopt":6577,"Ġquanti":6578,"Ġtransvection":6579,"failing":6580,"Ġtries":6581,"Ġbody":6582,"Ġoptional":6583,"ensionality":6584,"Ġhji":6585,"ĠOrder":6586,"âĤĻâĤĲ":6587,"Ġcentroid":6588,"Ġintegration":6589,"rng":6590,"eigenvalue":6591,"Ġweights":6592,"Ġusually":6593,"echn":6594,"ĠPolish":6595,"irthday":6596,")/":6597,"Vect":6598,"hÎ¶":6599,"icov":6600,"lb":6601,"niz":6602,"pfun":6603,"rd":6604,"ĠhÎ¹":6605,"Ġtwice":6606,"Ġceil":6607,"sel":6608,"romatic":6609,"Ġeb":6610,"arsinh":6611,"unify":6612,"Ġ}]":6613,"edi":6614,"ĠAdam":6615,"queness":6616,"ĠNash":6617,"olAlg":6618,"Ġmathe":6619,"erest":6620,"Ġfiltered":6621,"Ġnonpos":6622,"depends":6623,"ĠâĪħ)":6624,"âĢĿ":6625,"ĠðĿķĨ":6626,"ategorical":6627,"Ġpigeonhole":6628,"bdas":6629,"Ġasserts":6630,"Ġcombinator":6631,"Ġdesired":6632,"icovitch":6633,"Gamma":6634,"ilt":6635,"karoubi":6636,"liver":6637,"qf":6638,"ĠhD":6639,"ĠÎ¾":6640,"Ġ`,":6641,"coimage":6642,"Ġpick":6643,"unbounded":6644,"stable":6645,"veq":6646,"Ġways":6647,"finmap":6648,"setup":6649,"triang":6650,"Ġinterest":6651,"Ġpropext":6652,"preirreducible":6653,"child":6654,"Ġweaker":6655,"ribLattice":6656,"iformSpace":6657,"Ġneighbourho":6658,"Ġinternal":6659,"ĠÏĢi":6660,"dependencies":6661,"ĠâŁ¨âŁ¨âŁ©âŁ©,":6662,"ĠOliver":6663,"boundary":6664,"therwise":6665,"Ġperform":6666,"ĠProduct":6667,"ĠâĹĥ":6668,"ĠâĹĭ":6669,"Ġedges":6670,"Ġenvironment":6671,"canonically":6672,"Ġaxioms":6673,"Ġanalog":6674,"Ha":6675,"ski":6676,"src":6677,"}{":6678,"Ġmeasurability":6679,"ination":6680,"ĠhZ":6681,"Ġsb":6682,"Ġsto":6683,"orith":6684,"ishes":6685,"remain":6686,"Ġexpected":6687,"finement":6688,"ĠâĦ³":6689,"identi":6690,"Ġcochain":6691,"Ġthird":6692,"derangements":6693,"Ġdecompose":6694,"ĠâĨĲ(":6695,"Ġadds":6696,"âŁ¨{":6697,"ĠBy":6698,"Ġhsf":6699,"relabel":6700,"Ġtransport":6701,"antisymmetrization":6702,"aki":6703,"Ġpullbacks":6704,"arithmetic":6705,"Ġrbtree":6706,"specializes":6707,"Ġratio":6708,"Ġmaking":6709,"ðĿķİ":6710,"ĠHaar":6711,"Ġincluded":6712,"ibniz":6713,"mirror":6714,"'ll":6715,")!":6716,"]âŁ©âŁ©":6717,"aim":6718,"cular":6719,"sá¶ľ":6720,"uble":6721,"von":6722,"ylor":6723,"ĶĤ":6724,"ĠhY":6725,"erg":6726,"ĠbS":6727,"Ġbnot":6728,"Ġbracket":6729,"Ġcoyoneda":6730,"entagon":6731,"Ġdeal":6732,"homothety":6733,"Ġasymptotics":6734,"taylor":6735,"Ġabstract":6736,"ĠUV":6737,"Ġendomorphism":6738,"Ġhcs":6739,"Ġclau":6740,"bernoulli":6741,"achable":6742,"nilpotency":6743,"Ġtrim":6744,"Ġpossibly":6745,"Ġsemicontinuous":6746,"Ġsubmonoids":6747,"ĠTopaz":6748,"Ġboundary":6749,"Ġrepresenting":6750,"directly":6751,"Ġmanifolds":6752,"Ġappears":6753,"====":6754,"Ġidempotent":6755,"Ġatoms":6756,"infinitesimal":6757,"orithm":6758,"10":6759,"mop":6760,"ncat":6761,"ocus":6762,"Ġtm":6763,"Ġtprod":6764,"matrices":6765,"suffix":6766,"cocomplex":6767,"Ġpx":6768,"Ġpmf":6769,"Ġeff":6770,"Ġissu":6771,"Ġlmul":6772,"Ġyr":6773,"ĠMic":6774,"Ġconcept":6775,"Ġcocompact":6776,"Ġcoherence":6777,"ĠApply":6778,"Ġdeduce":6779,"quasi":6780,"Ġhxb":6781,"chner":6782,"ĠNo":6783,"Ġ((âĢ¢)":6784,"ĠBoolean":6785,"ĠâĢľ":6786,"Ġ|(":6787,"unitary":6788,"ĠQu":6789,"Ġshowing":6790,"Ġimplic":6791,"Ġinverses":6792,"Ġcofinite":6793,"nodupkeys":6794,"ĠCompHaus":6795,"ĠCommGroup":6796,"Ġactual":6797,"large":6798,"á´¸":6799,"ĠPointed":6800,"binders":6801,"Ġsquares":6802,"ĠBorel":6803,"pherical":6804,"ncatlab":6805,"+*":6806,"beth":6807,"baki":6808,"df":6809,"ience":6810,"lsum":6811,"na":6812,"xl":6813,"Ġsat":6814,"Ġslightly":6815,"isen":6816,"Ġfsplit":6817,"ĠcSup":6818,"Ġ_],":6819,"asymm":6820,"Ġword":6821,"ĠMat":6822,"Ġcovers":6823,"invol":6824,"Ġmoves":6825,"Ġinterpret":6826,"Ġclaim":6827,"aking":6828,"bodd":6829,"orthocenter":6830,"Ġoutside":6831,"spectral":6832,"arrows":6833,"Ġ(âĬĨ":6834,"lazy":6835,"âŁ§,":6836,"Ġconstructors":6837,"Types":6838,"Ġcategorical":6839,"Ġapproach":6840,"Ġrbmap":6841,"generalize":6842,"Ġhomeomorphisms":6843,"Ġapplications":6844,"mathlib":6845,"testable":6846,"holds":6847,"Ġunitization":6848,"Ġ`âĬ¥`":6849,"ĠMacbeth":6850,"cu":6851,"inary":6852,"lequiv":6853,"Ġhin":6854,"Ġhdiv":6855,"Ġsample":6856,"resolution":6857,"Ġcandidates":6858,"Ġ[_":6859,"arrange":6860,"multispan":6861,"Ġlsub":6862,"Ġexpress":6863,"Ġyi":6864,"Ġprog":6865,"ĠHim":6866,"ĠLinear":6867,"Ġpreconnected":6868,"Ġ||":6869,"ĠJáµĴáµĸ":6870,"âĤĥâĤģ":6871,"Ġnamed":6872,"ĠâŁ¨âŁ¨âŁ©âŁ©":6873,"Ġunitary":6874,"Ġdiscr":6875,"Ġmodulo":6876,"ĠLeft":6877,"áµĥáµĴáµĸ":6878,"Ġgluing":6879,"ĠNotations":6880,"Ġapproximation":6881,"Ġ&&":6882,"functoriality":6883,"ĠâĭĨ[":6884,"Ġ((<)":6885,"pq":6886,"sites":6887,"ĠâĻ¯":6888,"Ġcare":6889,"Ġnpos":6890,"ros":6891,"Ġ->":6892,"Ġrepeated":6893,"subperm":6894,"computation":6895,"simpl":6896,"Ġonote":6897,"ĠCat":6898,"chimedean":6899,"Ġqqs":6900,"locals":6901,"Theta":6902,"Ġmultiequalizer":6903,"dependence":6904,"âģ±":6905,"Ġquadrant":6906,"predic":6907,"hbc":6908,"discr":6909,"ĠConvert":6910,"owski":6911,"Ġcorrespond":6912,"Ġfailure":6913,"mantically":6914,"Ġcolum":6915,"truncated":6916,"proofs":6917,"Ġimplemented":6918,"ĠHeather":6919,"amalgamation":6920,"halves":6921,":+":6922,"cf":6923,"ggest":6924,"nlab":6925,"}).":6926,"Ġak":6927,"ĠhW":6928,"Ġhsu":6929,"ĠsUnion":6930,"ises":6931,"Ġclog":6932,"Ġbases":6933,"itness":6934,"sumes":6935,"mel":6936,"uni":6937,"Ġinsertion":6938,"âŁ©]":6939,"ĠRáµĲáµĴáµĸ":6940,"Ġreally":6941,"ĠGet":6942,"ĠGeneral":6943,"Ġunbundled":6944,"Ġproce":6945,"Ġhyper":6946,"Ġnormalizer":6947,"Ġ_âŁ©)":6948,"hermitian":6949,"cycles":6950,"multiplication":6951,"Ġholder":6952,"Ġcirculant":6953,"Ġrepresentative":6954,"Ġresp":6955,"ĠExt":6956,"Ġsubspaces":6957,"Ġseminormed":6958,"trichotomous":6959,"Ġimportant":6960,"Ġbraiding":6961,"Ġprecisely":6962,"ĠMarkus":6963,"isenstein":6964,"ĠHimmel":6965,"lcs":6966,"phs":6967,"ins":6968,"Ġsi":6969,"Ġsnoc":6970,"âĤĴ":6971,"Ġll":6972,"Ġlatter":6973,"Ġgr":6974,"Ġwalk":6975,"Ġsimply":6976,"Î»b":6977,"Ġance":6978,"Ġtopologies":6979,"Ġcoproducts":6980,"Ġcoordinate":6981,"Ġthin":6982,"Ġthus":6983,"Ġhad":6984,"Ġvers":6985,"ĠSo":6986,"Ġkronecker":6987,"Ġ<:+":6988,"ĠHL":6989,"ĠHel":6990,"âĪ¥âģ»":6991,"Ġcomplexes":6992,"ugation":6993,"gluing":6994,"âĪ¥âĤĬ)":6995,"Ġlaurent":6996,"Ġconstructing":6997,"atterns":6998,"Ġsides":6999,"Ġabsolutely":7000,"tecting":7001,"stabl":7002,"Ġhigher":7003,"Lin":7004,"±¼":7005,"Îĺ":7006,"â±¼":7007,"Ġxgcd":7008,"Ġnim":7009,"undef":7010,"deps":7011,"Ġimmersion":7012,"ifies":7013,"Ġmfderiv":7014,"Ġrect":7015,"Ġreflexivity":7016,"Ġcomes":7017,"ĠStructure":7018,"ĠEuclidean":7019,"inally":7020,"Ġlimsup":7021,"Ġtransparency":7022,"Ġalgorithm":7023,"Ġfactorisation":7024,"ĠÏīSup":7025,"results":7026,"Construct":7027,"Ġinfinitesimal":7028,"Ġsheaves":7029,"every":7030,"lsmul":7031,"wrt":7032,"xL":7033,"leis":7034,"level":7035,"Ġsl":7036,"Ġsr":7037,"Ġfurther":7038,"Ġcd":7039,"unsat":7040,"âŁ©`":7041,"compat":7042,"ðĿĸ£":7043,"ĠClass":7044,"uture":7045,"common":7046,"ĠintroI":7047,"cibility":7048,"Ġhik":7049,"Ġendomorphisms":7050,"Ġparam":7051,"Ġintersect":7052,"Ġsep":7053,"Ġelementary":7054,"Ġsomething":7055,"Ġmultivariate":7056,"Ġquotients":7057,"Ġreturned":7058,"Ġcharts":7059,"ĠExists":7060,"Ġskeleton":7061,"polate":7062,"Ġbernstein":7063,"Ġapproximated":7064,"Ġapproximates":7065,"satisfi":7066,"leisli":7067,"Henstock":7068,"Implementation":7069,"rintro":7070,"snum":7071,"ura":7072,"uild":7073,"Ġalias":7074,"ĠhÏģ":7075,"Ġtechn":7076,"roxi":7077,"asy":7078,"Ġextra":7079,"Ġâī¼":7080,"ĠRel":7081,"Ġyl":7082,"ĠMore":7083,"Ġconcl":7084,"Ġsubmartingale":7085,"ĠâĪĢ(":7086,"Ġunsym":7087,"transvection":7088,"Ġarchimedean":7089,"monge":7090,"multiequalizer":7091,"Ġadapted":7092,"âŁ©âŁ©)":7093,"exprs":7094,"unitality":7095,"Ġmatching":7096,"âĤĽâĤĹáµ¢":7097,"ĠâĨª[":7098,"shadow":7099,"huv":7100,"Ġbucket":7101,"Ġhomeomorph":7102,"parameters":7103,"Ġbtw":7104,"predicate":7105,">)":7106,"epimorphism":7107,"found":7108,"frame":7109,"given":7110,"hL":7111,"halt":7112,"np":7113,"Ġtuple":7114,"encoding":7115,"âĤĪ":7116,"Ġplift":7117,"Ġestabl":7118,"ĠâĪł":7119,"Ġincreasing":7120,"ctx":7121,"Ġmutually":7122,"acters":7123,"idget":7124,"Ġhaar":7125,"ĠEm":7126,"Ġattemp":7127,"valu":7128,"subsets":7129,"Ġpresheaves":7130,"Ġstated":7131,"Ġ(âĪĺ),":7132,"Ġgenerators":7133,"Rep":7134,"âĪŀ))":7135,"erasep":7136,"Ġterminated":7137,"Ġcalcul":7138,"Ġperfect":7139,"fying":7140,"Ġuniverses":7141,"instantiate":7142,"Ġ900":7143,"Ġgreatest":7144,"Ġspectral":7145,"Ġincluding":7146,"80":7147,":(":7148,"cinfi":7149,"hÎ¹":7150,"sider":7151,"zag":7152,"Ġhsum":7153,"Ġhim":7154,"Ġtexpr":7155,"Ġfb":7156,"Ġfapply":7157,"tice":7158,"Ġ`]":7159,"eqs":7160,"mapp":7161,"Ġgu":7162,"Ġmd":7163,"flat":7164,"Ġtotient":7165,"))],":7166,"prog":7167,"Ġsubcategory":7168,"âĪı":7169,"fields":7170,"hose":7171,"tax":7172,"ĠÎ¼a":7173,"ĠNon":7174,"Ġextensionality":7175,"ĠThey":7176,"stopped":7177,"âĪ¥))":7178,"âĤĥâĤĤ":7179,"Ġnormalization":7180,"ĠÎ´pos":7181,"generic":7182,"Ġoperators":7183,"matching":7184,"ĠâŁ¦(":7185,"Ġbuilt":7186,"circumradius":7187,"Ġequalizers":7188,"Ġcorec":7189,"NFA":7190,"Ġ([],":7191,"Ġ`+`":7192,"hausdorff":7193,"Ġabsorb":7194,"Ġabsorbs":7195,"ĠBochner":7196,"analytic":7197,"Ġ(âĢ¢),":7198,"ĠAndre":7199,"Ġestimate":7200,"Ġancestor":7201,"92":7202,"Co":7203,"CáµĴáµĸ":7204,"xp":7205,"Ġfloat":7206,"Ġ_`":7207,"Ġxa":7208,"Ġxi":7209,"Ġpas":7210,"imple":7211,"ifp":7212,"Ġms":7213,"Ġmuch":7214,"Ġdenumerable":7215,"ĠâĦ¬":7216,"Ġhapp":7217,"ĠPullback":7218,"ĠLa":7219,"ĠLhom":7220,"Ġhip":7221,"again":7222,"')).":7223,"Ġnorms":7224,"Ġdefinable":7225,"ssage":7226,"bius":7227,"high":7228,"Ġcorners":7229,"Ġchecking":7230,"áµĥâģ±":7231,"Ġneighborhoods":7232,"Ġinductively":7233,"eigenvector":7234,"ĠCompactum":7235,"ader":7236,"eapprox":7237,"sized":7238,"work":7239,"Ġable":7240,"Ġtorus":7241,"ĠÎĻ":7242,"ital":7243,"ature":7244,"Ġnice":7245,"Ġnolint":7246,"Ġpass":7247,"arity":7248,"accept":7249,"Ġthough":7250,"))âģ»":7251,"ĠAr":7252,"ĠSuppose":7253,"chment":7254,"transport":7255,"letal":7256,"prank":7257,"Ġ((@":7258,"ĠBipointed":7259,"bottom":7260,"ĠDer":7261,"entire":7262,"untrop":7263,"ĠÎła":7264,"coeffs":7265,"amental":7266,"undamental":7267,"ĠInjectiveResolution":7268,"start":7269,"Ġtherefore":7270,"covers":7271,"description":7272,"hile":7273,"correspon":7274,"Ġexisting":7275,"ĠProjectiveResolution":7276,"AddCommGroup":7277,"Ġinvolving":7278,"titude":7279,"avid":7280,"Ġaugmented":7281,"ĠHelper":7282,"Action":7283,"Some":7284,"`-/":7285,"rfind":7286,"rbt":7287,"skip":7288,"Ġhmul":7289,"Ġturns":7290,"Ġface":7291,"Ġ`*":7292,"Ġeasy":7293,"Ġoff":7294,"mming":7295,"ĠAb":7296,"Ġdevelo":7297,"ĠFinite":7298,"Ġintended":7299,"Ġkee":7300,"Ġhxu":7301,"precompose":7302,"realizer":7303,"âĨĳ(":7304,"irrational":7305,"Ġwhnf":7306,"Ġnever":7307,"perfect":7308,"Ġarsinh":7309,"ĠâĨĴ+[":7310,"Ġmultisets":7311,"frac":7312,"lines":7313,"Ġcounter":7314,"separator":7315,"sqrtd":7316,"Ġsemirings":7317,"Ġpredicates":7318,"Ġsubobjects":7319,"âĪħ,":7320,"Ġantisymm":7321,"ĠSemilattice":7322,"Ġpassed":7323,"rbtree":7324,"'âĪ¥":7325,"bnot":7326,"cend":7327,"sco":7328,"squeeze":7329,"tm":7330,"wall":7331,"Ġagrees":7332,"Ġtk":7333,"alan":7334,"revert":7335,"Ġcustom":7336,"âĤĭ":7337,"Ġbad":7338,"Ġmis":7339,"ĠâĦĵ":7340,"ĠTh":7341,"oprod":7342,"ĠAáµĲáµĴáµĸ":7343,"ĠGrothendieck":7344,"jec":7345,"ĠhxU":7346,"transformation":7347,"ĠVitali":7348,"relabelling":7349,"orean":7350,"Ġmultiples":7351,"undy":7352,"Ġreals":7353,"Ġcoming":7354,"Ġdecor":7355,"âŁ§)":7356,"command":7357,"Ġkeys":7358,"Ġworking":7359,"ĠDedekind":7360,"ifier":7361,"constructions":7362,"Ġblank":7363,"ĠUseful":7364,"Ġbecomes":7365,"Here":7366,"bine":7367,"fuzzy":7368,"gp":7369,"hlt":7370,"sm":7371,"into":7372,"Ġalexandroff":7373,"Ġslow":7374,"Ġtend":7375,"mary":7376,"Ġ`âĨĳ":7377,"arccos":7378,"unfailing":7379,"Ġ}âŁ©,":7380,"pempty":7381,"Ġdlist":7382,"lode":7383,"ident":7384,"compr":7385,"Ġcoer":7386,"Ġthickened":7387,"Ġhax":7388,"Ġvon":7389,"necess":7390,"ĠGamma":7391,"Ġproven":7392,"ĠYou":7393,"thag":7394,"Ġ((âī¤":7395,"both":7396,"Ġhps":7397,"Ġstating":7398,"igzag":7399,"Ġseem":7400,"Ġpointed":7401,"Ġliminf":7402,"Ġsemilinear":7403,"sults":7404,"html":7405,"ĠexpR":7406,"Ġcalculus":7407,"Ġcompositions":7408,"Ġconstructs":7409,"ĠCommSemiRing":7410,"declar":7411,"Ġbump":7412,"Ġnumerals":7413,"Ġ``(%%":7414,"Ġdenominators":7415,"holder":7416,"squares":7417,"squash":7418,"enrichment":7419,"servation":7420,"Ġsucceeds":7421,"arrangement":7422,"against":7423,"Ġ((âī¤)":7424,"Cat":7425,"Cauchy":7426,"Point":7427,"bar":7428,"bsupr":7429,"dart":7430,"darts":7431,"gold":7432,"hQ":7433,"ij":7434,"sbtw":7435,"ĠâĶĤ":7436,"Ġsbtw":7437,"arning":7438,"ced":7439,"addition":7440,"Ġconcat":7441,"ĠÎ»a":7442,"ĠIs":7443,"raversable":7444,"ĠâĬļ":7445,"ĠPE":7446,"ĠðĿĸ£":7447,"Ġprocess":7448,"ĠHilbert":7449,"transitive":7450,"cluster":7451,"nonsing":7452,"Ġhfa":7453,"Ġ---":7454,"because":7455,"ĠZhou":7456,"Ġarray":7457,"respect":7458,"Ġminor":7459,"Ġcharacters":7460,"denominators":7461,"Ġ_))),":7462,"Ġfixing":7463,"mvfunctor":7464,"Ġtraversable":7465,"Ġsquash":7466,"Ġrecursively":7467,"reflective":7468,"Ġpreferred":7469,"ĠBasic":7470,"remainder":7471,"thagorean":7472,"Bo":7473,"]:":7474,"custom":7475,"ec":7476,"ek":7477,"ginductive":7478,"hD":7479,"vol":7480,"onym":7481,"Ġsx":7482,"Ġsnum":7483,"Ġte":7484,"isomorphism":7485,"Ġ[ÃĹ":7486,"Ġbkts":7487,"Ġnz":7488,"Ġins":7489,"Ġindependence":7490,"rig":7491,"ones":7492,"ĠTest":7493,"Ġcoeq":7494,"Ġdecreasing":7495,"ĠEvalu":7496,"adm":7497,"Ġintroduced":7498,"Ġpretrivialization":7499,"differenti":7500,"ĠDavid":7501,"Ġbehavi":7502,"Ġâīĥ[":7503,"Ġequivs":7504,"Ġstab":7505,"ĠWequiv":7506,"Ġoptimal":7507,"Ġdiame":7508,"âĪŀ]":7509,"Ġ~[":7510,"Ġmodify":7511,"shiftr":7512,"integers":7513,"Ġhelper":7514,"Ġformulas":7515,"Ġreplaced":7516,"hedral":7517,"Ġcoincides":7518,"Ġuniqueness":7519,"Ġduplicate":7520,"crimin":7521,"ĠEquivalence":7522,"selves":7523,"unitization":7524,"onymous":7525,"Ġbehavior":7526,"'re":7527,"++":7528,"60":7529,"Bipointed":7530,"Since":7531,"acompact":7532,"alexandroff":7533,"candidates":7534,"eps":7535,"gs":7536,"ities":7537,"tsupport":7538,"word":7539,"©¿":7540,"ĠhÎ½":7541,"Ġsp":7542,"isomorphic":7543,"Ġcsupr":7544,"Ġinfty":7545,"Ġ}}":7546,"Ġ}))":7547,"Ġwere":7548,"subseq":7549,"ĠCre":7550,"Ġfinal":7551,"Ġassign":7552,"ĠDi":7553,"Ġ\",":7554,"Ġhgi":7555,"ĠâĭĬ":7556,"akia":7557,"calculus":7558,"Ġshadow":7559,"structor":7560,"ĠâĢ¹_âĢº,":7561,"Ġrecursion":7562,"Ġcoequalizers":7563,"Ġconvention":7564,"failure":7565,"Ġcurrently":7566,"Ġambi":7567,"Proj":7568,"âĮīâĤĬ":7569,"Ġreflected":7570,"Ġmembership":7571,"Ġclause":7572,"ĠAndrew":7573,"declaration":7574,"''.":7575,")âĪ¥âĤĬ":7576,"Hs":7577,"_*":7578,"bors":7579,"gauge":7580,"imi":7581,"lm":7582,"nadd":7583,"Ġ]":7584,"Ġentire":7585,"lection":7586,"mas":7587,"reparam":7588,"replac":7589,"Ġcot":7590,"delete":7591,"ĠâĪ®":7592,"cture":7593,"ception":7594,"lthough":7595,"ĠMáµĲáµĴáµĸ":7596,"))`.":7597,"byshe":7598,"coes":7599,"ĠYang":7600,"thin":7601,"print":7602,"lfp":7603,"Ġpreserved":7604,"lens":7605,"Ġnonarchimedean":7606,"Ġliftp":7607,"Ġarctan":7608,"iemann":7609,"bernstein":7610,"ives":7611,"Ġtransform":7612,"hyz":7613,"ĠRestrict":7614,"ighbors":7615,"ickson":7616,"âģĨ,":7617,")^[":7618,"Ġrequiring":7619,"Ġperfection":7620,"Ġadmissible":7621,"coloring":7622,"Ġremainder":7623,"Ġnotions":7624,"Limsup":7625,"Ġseparately":7626,"Ġ`âī¤`":7627,"Pointed":7628,"byshev":7629,")\"":7630,"]âĨĴ":7631,"hÏĢ":7632,"hmeas":7633,"king":7634,"pequiv":7635,"tl":7636,"ux":7637,"wapp":7638,"yle":7639,"Ġâ©¿":7640,"Ġhit":7641,"Ġsqueeze":7642,"Ġfresh":7643,"âĤĨ":7644,"Ġbd":7645,"cool":7646,"coatomic":7647,"Ġpfun":7648,"abet":7649,"Ġisn":7650,"âŁ©|":7651,"cexp":7652,"Ġcoimage":7653,"exist":7654,"explicit":7655,"Ġuntil":7656,"Ġleaf":7657,"Ġproject":7658,"ĠHf":7659,"ilon":7660,"approxi":7661,"Ġâīĥ.":7662,"anging":7663,"phabet":7664,"embeddings":7665,"antiperiodic":7666,"objects":7667,"ĠâĨĴ*[":7668,"Ġmvfunctor":7669,"Ġedistance":7670,"Ġtaken":7671,"ĠðĿĶ¼":7672,"downward":7673,"underlying":7674,"Ġconvenience":7675,"infixr":7676,"Ġembed":7677,"lambdas":7678,"Ġcoordinates":7679,"rigid":7680,"ĠâĭĬ[":7681,"Ġambient":7682,"*,":7683,"Lan":7684,"Of":7685,"Try":7686,"iget":7687,"ko":7688,"wcovby":7689,"ongest":7690,"Ġhadd":7691,"Ġhdeg":7692,"Ġssubset":7693,"Ġsrc":7694,"ref":7695,"refine":7696,"resolvent":7697,"âĤĵ":7698,"itnes":7699,"Ġpentagon":7700,"decomp":7701,"Ġix":7702,"pochhammer":7703,"compares":7704,"Ġcov":7705,"ĠSL":7706,"ĠSâĤĺ":7707,"ĠFundamental":7708,"neighborho":7709,"Ġlegendre":7710,"Ġoadd":7711,"hash":7712,"chromatic":7713,"Ġcompress":7714,"âĪ¥`.":7715,"Ġnothing":7716,"Ġhomothety":7717,"Ġencoding":7718,"Ġgeneric":7719,"Ġshown":7720,"Ġtrident":7721,"Ġbitwise":7722,"Ġgets":7723,"Ġsurreal":7724,"elementwise":7725,"cument":7726,"Ġ`âĬ¢":7727,"Ġmanage":7728,"Ġsieves":7729,"Ġdenominator":7730,"Ġlargest":7731,"Ġenumer":7732,"Ġpropositions":7733,"Ġcomputed":7734,"ĠBoundedLattice":7735,"ĠZFA":7736,"Ġ[(âĪĺ),":7737,"ĠMultiplication":7738,"ediam":7739,"identity":7740,"Ġstabilizer":7741,"Ġcotri":7742,")âŁ©)":7743,"Sch":7744,"boo":7745,"ep":7746,"ebius":7747,"hop":7748,"ms":7749,"uto":7750,"xgcd":7751,"¤³":7752,"Ġâ¤³":7753,"ĠsInter":7754,"ision":7755,"retraction":7756,"codomain":7757,"ante":7758,"arante":7759,"ulated":7760,"Ġgal":7761,"conf":7762,"icategorical":7763,"composing":7764,"Ġconnection":7765,"Ġcopi":7766,"Ġcosimplicial":7767,"liou":7768,"ĠII":7769,"ragm":7770,"equations":7771,"thickened":7772,"distinct":7773,"Ġhyps":7774,"Ġwhy":7775,"Ġgenerating":7776,"Ġconts":7777,"Ġrelative":7778,"Ġdisjointed":7779,"dimension":7780,"Ġunitors":7781,"akov":7782,"adjacent":7783,"Ġassociativity":7784,"fractions":7785,"ĠâĨĳ((":7786,"ĠResults":7787,"Ġbundles":7788,"Ġmet":7789,"Ġidentifi":7790,"comma":7791,"Ġwriting":7792,"Ġtestable":7793,"ĠProve":7794,"âŁ¯)":7795,"weakly":7796,"shiftl":7797,"Ġeigenspace":7798,"âĬ¥,":7799,"Ġindicates":7800,"Ġstatic":7801,"DistribLattice":7802,"Ġanalogous":7803,"Ġdecorate":7804,"criminant":7805,"kolem":7806,"liouville":7807,"ragmen":7808,"Kur":7809,"hac":7810,"ren":7811,"xn":7812,"Ġ@[":7813,"ineq":7814,"ĠâĶĢ":7815,"Ġhirr":7816,"Ġsit":7817,"Ġtmul":7818,"Ġcpos":7819,"semantically":7820,"Ġ[[":7821,"Ġ[âŁ¨":7822,"âĤļ":7823,"Ġxz":7824,"toura":7825,"Ġlies":7826,"Ġgb":7827,"finish":7828,"Ġreformul":7829,"onometric":7830,"Ġ*;":7831,"Ġdest":7832,"Ġdecomp":7833,"Ġunif":7834,"Ġunary":7835,"Ġunification":7836,"Ġhxa":7837,"chunks":7838,"translate":7839,"atell":7840,"ĠBut":7841,"Ġ..âĢ¹":7842,"Ġ\"\"":7843,"Ġdouble":7844,"Ġenri":7845,"Ġ...`":7846,"Ġ@@":7847,"Ġselect":7848,"ĠĠĠĠĠĠĠĠĠĠĠĠĠĠĠĠĠĠĠĠĠĠĠĠĠĠ":7849,"counter":7850,"ymmetric":7851,"antidistrib":7852,"antilipschitz":7853,"localizations":7854,"Ġâ¨į":7855,"Ġmvpfunctor":7856,"âĢĵ":7857,"operations":7858,"Ġdensely":7859,"**.":7860,"Ġ/-\"":7861,"Ġcollect":7862,"digit":7863,"Ġcalls":7864,"Ġcontrolled":7865,"âĶĢ>":7866,"âĶĢâĶĢ>":7867,"Ġpsqs":7868,"Ġneighbourhood":7869,"ergence":7870,"Ġprocedu":7871,"Ġmanagement":7872,"Ġcotrident":7873,"ĠâĶĢâĶĢâĶĢ>":7874,")?)":7875,"*âĪ¥":7876,"[âī¥":7877,"])).":7878,"bifunctor":7879,"cut":7880,"gonometric":7881,"ik":7882,"nnorm":7883,"rability":7884,"Ġhca":7885,"Ġhitting":7886,"Ġscan":7887,"Ġfocus":7888,"tite":7889,"until":7890,"inguis":7891,"Ġlam":7892,"ivative":7893,"ĠâŁ¨[":7894,"Ġyour":7895,"ĠTurn":7896,"ĠMou":7897,"ghost":7898,"pack":7899,"ĠSome":7900,"neighbors":7901,"ationary":7902,"ĠPartialOrder":7903,"ordering":7904,"ĠEach":7905,"Ġmapped":7906,"ĠLattice":7907,"calate":7908,"noninc":7909,"possibly":7910,"oll":7911,"Ġmass":7912,"ĠBuild":7913,"Ġqpf":7914,"partite":7915,"Ġringed":7916,"Ġhpx":7917,"Ġinvolutive":7918,"Ġarccos":7919,"anger":7920,"modular":7921,"Ġdescription":7922,"ryst":7923,"Ġevaln":7924,"akes":7925,"curr":7926,"Ġchanges":7927,"chet":7928,"mates":7929,"homeo":7930,"unctions":7931,"ĠConsider":7932,"ategories":7933,"atten":7934,"ĠðĿĶł":7935,"changed":7936,"Ġaccess":7937,"truncation":7938,"btwn":7939,"integrand":7940,"Ġgeometric":7941,"Ġcoercions":7942,"Ġexpresses":7943,"Ġ<+~":7944,"Ġinvolve":7945,"Ġevaluating":7946,"Ġcarries":7947,"Ġsyntax":7948,"Moore":7949,"Ġcircumcenter":7950,"augmented":7951,"Ġmarked":7952,"Ġmllist":7953,"tractible":7954,"atellite":7955,"[âī¥]":7956,"inguished":7957,"ĠMoura":7958,"ky":7959,"psum":7960,"vs":7961,"ythagorean":7962,"Â»":7963,"onard":7964,"isimple":7965,"tific":7966,"Ġ_*":7967,"ĠâĨĵ":7968,"Ġpur":7969,"Ġppred":7970,"Ġee":7971,"determin":7972,"ĠâŁ¨@":7973,"ota":7974,"ĠTho":7975,"Ġdesign":7976,"Ġ$\\":7977,"`.\",":7978,"esicovitch":7979,"ĠHenstock":7980,"nonarchimedean":7981,"ĠBart":7982,"Ġmember":7983,"formed":7984,"integrally":7985,")];":7986,"ĠWith":7987,"Ġhtu":7988,"Ġparsed":7989,"bitraverse":7990,"ĠĠĠĠĠĠĠĠĠĠĠĠĠĠĠĠĠĠĠĠĠĠĠĠĠ":7991,"ĠOtherwise":7992,"Ġequivalently":7993,"ĠReid":7994,"games":7995,"cokernels":7996,"ĠLeonard":7997,"ðĿĵĺ":7998,"Ġcharacterization":7999,"Ġsolvable":8000,"ourbaki":8001,"ĠNotes":8002,"Ġparametriz":8003,"Ġinstanti":8004,"colorable":8005,"Ġflat":8006,"Ġexpectation":8007,"Ġquantifi":8008,"Ġabsorbent":8009,"BoolAlg":8010,"Ġdiameter":8011,"Ġenriched":8012,"angerous":8013,"ĠThomas":8014,"ĠBarton":8015,"ĠLeonardo":8016,"(`":8017,")âŁ©âŁ©":8018,"Any":8019,"On":8020,"[âī¤":8021,"_âŁ©,":8022,"amon":8023,"bag":8024,"cramer":8025,"cryst":8026,"freiman":8027,"lmap":8028,"incomp":8029,"Ġsz":8030,"Ġsformat":8031,"reachable":8032,"ried":8033,"Ġlc":8034,"convert":8035,"ĠRâĤĺ":8036,"Ġdart":8037,"Ġret":8038,"subtraction":8039,"Ġcontracting":8040,"lier":8041,"))}":8042,")))).":8043,"ĠCopy":8044,"ĠSum":8045,"ĠSimilar":8046,"Ġua":8047,"stances":8048,"ĠGL":8049,"Ġjacobson":8050,"Ġasc":8051,"moving":8052,"Ġhxi":8053,"Ġzs":8054,"clar":8055,"ĠÎ¼H":8056,"Ġcompose":8057,"Ġexterior":8058,"inters":8059,"ĠDeg":8060,"ometri":8061,"scan":8062,"Ġdistortion":8063,"Ġmode":8064,"ĠZhang":8065,"eliminate":8066,"Ġmonotonicity":8067,"Ġgenerator":8068,"trail":8069,"subgroups":8070,"Ġprac":8071,"Ġmvqpf":8072,"Ġdisk":8073,"Ġadjacent":8074,"Ġzpowers":8075,"Ġextending":8076,"Ġbuffer":8077,"Ġsatisfied":8078,"Ġelimination":8079,"Ġexpressing":8080,"Ġduplicates":8081,"FinVect":8082,"Ġunfolds":8083,"Ġimplication":8084,"satisfiable":8085,"[âī¤]":8086,"FTC":8087,"denumerable":8088,"dRep":8089,"gnor":8090,"hÎ±":8091,"psigma":8092,"zard":8093,"Ġhre":8094,"seval":8095,"ĠbInter":8096,"Ġbranch":8097,"Ġxb":8098,"coeq":8099,"Ġinhabit":8100,"abled":8101,"Ġmerge":8102,"ĠRight":8103,"ĠRHS":8104,"Ġreduced":8105,"Ġresolve":8106,"Ġsuitable":8107,"ĠMap":8108,"lize":8109,"provi":8110,"ariant":8111,"trident":8112,"Ġatt":8113,"preform":8114,"without":8115,"Ġhfc":8116,"ĠBer":8117,"ĠBuz":8118,"irror":8119,"Ġhsm":8120,"primes":8121,"nodot":8122,"Ġhgm":8123,"vertex":8124,"Ġdiamon":8125,"Ġbodd":8126,"Ġconstra":8127,"Ġpermuting":8128,"Ġnewton":8129,"ubic":8130,"Ġlines":8131,"Ġthemselves":8132,"ðĿĴĦ":8133,"Ġdistances":8134,"Ġacting":8135,"Ġvanishes":8136,"Ġ<+:":8137,"vanta":8138,"ĠHahn":8139,"Ġidea":8140,"analysis":8141,"handler":8142,"Ġ`âĬ¤`":8143,"enriched":8144,"reflected":8145,"Ġrectangle":8146,"Ġcovby":8147,"ĠBuzzard":8148,"(-":8149,"42":8150,"More":8151,"ati":8152,"eisenstein":8153,"fast":8154,"fourier":8155,"mfoldl":8156,"rences":8157,"sp":8158,"slim":8159,"ww":8160,"Ġax":8161,"ĠhÎ¸":8162,"erve":8163,"Ġft":8164,"Ġfourier":8165,"Ġcramer":8166,"Ġ_}":8167,"Ġrx":8168,"colim":8169,"Ġnadd":8170,"Ġpell":8171,"Ġignor":8172,"oment":8173,"Ġexcl":8174,"Ġwlog":8175,"finpartition":8176,"Ġmirror":8177,"Ġrever":8178,"Ġcospan":8179,"ĠAction":8180,"ĠâĨĲ@":8181,"ĠHb":8182,"ĠLiouville":8183,"Ġhasse":8184,"Ġprequotient":8185,"intercalate":8186,"Ġeqs":8187,"Ġ\"(":8188,"Ġdocument":8189,"Ġpartially":8190,"Ġarity":8191,"Ġsemiquot":8192,"Ġexponents":8193,"Ġexpansion":8194,"âĦĿâģ¿":8195,"001":8196,"while":8197,"Ġ(âĬĵ":8198,"Ġmessage":8199,"Ġkernels":8200,"Ġspecialized":8201,"Ġ(âŁ¨_,":8202,"gcf":8203,"Ġmostly":8204,"Ġgeneralizes":8205,"destutter":8206,"!\"{":8207,"veloping":8208,"recursive":8209,"goto":8210,"Ġverschiebung":8211,"ĠDerivative":8212,"corresponding":8213,"confusion":8214,")*":8215,")?":8216,"ii":8217,"icographic":8218,"lof":8219,"lxor":8220,"uel":8221,"Ġ())":8222,"oft":8223,"atowski":8224,"Ġrpos":8225,"ifically":8226,"Ġ}`":8227,"Ġga":8228,"Ġreduction":8229,"comput":8230,"ĠMo":8231,")))),":8232,"prover":8233,"exposed":8234,"ortun":8235,"Ġlexi":8236,"ĠHg":8237,"Ġzc":8238,"holes":8239,"Ġhfn":8240,"Ġcomplet":8241,"Ġpretopology":8242,"tector":8243,"âĦ¬":8244,"ign":8245,"absor":8246,"Ġdescr":8247,")`;":8248,"ĠInstead":8249,"rowing":8250,"centric":8251,"Ġunital":8252,"Ġcommuting":8253,"ared":8254,"Ġcospherical":8255,"Ġnilpotency":8256,"âĢº,":8257,"Ġdepending":8258,"Ġcircular":8259,"âĮĬ":8260,"Ġaccept":8261,"Ġcycles":8262,"Ġabelianization":8263,"Ġwhiskering":8264,"Ġsimplifier":8265,"attrs":8266,"Ġweakly":8267,"seminorms":8268,"Ġlocation":8269,"ðĿĶ¸":8270,"ĠÂ«":8271,"Ġstopped":8272,"involute":8273,"Ġ(âĬĨ)":8274,"Ġguarante":8275,"$,":8276,"'m":8277,"[`:":8278,"dprod":8279,"ices":8280,"ike":8281,"lcongr":8282,"¸áµĲ":8283,"Ê¸áµĲ":8284,"inits":8285,"onwall":8286,"Ġhull":8287,"Ġhdvd":8288,"ern":8289,"Ġcprank":8290,"sted":8291,"Ġlx":8292,"Ġlint":8293,"ĠRÃ©":8294,"ĠâŁ¨âĬ¤":8295,"Ġretraction":8296,"Ġremoving":8297,"ithub":8298,"subgraph":8299,"Ġconf":8300,"Ġthings":8301,"Ġsubordinate":8302,"ĠGH":8303,"Ġleibniz":8304,"topies":8305,"thm":8306,"Ġhff":8307,"ĠBrow":8308,"ĠBâĤĻ":8309,"ĠâŁ¶[":8310,"Ġdefs":8311,"Ġ\"-/":8312,"Ġseen":8313,"vectors":8314,"orelize":8315,"hgf":8316,"Ġmulticoequalizer":8317,"ĠInequality":8318,"rtho":8319,"Ġchoices":8320,"leanprover":8321,"ĠhUo":8322,"combin":8323,"ucas":8324,"properties":8325,"Ë¢Ê¸áµĲ":8326,"ifield":8327,"áµĩáµĥ":8328,"Ġnumerator":8329,"Ġfaces":8330,"Ġformulate":8331,"ĠâŁ¨-,":8332,"processor":8333,"Ġgames":8334,"Ġagainst":8335,"Ġreflective":8336,"Ġproblems":8337,"UniformSpace":8338,"Ġparams":8339,"Ġmetho":8340,"Ġprocedure":8341,"ĠDegenne":8342,"ĠRÃ©my":8343,"13":8344,"All":8345,"Lq":8346,"Ret":8347,"Show":8348,"Use":8349,"_)":8350,"ama":8351,"uations":8352,"wop":8353,"yers":8354,"inseparable":8355,"ĠaâĤĻ":8356,"Ġhinj":8357,"Ġ`âŁª":8358,"Ġxor":8359,"Ġrise":8360,"Ġpatterns":8361,"Ġ-âŁ©":8362,"ids":8363,"subcover":8364,"compress":8365,"dermon":8366,"ĠApp":8367,"ĠCheck":8368,"ĠPo":8369,"Ġlead":8370,"Ġproduced":8371,"ĠÎ¼b":8372,"Ġpochhammer":8373,"ately":8374,"exterior":8375,"Ġcontinuously":8376,"ĠJacobson":8377,"ĠDist":8378,"agma":8379,"angular":8380,"bitvec":8381,"bimap":8382,"Ġanything":8383,"Ġnoetherian":8384,"inclu":8385,"Ġvariance":8386,"cofinal":8387,"Ġimpartial":8388,"Ġbinomial":8389,"writer":8390,"Ġgraphs":8391,"Ġseparating":8392,"Ġlocalizations":8393,"Ġrescale":8394,"Ġprobably":8395,"Ġrecurrence":8396,"Ġintersections":8397,"aired":8398,"Ġdetermined":8399,"Ġraised":8400,"ĠAssumes":8401,"Ġinvolute":8402,"bda":8403,"Ġreasons":8404,"Ġsuccessor":8405,"Ġdirac":8406,"Ġconvergents":8407,"Ġ`<`":8408,"Ġmathema":8409,"Ġtechnical":8410,"dermonde":8411,"Be":8412,"Coprod":8413,"However":8414,"Lprojection":8415,"No":8416,"after":8417,"bex":8418,"ector":8419,"nmem":8420,"instead":8421,"Ġhcard":8422,"Ġhpi":8423,"Ġss":8424,"Ġscheme":8425,"ero":8426,"oriz":8427,"Ġtc":8428,"enough":8429,"Ġ{})":8430,"Ġbex":8431,"stack":8432,"ĠÎ±áµĥáµĴáµĸ":8433,"muller":8434,"Ġliter":8435,"Ġgram":8436,"Ġdy":8437,"Ġdue":8438,"ĠTaylor":8439,"ĠThat":8440,"ĠAt":8441,"upling":8442,"than":8443,"ĠNeg":8444,"Ġcompares":8445,"orpor":8446,"ĠJose":8447,"hsc":8448,"Ġhbd":8449,"Ġstereo":8450,"perfection":8451,"ichmuller":8452,"Ġmultifork":8453,"Ġprivate":8454,"multiple":8455,"specific":8456,"powered":8457,"nnf":8458,"nontriviality":8459,"tags":8460,"Ġbuil":8461,"ĠâĢ¹_âĢº)":8462,"ĠConstructs":8463,"sequent":8464,"Ġdetermines":8465,"Ġ(+))":8466,"Ġevaluates":8467,"Ġsimilarly":8468,"ĠStated":8469,"constructors":8470,"ĠMaps":8471,"Ġviewed":8472,"characteristic":8473,"Ġpseudometric":8474,"Ġsentence":8475,"Ġcombinatorics":8476,"Ġkeep":8477,"hopital":8478,"scanl":8479,"ĠJoseph":8480,"23":8481,"MM":8482,"[[":8483,"github":8484,"ks":8485,"rpos":8486,"view":8487,"you":8488,"Ã¤":8489,"inversion":8490,"onenti":8491,"leigh":8492,"Ġhzero":8493,"Ġhcont":8494,"Ġsm":8495,"Ġspe":8496,"mag":8497,"remum":8498,"iteness":8499,"Ġxu":8500,"Ġxá¶ľ":8501,"unnel":8502,"uncture":8503,"Ġexpan":8504,"Ġdickson":8505,"Ġresolvent":8506,"idue":8507,"Ġcod":8508,"ĠAlex":8509,"ĠAáµĢ":8510,"project":8511,"ĠCha":8512,"Ġown":8513,"Ġprom":8514,"ĠNe":8515,"consts":8516,"Ġrelabelling":8517,"ording":8518,"âĪŀ`.":8519,"rows":8520,"âŁ©âŁ©âŁ©,":8521,"tributes":8522,"Ġnaturals":8523,"circulant":8524,"continuum":8525,"Ġsubsts":8526,"ĠComposing":8527,"Ġdiagrams":8528,"Ġwriter":8529,"sequences":8530,"Ġensures":8531,"Ġcarry":8532,"recurrence":8533,"Ġsymbols":8534,"Ġpseudofunctor":8535,"Ġexplain":8536,"Ġtypically":8537,"Ġeffect":8538,"respects":8539,"Ġattach":8540,"unctured":8541,"\"),":8542,"67":8543,"@`(":8544,"St":8545,"]âŁ©)":8546,"^.":8547,"branch":8548,"ean":8549,"tas":8550,"xR":8551,"})).":8552,"Ġmp":8553,"leaf":8554,"Ġhft":8555,"Ġhker":8556,"ermat":8557,"Ġtaylor":8558,"ennnorm":8559,"Ġpsigma":8560,"Ġeta":8561,"Ġeps":8562,"definite":8563,"impartial":8564,"eqn":8565,"Ġlxor":8566,"âŁ©],":8567,"pps":8568,"Ġduring":8569,"Ġdangerous":8570,"Ġreduces":8571,"Ġyx":8572,"Ġcolim":8573,"ĠFP":8574,"Ġsubperm":8575,"Ġsubclasses":8576,"Ġsubtracting":8577,"equi":8578,"ĠPri":8579,"Ġji":8580,"ĠHom":8581,"Ġalphabet":8582,"Ġcomplic":8583,"âŁ¨@":8584,"Ġintrov":8585,"Ġnotations":8586,"ĠVector":8587,"ndinsert":8588,"Ġalgebraically":8589,"Ġlifting":8590,"ordnode":8591,"exprform":8592,"perms":8593,"ittle":8594,"Ġhvw":8595,"Ġprimes":8596,"lap":8597,"Ġcofan":8598,"Ġinferred":8599,"blame":8600,"ĠDeclar":8601,"Ġcreated":8602,"Ġsheafification":8603,"ĠâīĪ[":8604,"Ġpseudoelement":8605,"ĠHÃ¶lder":8606,"integration":8607,"Ġtriangles":8608,"Ġplace":8609,"Ġtsze":8610,"â¨Ĩ":8611,"Ġrewrites":8612,"Exists":8613,"Ġamong":8614,"Ġmultiplying":8615,"servative":8616,"Ġyields":8617,"Ġmissing":8618,"admissible":8619,"neighborhood":8620,"crystal":8621,"Ġconstraint":8622,"vantage":8623,"ĠBrowning":8624,"orizont":8625,"ĠDeclarations":8626,"'`:":8627,"->":8628,"15":8629,"Bounded":8630,"CD":8631,"FâĤĻ":8632,"Ran":8633,"Riemann":8634,"That":8635,"[`":8636,"bad":8637,"cn":8638,"occur":8639,"pass":8640,"whose":8641,"zd":8642,"}\\":8643,"}âŁ©":8644,"Ġhfin":8645,"ĠhÎ¦":8646,"ĠhÏĪ":8647,"Ġslim":8648,"Ġtspace":8649,"ention":8650,"alist":8651,"refinement":8652,"Ġcr":8653,"Ġcseval":8654,"hex":8655,"Ġnative":8656,"Ġpderiv":8657,"mulation":8658,"Ġineq":8659,"Ġmfoldl":8660,"ĠCorpor":8661,"Ġuv":8662,"ĠPartial":8663,"Ġjk":8664,"Ġprogram":8665,"`,`":8666,"typed":8667,"ĠKg":8668,"ĠBourbaki":8669,"ĠDup":8670,"Ġbehave":8671,"Ġmkpair":8672,"pointing":8673,"Ġrelating":8674,"Ġtriv":8675,"malizing":8676,"mpletion":8677,"Ġvariants":8678,"Ġdiscus":8679,"Ġ(âĬĶ":8680,"Ġneword":8681,"Ġmetriz":8682,"ĠContinuous":8683,"Ġsmoothness":8684,"Ġidentities":8685,"`):":8686,"Ġdependency":8687,"essentially":8688,"Ġangles":8689,"Ġhowever":8690,"Ġdirections":8691,"Ġallowed":8692,"Ġimmediate":8693,"Ġpigeonholes":8694,"Ġskeletal":8695,"Ġgoto":8696,"Ġmeaning":8697,"ynkin":8698,"Ġbecome":8699,"Ġ(_|_)":8700,"ĠFrÃ©chet":8701,"ĠMicros":8702,"ĠNoetherian":8703,"ĠCreate":8704,"Ġdestutter":8705,"atibility":8706,"ĠCorporation":8707,"ĠMicrosoft":8708,":\"":8709,"_\"":8710,"_`":8711,"birthday":8712,"ea":8713,"growing":8714,"hcd":8715,"mutually":8716,"pw":8717,"smal":8718,"torus":8719,"zify":8720,"Ġ(âŁª":8721,"Ġaa":8722,"ĠhÎ¨":8723,"Ġsites":8724,"Ġsafe":8725,"Ġswapp":8726,"Ġfx":8727,"almost":8728,"altitude":8729,"Ġcpow":8730,"Ġbifunctor":8731,"romo":8732,"Ġep":8733,"uncast":8734,"Ġcour":8735,"Ġcobounded":8736,"ancestor":8737,"ĠClo":8738,"coevaluation":8739,"Ġsubgoals":8740,"Ġprov":8741,"prehaar":8742,"Ġcompar":8743,"ĠBesicovitch":8744,"Ġcoevaluation":8745,"Ġintroduces":8746,"jointly":8747,"ĠUsing":8748,"')`":8749,"andle":8750,"Ġstor":8751,"Ġstruct":8752,"Ġ(âĮ":8753,"llap":8754,"Ġtransition":8755,"hypothe":8756,"ĠâĪŀ`":8757,"Ġcardinals":8758,"separates":8759,"forgetful":8760,"Ġdisc":8761,"âĤĺg":8762,"uliftable":8763,"delÃ¶":8764,"ĠðĿĵķ":8765,"Ġprimcodable":8766,"Ġconjugates":8767,"Ġ(_|":8768,"Ġcontinuation":8769,"Ġ`âĪĥ":8770,"Ġtruncation":8771,"ĠAddition":8772,"Ġgeometry":8773,"aire":8774,"â¨ħ":8775,"newton":8776,"Ġstmts":8777,"Ġreplaces":8778,"Ġsolutions":8779,"ĠCoercion":8780,"Ġsufficiently":8781,"LindelÃ¶":8782,"itnesses":8783,"ĠDupuis":8784,"romov":8785,"LindelÃ¶f":8786,"Lipschitz":8787,"Pre":8788,"With":8789,"[(":8790,"bug":8791,"fz":8792,"hmul":8793,"hdiv":8794,"ict":8795,"kson":8796,"label":8797,"mor":8798,"plying":8799,"Â²":8800,"ering":8801,"isi":8802,"reg":8803,"Ġcinfi":8804,"Ġ{_":8805,"Ġrfind":8806,"Ġear":8807,"lems":8808,"Ġdensity":8809,"ĠâŁ¨âĪħ,":8810,"iccard":8811,"Ġyz":8812,"Ġcome":8813,"Ġcoalgebra":8814,"Ġthou":8815,"ĠhaS":8816,"Ġhau":8817,"homomorphism":8818,"exing":8819,"sober":8820,"ĠâĬĩ":8821,"they":8822,"ĠPech":8823,"Ġkerase":8824,"Ġles":8825,"hasse":8826,"ĠHD":8827,"ĠKexing":8828,"ĠYing":8829,"ĠYakov":8830,"Ġextreme":8831,"âĪ¥),":8832,"âĤĥâĤĦ":8833,"ersky":8834,"cidability":8835,"')]":8836,"ĠProper":8837,"Ġentoura":8838,"ĠhtÎ¼":8839,"Ġhgx":8840,"Ġhnk":8841,"pairs":8842,"ĠĠĠĠĠĠĠĠĠĠĠĠĠĠĠĠĠĠĠĠĠĠĠĠ":8843,"exponential":8844,"ĠâĬ¤).":8845,"Ġelsewhere":8846,"Ġhkl":8847,"âŁ©);":8848,"dickson":8849,"Ġaffinely":8850,"Ġdiscriminant":8851,"âĢł":8852,"Ġ(âī¤),":8853,"faces":8854,"Ġspecializes":8855,"Ã¶n":8856,"Ġ`âĪı":8857,"Ġmonomials":8858,"Ġcause":8859,"numeric":8860,"ĠReturn":8861,"Ġ`â¨Ĩ":8862,"Ġoccurrences":8863,"Ġlaws":8864,"Ġinterpreted":8865,"Ġcolumn":8866,"ĠEmbedding":8867,"Ġdevelop":8868,"cendence":8869,"OfTypes":8870,"Ġcopies":8871,"Ġdocumentation":8872,"Ġcourse":8873,"iccardo":8874,"Ġthought":8875,"ĠPechersky":8876,"ID":8877,"Ortho":8878,"Profinite":8879,"each":8880,"him":8881,"ire":8882,"ox":8883,"Ġstri":8884,"tip":8885,"Ġborelize":8886,"Ġ`â":8887,"metas":8888,"ĠpB":8889,"Ġpg":8890,"Ġpairing":8891,"anonymous":8892,"Ġids":8893,"Ġliftr":8894,"âĤģ0":8895,"Ġyt":8896,"duplic":8897,"Ġsuffix":8898,"ĠMil":8899,"ĠMyers":8900,"Ġconsequence":8901,"ĠAdding":8902,"ĠGromov":8903,"Ġjordan":8904,"Ġunless":8905,"Ġproposed":8906,"Ġattributes":8907,"groups":8908,"ĠÎ¹b":8909,"oltip":8910,"ĠBae":8911,"Ġhsv":8912,"ĠVersion":8913,"forman":8914,"semireducible":8915,"ĠDa":8916,"Ġorelse":8917,"cessible":8918,".{(":8919,"enselian":8920,"-->":8921,"])âĪ¥":8922,"ĠĠĠĠĠĠĠĠĠĠĠĠĠĠĠĠĠĠĠĠĠĠĠĠĠĠĠĠĠ":8923,"Ġhzs":8924,"athÃ©":8925,"Ġassociators":8926,"Ġassociating":8927,"Ġ%%`(":8928,"ĠContinu":8929,"Ġcovered":8930,"Ġcontinuants":8931,"Ġmodelled":8932,"rbmap":8933,"Ġgoing":8934,"Ġcomparisons":8935,"Ġevaluated":8936,"Ġreplacing":8937,"Ġ`â¨ģ":8938,"ĠâŁ¨_âŁ©,":8939,"secutive":8940,"ĠSeul":8941,"ĠMake":8942,"Ġdeclared":8943,"Ġinteresting":8944,"vonN":8945,"Ġattempt":8946,"scoped":8947,"Ġseems":8948,"Returns":8949,"orizontal":8950,"ĠBaek":8951,"athÃ©odory":8952,")`:":8953,")::":8954,"Hf":8955,"One":8956,"dÃ©":8957,"eff":8958,"gmonoid":8959,"gci":8960,"hitting":8961,"hragmen":8962,"lc":8963,"pid":8964,"pcomp":8965,"ylow":8966,"mac":8967,"relevant":8968,"âĤĳ":8969,"Ġbxor":8970,"Ġbirthday":8971,"itary":8972,"Ġ`âĨ":8973,"Ġrid":8974,"hebyshev":8975,"Ġnlinarith":8976,"Ġpw":8977,"ano":8978,"Ġlittle":8979,"Ġwitness":8980,"Ġmi":8981,"ĠRiccardo":8982,"Ġdf":8983,"Ġdg":8984,"))âĪ¥":8985,"Ġhay":8986,"raw":8987,"Ġ+âĪŀ":8988,"ĠFunctor":8989,"ĠFTC":8990,"ĠFinally":8991,"Ġintent":8992,"Ġfinish":8993,"ĠTypeclass":8994,"Ġunzip":8995,"Ġhxp":8996,"ĠHi":8997,"Ġformed":8998,"ĠLex":8999,"Ġfunc":9000,"caling":9001,"ĠzL":9002,"ĠzR":9003,"ĠKyle":9004,"urth":9005,"Ġcomposed":9006,"ĠBundle":9007,"ĠBras":9008,"Ġpret":9009,"sided":9010,"liftq":9011,"lifted":9012,"ĠÎ³áµĴáµĪ":9013,"Ġhpm":9014,"')),":9015,"Ġ\"]":9016,"Ġ(âĪĺ":9017,"Ġnondiscrete":9018,"Ġ`((":9019,"berg":9020,"ĠInstances":9021,"via":9022,"dependency":9023,"Ġquite":9024,"exprterm":9025,"ĠâĪ¨*":9026,"Ġlimiting":9027,"Ġgeneralised":9028,"linfty":9029,"usted":9030,"ĠRecur":9031,"hmer":9032,"Ġmeq":9033,"semisimple":9034,"Ġcofinal":9035,"Ġperforman":9036,"ĠDeprecated":9037,"Ġmetavariable":9038,"ĠhAB":9039,"artan":9040,"Ġextensions":9041,"Ġpartitions":9042,"Ġcontextual":9043,"Additive":9044,"Ġshiftl":9045,"ĠUniform":9046,"Ġevaluate":9047,"Ġ([]":9048,"Ġ(|(":9049,"Liminf":9050,"Ġeasily":9051,"Ġsurely":9052,"Ġfunctoriality":9053,"Defin":9054,"ĠZFC":9055,"representable":9056,"ĠFrÃ©dÃ©":9057,"Ġissues":9058,"ĠThus":9059,"necessarily":9060,"differential":9061,"ortunately":9062,"Ġ\"-/]":9063,"Ġcomplicated":9064,"Ġmetrizable":9065,"ĠMiller":9066,"ĠBrasca":9067,"ĠFrÃ©dÃ©ric":9068,"!`":9069,"'+":9070,"'âŁ¯":9071,"Auxiliary":9072,"Mat":9073,"Similar":9074,"hpos":9075,"kunion":9076,"longest":9077,"nz":9078,"pter":9079,"paired":9080,"rmatch":9081,"sample":9082,"uv":9083,"umax":9084,"Ġom":9085,"Ġ(>)":9086,"Ġhli":9087,"Ġhnorm":9088,"erar":9089,"original":9090,"ĠfâĤĹ":9091,"Ġpcomp":9092,"Ġik":9093,"âŁ©|âŁ¨":9094,"Ġexec":9095,"construct":9096,"Ġdx":9097,"Ġreader":9098,"Ġcontr":9099,"Ġcoset":9100,"simpa":9101,"homs":9102,"ĠCan":9103,"ĠFix":9104,"esymm":9105,"ineering":9106,"rings":9107,"ĠPâĤĹ":9108,"Ġhxr":9109,"ĠHy":9110,"prebundle":9111,"Ġzigzag":9112,"ĠNum":9113,"Ġcompare":9114,"Ġ((âŁ¨":9115,"ermore":9116,"parity":9117,"Ġusage":9118,"interest":9119,"intersections":9120,"classified":9121,"ĠâĪ¥âĪĳ":9122,"Ġtrack":9123,"Ġendofunctor":9124,"Ġinteredges":9125,"Ġlocalized":9126,"inline":9127,"ĠĠĠĠĠĠĠĠĠĠĠĠĠĠĠĠĠĠĠĠĠĠĠĠĠĠĠĠĠĠĠ":9128,")`-":9129,"Ġrelindex":9130,"reducibility":9131,"injl":9132,"Ġsubtypes":9133,"submodules":9134,"ĠâĪŀ`.":9135,"Ġhomotopies":9136,"Ġdischar":9137,"Ġ(âī¤)).":9138,"arithm":9139,"Ġconditional":9140,"Ġtests":9141,"Ġmaximals":9142,"Ġsimplified":9143,"Ġembeds":9144,"Ġruns":9145,"Ġeigenvalues":9146,"Ġdenote":9147,"ĠAlso":9148,"sorry":9149,"Ġfaster":9150,"ĠâŁ¨[],":9151,"package":9152,"Ġpractice":9153,"Ġmethod":9154,"maginary":9155,"urthermore":9156,"erarchy":9157,"':":9158,")âģº":9159,"+`":9160,"Fq":9161,"SMOD":9162,"`?":9163,"gcomm":9164,"hZ":9165,"ihom":9166,"iota":9167,"safe":9168,"Ġ!":9169,"inequality":9170,"leave":9171,"Ġhcomm":9172,"orry":9173,"ality":9174,"Ġcantor":9175,"sually":9176,"suggest":9177,"Ġrn":9178,"Ġrtensor":9179,"Ġrxy":9180,"ĠâĨ¿":9181,"define":9182,"impl":9183,"ĠÎ±Ë¢Ê¸áµĲ":9184,"velope":9185,"Ġ}`.":9186,"âŁ©)),":9187,"Ġmfoldr":9188,"Ġref":9189,"Ġrealizer":9190,"Ġdecidability":9191,"ĠFintype":9192,"ĠFuture":9193,"Ġ12":9194,"Ġproducing":9195,"nate":9196,"ĠHc":9197,"ĠHx":9198,"ĠLHS":9199,"ĠKf":9200,"ĠNormed":9201,"Ġcomputations":9202,"alling":9203,"ĠhsU":9204,"Ġhsx":9205,"finitely":9206,"liftp":9207,"Ġhbi":9208,"ersenne":9209,"Ġsummand":9210,"Ġidx":9211,"argmax":9212,"Ġhms":9213,"output":9214,"Ġmulticospan":9215,"âĪŀ`,":9216,"Ġranges":9217,"'];":9218,"Ġtransl":9219,"Ġminimi":9220,"hts":9221,"Ġexplode":9222,"since":9223,"ĠIHf":9224,"Ġirrefl":9225,"associativity":9226,"âŁ«`":9227,"semilinear":9228,"Ġspecialization":9229,"Ġintegrability":9230,"Ġnodupkeys":9231,"fiberwise":9232,"ĠMeasu":9233,"ĠTherefore":9234,"Ġerrors":9235,"Ġ`âĪĳ'":9236,"Example":9237,"Ġconclusion":9238,"Ġliterature":9239,"duplicate":9240,"'},":9241,"87":9242,":\\":9243,"Fr":9244,"Hmul":9245,"_(":9246,"banach":9247,"flow":9248,"ole":9249,"wp":9250,"Ïĸ":9251,"Ġ(/":9252,"Ġalthough":9253,"ĠhO":9254,"major":9255,"Ġfar":9256,"enabled":9257,"sume":9258,"Ġxeq":9259,"comonad":9260,"Ġec":9261,"anion":9262,"Ġio":9263,"Ġ-âŁ©,":9264,"Ġdmatrix":9265,"subterminal":9266,"Ġdetail":9267,"sohn":9268,"ĠSch":9269,"ĠScalar":9270,"ĠFi":9271,"variation":9272,"Ġkind":9273,"ĠLike":9274,"cha":9275,"noncompact":9276,"nonuniform":9277,"tauto":9278,"hff":9279,"Ġ((+)":9280,"Ġextent":9281,"Ġ[âĨĲ(":9282,"divergence":9283,"Ġpremise":9284,"ĠJordan":9285,"ĠâĪ§*":9286,"Ġhierarchy":9287,"ĠWhile":9288,"Ġhtm":9289,"nown":9290,"Ġhnp":9291,"ĠâĦ¤Ë£":9292,"])âŁ©":9293,"Ġdescribing":9294,"ĠInverse":9295,"Ġhrn":9296,"ĠâĦĤâģ¿":9297,"conjugates":9298,"Ġhkn":9299,"Ġformer":9300,"ĠâĪŀ`,":9301,"ĠðĿĴŁ":9302,"arest":9303,"Ġsequential":9304,"Ġinfinitely":9305,"atement":9306,"ĠhIJ":9307,"Ġcomputability":9308,"Ġdigit":9309,"Ġmachin":9310,"Ġmultiplied":9311,"Ġconvergent":9312,"ĠLocal":9313,"Model":9314,"Ġissue":9315,"epsilon":9316,"Ġsituation":9317,"Ġreversed":9318,"computably":9319,"Ġstrip":9320,"ĠLexicographic":9321,")âĪ¥)":9322,".\"":9323,"FA":9324,"Wequiv":9325,"cantor":9326,"either":9327,"hre":9328,"plt":9329,"}\",":9330,"ĠhÎ¾":9331,"ĠÎĶ":9332,"rewr":9333,"ĠrÎ²":9334,"cop":9335,"coclosed":9336,"Ġpull":9337,"ulip":9338,"Ġinduce":9339,"Ġlot":9340,"Ġwidget":9341,"âĤĤ0":9342,"Ġdid":9343,"Ġsuggest":9344,"ĠMáµ¢":9345,"Ġcoinduced":9346,"ĠAd":9347,"ĠAlter":9348,"Ġhap":9349,"ĠCNF":9350,"raph":9351,"ĠSylow":9352,"ĠFrom":9353,"ĠFrobenius":9354,"Ġsubsequent":9355,"ĠEn":9356,"ĠHo":9357,"preterm":9358,"charger":9359,"Ġzsqrtd":9360,"ĠÎ¹a":9361,"nonunit":9362,"logic":9363,"Ġ((âĬ¤":9364,"miano":9365,"hael":9366,"nother":9367,"Ġorig":9368,"Ġbest":9369,"Ġhbt":9370,"Ġabbrevi":9371,"Ġsummands":9372,"Ġ\")\"":9373,"maximum":9374,")]`":9375,"âĦį":9376,"Ġhgt":9377,"Ġhns":9378,"Ġcommen":9379,"Ġsec":9380,"monotonicity":9381,"Ġchanging":9382,"create":9383,"Ġihp":9384,"generators":9385,"hba":9386,"osites":9387,"âĤĦâĤĥ":9388,"semifield":9389,"Ġunfolding":9390,"Ġidentific":9391,"Ġchaar":9392,"collection":9393,"Ġcontinuum":9394,"sively":9395,"Ġsucces":9396,"Ġraw":9397,"Ġcalling":9398,"Ġsuperset":9399,"ĠBoundedOrder":9400,"Ġrevzip":9401,"Ġregistered":9402,"ĠChange":9403,"Ġtypical":9404,"triangulated":9405,"jectivity":9406,"ĠTesta":9407,"provided":9408,"ĠDamiano":9409,"*(":9410,"34":9411,"At":9412,"Gs":9413,"Imp":9414,"Th":9415,"XY":9416,"dx":9417,"efixed":9418,"ematch":9419,"gn":9420,"hadd":9421,"hmem":9422,"hcont":9423,"ier":9424,"lsingle":9425,"stit":9426,"skolem":9427,"uma":9428,"Ġ),":9429,"Ġ##":9430,"indefinite":9431,"Ġ(=":9432,"lehmer":9433,"Ġsatellite":9434,"Ġfuzzy":9435,"alind":9436,"Ġctop":9437,"Ġclean":9438,"Ġcmd":9439,"ofork":9440,"ĠxâĤĻ":9441,"Ġpc":9442,"aracter":9443,"unary":9444,"stereo":9445,"Ġimaginary":9446,"mulate":9447,"Ġinits":9448,"asymptotics":9449,"Ġlhopital":9450,"pposites":9451,"Ġwra":9452,"Ġrestate":9453,"Ġrefinement":9454,"istent":9455,"comps":9456,"Ġsumming":9457,"Ġcop":9458,"Ġcolex":9459,"Ġdeg":9460,"uples":9461,"ĠSte":9462,"ĠSymmetric":9463,"ĠPr":9464,"Ġjs":9465,"ĠEqu":9466,"moebius":9467,"natole":9468,"Ġzorn":9469,"ĠKáĹ®":9470,"áµĸ":9471,"ĠNi":9472,"Ġ((âĪ":9473,"alls":9474,"ticofork":9475,"notin":9476,"obtain":9477,"univs":9478,"Ġhpn":9479,"âĦĻ":9480,"Ġendpoints":9481,"Ġstore":9482,"Ġdistinguished":9483,"Ġhtt":9484,"emptyc":9485,"hxz":9486,"Ġhcr":9487,"Ġdiffic":9488,"Ġ`(Â¬":9489,"Ġexprterm":9490,"multifork":9491,"âĪŀ),":9492,"Ġadvantage":9493,"anks":9494,"Îłi":9495,"ĠâŁ¨âŁ¨(":9496,"âŁ©)âŁ©":9497,"Ġuniquely":9498,"descending":9499,"what":9500,"written":9501,"Ġsimpler":9502,"pushouts":9503,"ĠDedec":9504,"Ġstrings":9505,"Ġmodels":9506,"Ġscalars":9507,"Ġessential":9508,"âĭĤ":9509,"Ġtrivializations":9510,"Ġpropositional":9511,"ĠMultiplying":9512,"Ġcoloring":9513,"Ġinherited":9514,"Ġ(_|_|_":9515,"correctness":9516,"Ġautomorphisms":9517,"ĠIntegral":9518,"augment":9519,"Ġ`(-âĪŀ,":9520,"Ġscanl":9521,"Ġ(âĮĬ":9522,"llapse":9523,"alindro":9524,"ĠDedecker":9525,"17":9526,"90":9527,"Gener":9528,"bRiemann":9529,"ef":9530,"hirr":9531,"mfilter":9532,"should":9533,"onize":9534,"Ġhtop":9535,"Ġhmin":9536,"Ġsorry":9537,"orov":9538,"Ġtsupport":9539,"Ġtalk":9540,"isot":9541,"Ġcross":9542,"Ġcubic":9543,"Ġbre":9544,"Ġ`Â¬":9545,"mex":9546,"coinductive":9547,"Ġpprod":9548,"ĠiV":9549,"assert":9550,"Ġ}âŁ©âŁ©":9551,"Ġmgf":9552,"ĠâŁ¨âĭĥ":9553,"look":9554,"otes":9555,"ĠTurns":9556,"ets":9557,"subfamily":9558,"ĠMod":9559,"Ġthunk":9560,"))`,":9561,"oplax":9562,"ĠÎ»n":9563,"ĠAnatole":9564,"Ġdeps":9565,"raise":9566,"Ġâī¤*":9567,"ĠSS":9568,"ĠSh":9569,"ĠSáµĲáµĴáµĸ":9570,"coev":9571,"ĠPID":9572,"called":9573,"Ġhfp":9574,"Ġmartingale":9575,"Ġqc":9576,"Ġprefunctor":9577,"Ġprehaar":9578,"ĠVal":9579,"ĠJens":9580,"interpolate":9581,"named":9582,"ropic":9583,"Ġ\"!\"":9584,"ackage":9585,"Ġnonunits":9586,"Ġdihedral":9587,"bipartite":9588,"Ġadic":9589,"injr":9590,"Ġhrs":9591,"joined":9592,"ĠâĬ¥_":9593,"Ġoptions":9594,"Ġerased":9595,"Ġpreimages":9596,"symbol":9597,"ĠhÎ¼m":9598,"Ġconjugation":9599,"mangold":9600,"Ġshiftr":9601,"Ġ`âĪħ":9602,"Ġhole":9603,"Ġ(`(":9604,"Ġ`âĬĵ":9605,"Ġjoint":9606,"Ġuliftable":9607,"ĠAdditive":9608,"ĠExample":9609,"Ġminimals":9610,"Ġ``(@":9611,"Ġplay":9612,"mpotents":9613,"embed":9614,"Ġregard":9615,"Ġcomputes":9616,"Ġcombinations":9617,"Ġaccording":9618,"expressions":9619,"Ġ(âĢ¢)":9620,"Ġanalogue":9621,"Ġreference":9622,"ĠMichael":9623,"determinant":9624,"Ġdiamond":9625,"Ġimmediately":9626,"ĠProperties":9627,"Ġpretty":9628,"Ġperformance":9629,"isotropic":9630,"mangoldt":9631,"14":9632,"Sep":9633,"bb":9634,"eL":9635,"fA":9636,"had":9637,"hsum":9638,"pfilter":9639,"sr":9640,"umann":9641,"xadd":9642,"Ġhalt":9643,"Ġsc":9644,"Ġbisim":9645,"Ġbicategorical":9646,"Ġ`>":9647,"surable":9648,"Ġxj":9649,"Ġrack":9650,"Ġrig":9651,"coords":9652,"Ġpe":9653,"ands":9654,"unzip":9655,"ĠâĪĲ":9656,"Ġihs":9657,"Ġwcovby":9658,"pop":9659,"Ġmm":9660,"Ġrestr":9661,"zeroth":9662,"Î»f":9663,"lton":9664,"ĠMono":9665,"Ġhaus":9666,"ĠIts":9667,"ĠCho":9668,"uted":9669,"Ġsubfamily":9670,"ĠGâĤĹ":9671,"ĠGCD":9672,"Ġunlike":9673,"transcendence":9674,"nonunits":9675,"Ġhyt":9676,"ĠDiv":9677,"ĠâĪ¥âĪ«":9678,"cive":9679,"Ġeqn":9680,"Ġstu":9681,"Ġenc":9682,"Ġenco":9683,"Ġneighbor":9684,"scri":9685,"Int":9686,"Ġhcf":9687,"Ġâĭ¯":9688,"ĠInduction":9689,"Ġderangements":9690,"tactics":9691,"divisor":9692,"Ġcommutativity":9693,"Ġperms":9694,"Ġlogarithm":9695,"ĠRearrangement":9696,"ĠConverts":9697,"circu":9698,"hdf":9699,"Ġfollowed":9700,"odym":9701,"Ġcombine":9702,"tsze":9703,"ĠTopCommRing":9704,"gress":9705,"Ġdivisi":9706,"Ġcreating":9707,"Ġâģħ(":9708,"buf":9709,"Ġdimensions":9710,"ĠSpecial":9711,"Ġsupermartingale":9712,"Semigroup":9713,"ĠPreorder":9714,"ĠPrefer":9715,"ssubsets":9716,"Ġformulation":9717,"Ġasserting":9718,"bcf":9719,"ulower":9720,"Ġrows":9721,"Ġaugment":9722,"Ġlonger":9723,"Ġexplan":9724,"Ġcolumns":9725,"Ġestablish":9726,"ĠSemilatticeSup":9727,"Kuratowski":9728,"ikodym":9729,"current":9730,"Ġexclu":9731,"Ġlexicographic":9732,"compression":9733,"ĠChapter":9734,"Ġearlier":9735,"pltSep":9736,"pltSepUniformSpace":9737,"'ve":9738,"CNF":9739,"`{":9740,"avi":9741,"aáµ¢":9742,"dlist":9743,"frange":9744,"hiding":9745,"land":9746,"mM":9747,"nally":9748,"sity":9749,"vitali":9750,"ength":9751,"Ġ[``":9752,"Ġ_|âŁ¨":9753,"Ġxv":9754,"Ġpn":9755,"Ġek":9756,"Ġev":9757,"Ġefficient":9758,"des":9759,"decess":9760,"detecting":9761,"stone":9762,"abstract":9763,"together":9764,"Ġ}},":9765,"contraction":9766,"Ġmoment":9767,"Ġyv":9768,"ĠTuring":9769,"ĠTaking":9770,"Î»m":9771,"compare":9772,"Ġconservative":9773,"Ġcoupling":9774,"Ġdecre":9775,"expl":9776,"ĠCU":9777,"ĠCa":9778,"utz":9779,"utor":9780,"ĠSection":9781,"vertices":9782,"ĠGr":9783,"Ġunpair":9784,"ĠEu":9785,"Ġhxv":9786,"Ġprogress":9787,"preservation":9788,"Ġapplyc":9789,"ĠKee":9790,"ĠKË£":9791,"Ġpol":9792,"ĠNâĤĹ":9793,"Ġcomposite":9794,"Ġcompatibility":9795,"grange":9796,"Ġfunctional":9797,"Ġpres":9798,"differ":9799,"distance":9800,"Ġlow":9801,"ndunion":9802,"objs":9803,"actions":9804,"Ġhtc":9805,"Ġparacompact":9806,"Ġltensor":9807,"Ġmonomorphisms":9808,"monadic":9809,"residual":9810,"Ġbimap":9811,"bosity":9812,"Ġ(â¨Ĥ[":9813,"Ġcompactness":9814,"iterion":9815,"Ġcasts":9816,"ickly":9817,"Ġidentical":9818,"Ġupgrade":9819,"Ġboundaries":9820,"Ġadditionally":9821,"Ġtrying":9822,"Ġnonnegg":9823,"Ġesakia":9824,"Ġavoids":9825,"Ġcsring":9826,"ĠUniformSpace":9827,"Ġremoved":9828,"Ġreducibility":9829,"Define":9830,"Ġpostfix":9831,"ĠCharacter":9832,"triangular":9833,"Ġdealing":9834,"Ġ<:+:":9835,"Ġintersects":9836,"Ġhappen":9837,"ĠSemilatticeInf":9838,"ĠEvaluate":9839,"Ġenumerate":9840,"ĠBernoulli":9841,"Ġproviding":9842,"ĠBundled":9843,"ĠNicol":9844,"lookmap":9845,"-)":9846,"AB":9847,"Fun":9848,"Fintype":9849,"General":9850,"Ord":9851,"bkts":9852,"eb":9853,"ger":9854,"hY":9855,"pa":9856,"pens":9857,"wseq":9858,"will":9859,"widget":9860,"Ġ(),":9861,"Ġatomic":9862,"Ġhal":9863,"Ġhus":9864,"Ġhroot":9865,"ising":9866,"ĠfA":9867,"reduct":9868,"requi":9869,"âĤĩ":9870,"Ġbr":9871,"atural":9872,"Ġ_|_":9873,"coseparator":9874,"Ġpot":9875,"Ġpythagorean":9876,"deprecated":9877,"mulated":9878,"Ġisometri":9879,"Ġlive":9880,"ppred":9881,"Ġgold":9882,"Ġmere":9883,"Ġdu":9884,"Î»c":9885,"Î»h":9886,"Ġtodo":9887,"track":9888,"Ġ$>":9889,"expected":9890,"ĠChebyshev":9891,"ĠSplit":9892,"file":9893,"Ġformalized":9894,"Î±áµĲáµĴáµĸ":9895,"Ġfill":9896,"Ġfibers":9897,"ĠzI":9898,"ĠKapp":9899,"hfx":9900,"elmann":9901,"Ġ((âĬ¥":9902,"Ġextremum":9903,"izing":9904,"lenberg":9905,"Ġorient":9906,"obvious":9907,"hsf":9908,"Ġ\"_":9909,"Ġstone":9910,"Ġneither":9911,"Ġinterpolate":9912,"Ġdiffe":9913,"argmin":9914,"amification":9915,"hgi":9916,"ĠĠĠĠĠĠĠĠĠĠĠĠĠĠĠĠĠĠĠĠĠĠĠĠĠĠĠĠ":9917,"Ġexprform":9918,"Ġrelates":9919,"Ġrelabel":9920,"distributor":9921,"âŁ©âŁ©),":9922,"Ġquandle":9923,"rescale":9924,"Ġ[]),":9925,"Ġhzy":9926,"Ġsurjection":9927,"matches":9928,"Ġcoroll":9929,"Ġmeant":9930,"Ġ2014":9931,"ĠConstructor":9932,"ĠâŁ¨(),":9933,"ĠhUV":9934,"comb":9935,"Ġobjs":9936,"ðĿĵķ":9937,"Ġdivisor":9938,"Ġ`âĬĶ":9939,"Ġsoln":9940,"ĠTopological":9941,"Ġadmit":9942,"Ġsemiconjugates":9943,"Addition":9944,"Ġblack":9945,"âĪĳ'":9946,"Ġhandle":9947,"ĠPredic":9948,"Ġformulated":9949,"closeds":9950,"definitional":9951,"ĠCompletion":9952,"ðĿĶ¼":9953,"ĠEilenberg":9954,"ĠEquivalent":9955,"Ġtreat":9956,"natization":9957,"Ġcorrespondence":9958,"Ġgrundy":9959,"ĠZhouhang":9960,"printable":9961,"boole":9962,"included":9963,"alindrome":9964,"Ġrigid":9965,"Ġhausdorff":9966,"Ġexplanation":9967,"ĠKeeley":9968,"Ġpresence":9969,"ĠKappelmann":9970,"By":9971,"Trans":9972,"elt":9973,"gb":9974,"hinj":9975,"mb":9976,"oses":9977,"rather":9978,"war":9979,"witness":9980,"Ã²":9981,"ÄĮ":9982,"ĩĳ":9983,"inh":9984,"leri":9985,"Ġhard":9986,"Ġhmax":9987,"Ġfuture":9988,"Ġbits":9989,"Ġ`âī":9990,"Ġramification":9991,"coseparating":9992,"accu":9993,"ĠâĪļ":9994,"ĠiX":9995,"ĠiZ":9996,"tions":9997,"rigue":9998,"assuming":9999,"Ġiseqv":10000,"gelian":10001,"Ġmr":10002,"ĠRod":10003,"addr":10004,"address":10005,"Ġrely":10006,"Ġremoves":10007,"Ġann":10008,"lices":10009,"ĠAffine":10010,"exchange":10011,"extract":10012,"ĠCf":10013,"ĠFu":10014,"trieve":10015,"trigonometric":10016,"inese":10017,"ĠGe":10018,"theore":10019,"ĠPushforward":10020,"filtration":10021,"mount":10022,"ĠhxV":10023,"ĠHt":10024,"Ġformalization":10025,"valleri":10026,"adapted":10027,"ĠÏĸ":10028,"holor":10029,"ĠYoneda":10030,"urr":10031,"Î¼s":10032,"dividual":10033,"Ġprelax":10034,"ĠJean":10035,"Ġhpa":10036,"Ġstable":10037,"ĠWÃ¤":10038,"Ġhtf":10039,"evaln":10040,"bitwise":10041,"Ġnegations":10042,"ĠâĬ¤`":10043,"conjugation":10044,"Ġtriple":10045,"steps":10046,"Ġargmax":10047,"Ġcompletely":10048,"âģĨ)":10049,"âŁ§'":10050,"ĠComplete":10051,"Ġcollinear":10052,"ĠMonge":10053,"Ġprojs":10054,"Ġhomeomorphic":10055,"ĠTopology":10056,"Ġrecursor":10057,"Ġ(#(":10058,"ĠInterpret":10059,"Ġstalks":10060,"Ġremains":10061,"SemiNormedGroup":10062,"ĠBoundedDistribLattice":10063,"Ġdownward":10064,"Ġhexagon":10065,"tracing":10066,"ĠBecause":10067,"Ġperforms":10068,"higher":10069,"replacer":10070,"Ġpurpose":10071,"Ġquantifiers":10072,"Ġignore":10073,"ĠHoek":10074,"ĠCavalleri":10075,"Ġpolish":10076,"ĠNicolÃ²":10077,"warz":10078,"ÄĮech":10079,"riguez":10080,"ĠRodriguez":10081,"ĠWÃ¤rn":10082,"'])":10083,")-":10084,"09":10085,"21":10086,"24":10087,">>":10088,"CO":10089,"Every":10090,"Hb":10091,"Hi":10092,"Nikodym":10093,"Two":10094,"While":10095,"YZ":10096,"`âĪĢ":10097,"follow":10098,"ging":10099,"gsemiring":10100,"gges":10101,"good":10102,"hderiv":10103,"kleisli":10104,"lchild":10105,"mfoldr":10106,"naming":10107,"pSet":10108,"pmf":10109,"rchild":10110,"witnesses":10111,"xa":10112,"}:":10113,"Ã¡":10114,"ÎĻ":10115,"increasing":10116,"Ġamount":10117,"ery":10118,"Ġfmeas":10119,"ĠfdRep":10120,"enveloping":10121,"alsum":10122,"req":10123,"reserved":10124,"Ġcmem":10125,"Ġcut":10126,"Ġ`âģ»":10127,"Ġ_`.":10128,"Ġrand":10129,"Ġey":10130,"Ġediam":10131,"unpaired":10132,"acc":10133,"decreasing":10134,"stationary":10135,"ĠiY":10136,"Ġ=*":10137,"Ġindividual":10138,"poses":10139,"Ġmix":10140,"Ġreport":10141,"ĠyN":10142,"flatten":10143,"ĠMáµĴáµĪ":10144,"Ġconne":10145,"Ġcontract":10146,"Ġconversion":10147,"Ġcool":10148,"Ġcoind":10149,"Ġcosets":10150,"Ġthanks":10151,"))^":10152,"))âŁ©,":10153,"Ġdeci":10154,"Ġhai":10155,"ques":10156,"Ġvice":10157,"ĠSmooth":10158,"ĠFree":10159,"Ġ16":10160,"Ġuo":10161,"esc":10162,"Ġfine":10163,"ĠGab":10164,"ĠPF":10165,"ĠPull":10166,"defn":10167,"Ġoy":10168,"ĠEb":10169,"preprocessor":10170,"adon":10171,"hfa":10172,"play":10173,"Ġ((>)":10174,"Ġ[âĨĲ@":10175,"strass":10176,"Ġusable":10177,"onemptyFin":10178,"lements":10179,"cessing":10180,"Ġnested":10181,"Ġhnz":10182,"Ġstruc":10183,"cancellation":10184,"Ġnonsing":10185,"Ġnonote":10186,"bitraversable":10187,"Ġmultivariable":10188,"nerve":10189,"Ġdescribe":10190,"multivariate":10191,"counting":10192,"Ġihq":10193,"Ġtranslate":10194,"termine":10195,"Ġargmin":10196,"lindel":10197,"Ġbitraverse":10198,"Ġindexes":10199,"chemes":10200,"Ġ(âī¤))":10201,"Ġlink":10202,"atomistic":10203,"Ġperiod":10204,"Ġvertical":10205,"abelianization":10206,"Ġpreorders":10207,"ĠhVU":10208,"Ġdocstring":10209,"Ġ50":10210,"Ġexistential":10211,"ĠExtract":10212,"ĠProposition":10213,"Ġallowing":10214,"ĠĠĠĠĠĠĠĠĠĠĠĠĠĠĠĠĠĠĠĠĠĠĠĠĠĠĠĠĠĠĠĠĠĠĠĠĠ":10215,"metrize":10216,"Ġtanh":10217,"Ġsimplification":10218,"Ġdifferentials":10219,"projectives":10220,"Ġconverge":10221,"Ġcomplements":10222,"Ġgoes":10223,"Ġinputs":10224,"Ġ(Â¬*":10225,"Ġshrinking":10226,"âĭĨ[":10227,"Ġ`âĪ«âģ»":10228,"Ġ`âĬ¤`.":10229,"Ġlooks":10230,"Ġconverging":10231,"ĠFinVect":10232,"ĠShows":10233,"Ġtrees":10234,"Haze":10235,"========":10236,"Ġrepresentatives":10237,"LinOrd":10238,"ĠLaurent":10239,"Ġpassing":10240,"cofinals":10241,"Ġmathematical":10242,"Ġbuilding":10243,"veloped":10244,"ierstrass":10245,"script":10246,"ĠPredicate":10247,"onemptyFinLinOrd":10248,"lindelof":10249,"'âģ»":10250,"(_":10251,"*.":10252,"70":10253,"<|>":10254,"Finally":10255,"Lemma":10256,"Magma":10257,"dnf":10258,"jian":10259,"known":10260,"lative":10261,"oy":10262,"punctured":10263,"rull":10264,"sl":10265,"ujian":10266,"Ġoth":10267,"Ġorthocenter":10268,"Ġ(âŁ¦":10269,"Ġai":10270,"Ġhut":10271,"Ġhderiv":10272,"ĠhÎ²":10273,"mari":10274,"rest":10275,"reflexivity":10276,"Ġcat":10277,"ĠbâĤĻ":10278,"Ġ`@":10279,"Ġ`âģħ":10280,"meli":10281,"cochain":10282,"ĠpA":10283,"Ġpth":10284,"Ġef":10285,"ĠeâĤĻ":10286,"ark":10287,"dez":10288,"Ġlcs":10289,"endo":10290,"Ġwon":10291,"ceux":10292,"contractible":10293,"finsum":10294,"pou":10295,"ĠâŁ¨âĬ¥":10296,"Ġreorder":10297,"Ġya":10298,"idi":10299,"Ġthing":10300,"ĠAâĤĻ":10301,"Ġdelete":10302,"Ġdetermine":10303,"expres":10304,"Ġsubalgebras":10305,"their":10306,"ĠTypes":10307,"Ġks":10308,"ĠHp":10309,"ĠHas":10310,"Ġcomposing":10311,"Ġqx":10312,"Ġpredecess":10313,"teichmuller":10314,"ĠJujian":10315,"strictly":10316,"ĠUáµ¢":10317,"doset":10318,"Ġparent":10319,"''âŁ©":10320,"Ġnamely":10321,"Ġbilimit":10322,"anticomm":10323,"Ġhzx":10324,"hbdd":10325,"Ġhdf":10326,"disc":10327,"codetecting":10328,"Ġâ¨Ĥ[":10329,"Ġimply":10330,"cospherical":10331,"Ġ_))).":10332,"ĠFormulated":10333,"ĠhÎ¼Î½":10334,"Ġgrading":10335,"Ġlinfty":10336,"Ġcommands":10337,"Ġcofiltered":10338,"Ġ#{":10339,"declare":10340,"Ġdifferences":10341,"Ġdistributes":10342,"tivization":10343,"Ġsheafify":10344,"Ġsubrings":10345,"Ġmonads":10346,"Ġcancellative":10347,"Ġpseudoemetric":10348,"Ġparticularly":10349,"Ġlikely":10350,"Ġmainly":10351,"besicovitch":10352,"Ġplane":10353,"clopenable":10354,"Ġlinters":10355,"construction":10356,"hIJ":10357,"vandermonde":10358,"Ġmoved":10359,"relational":10360,"Ġcurrying":10361,"Ġhelps":10362,"Ġgcf":10363,"andidate":10364,"196":10365,"Ġprints":10366,"ĠSheafOfTypes":10367,"ĠBoolAlg":10368,"Ġinfixr":10369,"Distortion":10370,"ĠâĹĥâģ»":10371,"simplification":10372,"Ġconclude":10373,"jectivization":10374,"approximates":10375,"Ġ(âĬĵ),":10376,"Ġconfused":10377,"combinator":10378,"Ġ`âŁª`":10379,"Because":10380,"Ġbehaves":10381,"Ġencoded":10382,"Ġothers":10383,"*`.":10384,",âĨĲ":10385,"-`":10386,".>":10387,"Banach":10388,"II":10389,"Le":10390,"Me":10391,"Otherwise":10392,"PO":10393,"ake":10394,"bose":10395,"csinh":10396,"gnpow":10397,"hps":10398,"jes":10399,"ned":10400,"ndez":10401,"pull":10402,"tunnel":10403,"}$":10404,"Ġ?":10405,"Ġortho":10406,"Ġ(âīł":10407,"Ġher":10408,"Ġhar":10409,"Ġhsurj":10410,"Ġhorizontal":10411,"isations":10412,"Ġflow":10413,"Ġclique":10414,"Ġband":10415,"Ġ`âĭĥ":10416,"suring":10417,"Ġxf":10418,"height":10419,"Ġnmem":10420,"Ġpis":10421,"unif":10422,"unmop":10423,"ston":10424,"Ġil":10425,"Ġintr":10426,"ride":10427,"riel":10428,"tooltip":10429,"Ġexposed":10430,"Ġexception":10431,"Ġwg":10432,"contract":10433,"âĤĤâĤĦ":10434,"mmy":10435,"ĠTry":10436,"ĠTwop":10437,"ĠÎ»p":10438,"ĠAut":10439,"upto":10440,"ĠIxx":10441,"ĠâĪĪ+":10442,"âĪ§":10443,"Ġmultispan":10444,"Ġmulticofork":10445,"ĠPar":10446,"ĠPost":10447,"Ġkl":10448,"Ġunchanged":10449,"Ġox":10450,"Ġopp":10451,"ĠHmul":10452,"ĠLiving":10453,"typ":10454,"Ġzmultiples":10455,"ategy":10456,"ardinal":10457,"olded":10458,"ĠBaire":10459,"gronwall":10460,"Ġqb":10461,"Î¼H":10462,"paracompact":10463,"ĠVar":10464,"primary":10465,"ĠDynkin":10466,"Ġhbs":10467,")])":10468,"âĦµ":10469,"Ġenable":10470,"iesz":10471,"Ġhcg":10472,"Ġassumed":10473,"Ġmonge":10474,"ĠĠĠĠĠĠĠĠĠĠĠĠĠĠĠĠĠĠĠĠĠĠĠĠĠĠĠĠĠĠĠĠĠ":10475,"Ġprimed":10476,"Ġrelate":10477,"sheafification":10478,"ĠâĬ¤_":10479,"ĠâĨĴ+*[":10480,"Ġboard":10481,"Ġnonemp":10482,"hnm":10483,"Ġhdg":10484,"osen":10485,"projs":10486,"ĠReplace":10487,"ĠâĬ¢;":10488,"lephant":10489,"semble":10490,"Ġnormalisation":10491,"Ġ~>":10492,"Î½n":10493,"Ġrepresentable":10494,"revzip":10495,"Ġ(âĬ¤_":10496,"encodek":10497,"csring":10498,"catalan":10499,"Ġeliminated":10500,"Ġsolved":10501,"nfortunately":10502,"Cons":10503,"Ġrestrictions":10504,"Ġ`-`":10505,"Ġsubtractions":10506,"Ġinvariants":10507,"ĠrecF":10508,"Ġcomputing":10509,"elems":10510,"Ġoccurs":10511,"Ġloops":10512,"Ġlawful":10513,"bcnn":10514,"ĠFinPartialOrder":10515,"Ġinheritance":10516,")âŁ§,":10517,"Ġspecifying":10518,"âħŁ2":10519,"ĠLimsup":10520,"Ġelaboration":10521,"Ġelaborator":10522,"Ġcombinatorial":10523,"ĠQuotient":10524,"dflt":10525,"cedence":10526,"Ġcompleteness":10527,"absorbs":10528,"ernÃ¡":10529,"amard":10530,"ĠVectors":10531,"macro":10532,"Ġmiddle":10533,"Ġdischarge":10534,"Ġorigin":10535,"Ġbreak":10536,"circuit":10537,"eltjes":10538,"ĠGabriel":10539,"melia":10540,"ĠLivingston":10541,"ernÃ¡ndez":10542,"'âŁ©âŁ©":10543,"35":10544,"CPO":10545,"ER":10546,"Equ":10547,"amp":10548,"ccosh":10549,"eli":10550,"eves":10551,"gfp":10552,"gives":10553,"hsub":10554,"hcomp":10555,"mN":10556,"mÎ²":10557,"opposites":10558,"px":10559,"zsqrtd":10560,"Ġhri":10561,"Ġhet":10562,"Ġhfl":10563,"Ġhneg":10564,"Ġhall":10565,"ĠhÎ·":10566,"Ġtb":10567,"Ġtx":10568,"engelian":10569,"reps":10570,"reaches":10571,"Ġbar":10572,"Ġ`\\":10573,"Ġ_`,":10574,"Ġrf":10575,"coercion":10576,"Ġnh":10577,"Ġnk":10578,"Ġpsum":10579,"Ġptendsto":10580,"unchanged":10581,"Ġinseparable":10582,"ĠmX":10583,"Ġmrange":10584,"ĠRadon":10585,"Ġdarts":10586,"Ġreachable":10587,"intent":10588,"Ġyj":10589,"Ġyá¶ľ":10590,"ĠMin":10591,"ĠMakes":10592,"Ġdeals":10593,"quilinear":10594,"quadrant":10595,"ĠImage":10596,"Ġvis":10597,"exception":10598,"ĠCb":10599,"ĠSp":10600,"Ġfiniteness":10601,"community":10602,"these":10603,"Ġjy":10604,"Ġ<.>":10605,"pregroupoid":10606,"chosen":10607,"Ġzx":10608,"Ġzeta":10609,"taking":10610,"áµ£":10611,"hfc":10612,"hfp":10613,"dihedral":10614,"Ġitactic":10615,"Ġhsi":10616,"congruence":10617,"Ġhbdd":10618,"ĠUsed":10619,"ndinter":10620,"Ġensuring":10621,"Ġhgg":10622,"''_":10623,"subtypeL":10624,"Ġsomewhat":10625,"coeffic":10626,"bicomp":10627,"rysohn":10628,"ĠâĬĹ'":10629,"ipul":10630,"structures":10631,"hyper":10632,"Ġhkm":10633,"hcg":10634,"Ġconstructive":10635,"Ġheight":10636,"diagonalization":10637,"Internal":10638,"ĠOpen":10639,"epigraph":10640,"ĠRestriction":10641,"auss":10642,"Ġ2015":10643,"ĠConvex":10644,"ĠðĿķĿ":10645,"Ġunions":10646,"Monad":10647,"orthand":10648,"Ġcokernels":10649,"Ġadjoints":10650,"Ġmanually":10651,"canonize":10652,"ĠĠĠĠĠĠĠĠĠĠĠĠĠĠĠĠĠĠĠĠĠĠĠĠĠĠĠĠĠĠĠĠĠĠĠĠĠĠ":10653,"Ġplac":10654,"!\"(":10655,"ĠSemigroup":10656,"Ġconsidering":10657,"Ġprinciples":10658,"Ġcoverings":10659,"Ġcloseds":10660,"ĠAssume":10661,"Ġ![![":10662,"Ġshorter":10663,"âĬ¤,":10664,"Ġproportion":10665,"Ġimports":10666,"Ġepimorphisms":10667,"199":10668,"Ġnodes":10669,"definitions":10670,"âĤĸâĤľ":10671,"satisfying":10672,"Ġreferred":10673,"ĠFinBoolAlg":10674,"Ġâ¨¿[":10675,"simplify":10676,"Ġaka":10677,"everywhere":10678,"ĠRelation":10679,"Ġhappens":10680,"Ġinvolved":10681,"Ġ\"(\"":10682,"onentiable":10683,"Ġdiscussion":10684,"smallest":10685,"isimulation":10686,"Ġentourage":10687,"Ġdevelopment":10688,"ĠContinuity":10689,"Similarly":10690,"chaar":10691,"Ġmachinery":10692,"ĠAlternative":10693,"Generally":10694,"ĠValue":10695,"ĠMonoid":10696,"ĠChoose":10697,"ĠâŁ¨âĬ¥âŁ©":10698,")$":10699,"27":10700,"37":10701,"Hd":10702,"Qu":10703,"Sort":10704,"Using":10705,"aight":10706,"denti":10707,"dmatrix":10708,"falling":10709,"iler":10710,"more":10711,"patterns":10712,"vb":10713,"yp":10714,"zc":10715,"|=":10716,"âĹ":10717,"legendre":10718,"Ġhge":10719,"Ġhpow":10720,"Ġschemes":10721,"make":10722,"Ġcandidate":10723,"Ġbm":10724,"Ġ`âĨĴ":10725,"Ġ_[":10726,"Ġration":10727,"cotrident":10728,"Ġnic":10729,"Ġpop":10730,"Ġpformat":10731,"arded":10732,"unsym":10733,"deed":10734,"ĠÎ±áµĴáµĸ":10735,"Ġii":10736,"Ġlfp":10737,"Ġgm":10738,"final":10739,"âĤģâĤĢ":10740,"ĠmY":10741,"Ġmop":10742,"ĠReg":10743,"Ġdk":10744,"Ġreify":10745,"Ġreuse":10746,"subadditive":10747,"Ġconcer":10748,"Ġcontractible":10749,"ĠÎ»f":10750,"ĠÎ»m":10751,"ĠÎ»s":10752,"processing":10753,"ĠFreiman":10754,"ariate":10755,"Ġsubadditive":10756,"Ġfiner":10757,"Ġhxm":10758,"ĠLore":10759,"transition":10760,"Î¼a":10761,"parent":10762,"ĠVM":10763,"ĠJire":10764,"haps":10765,"ĠDiff":10766,"Ġtrac":10767,"Ġ----":10768,"Ġhni":10769,"Ġstrength":10770,"Ġstraight":10771,"related":10772,"Ġnoncompact":10773,"ideals":10774,"ĠÏĢâĤĵ":10775,"Îła":10776,"residue":10777,"Ġtrichotom":10778,"Ġunitor":10779,"Ġcolimiting":10780,"boresc":10781,"Ġspecifically":10782,"âĬ¢":10783,"conditional":10784,"versal":10785,"Ġrestricts":10786,"ucs":10787,"overlap":10788,"Ġmodulus":10789,"âĢº.":10790,"estley":10791,"mantics":10792,"ðĿĵ¡":10793,"Ġrepresentations":10794,"Ġaltern":10795,"Ġalternate":10796,"halfspace":10797,"Ġerasep":10798,"Ġradii":10799,"Ġtails":10800,"alternatization":10801,"Ġadjunctions":10802,"hAB":10803,"Ġinjections":10804,"Ġencodek":10805,"numerators":10806,"Ġeigenvalue":10807,"Ġctxt":10808,"Ġdenotes":10809,"thinkN":10810,"Ġquasiconvex":10811,"Ġquasiconcave":10812,"Ġ`âĬ¥`.":10813,"Ġcorrectly":10814,"Ġneighbourhoods":10815,"Ġbrackets":10816,"Ġimplications":10817,"ĠâŁ¨âŁ¨âŁ©âŁ©;":10818,"Ġrepeatedly":10819,"accepts":10820,"smith":10821,"ĠEvaluates":10822,"Ġspans":10823,"ĠâŁ¨âĬ¤âŁ©":10824,"Ġspeed":10825,"Stacks":10826,"ĠClosed":10827,"hypotheses":10828,"Ġ+âĪŀ)`":10829,"Impl":10830,"Ġjointly":10831,"Ġ_|_|":10832,"ĠEbner":10833,"ĠLoreaux":10834,"ĠJireh":10835,"$\\":10836,"'âŁ©âŁ©,":10837,",...":10838,"-*":10839,"AáµĢ":10840,"Cf":10841,"Functor":10842,"Many":10843,"Rcr":10844,"Shan":10845,"Suppose":10846,"bDistortion":10847,"cpkg":10848,"cartan":10849,"cShan":10850,"dz":10851,"fÎ¹":10852,"gan":10853,"gather":10854,"hir":10855,"hmin":10856,"kell":10857,"lapply":10858,"morph":10859,"ng":10860,"pimage":10861,"utivity":10862,"yL":10863,"yl":10864,"zed":10865,"zigzag":10866,"|,":10867,"}},":10868,"}^{":10869,"£)":10870,"Ġzeroth":10871,"Ġage":10872,"Ġaut":10873,"Ġhpp":10874,"Ġhleft":10875,"ĠhÎ³":10876,"ĠhÏķ":10877,"Ġsizes":10878,"ori":10879,"ished":10880,"Ġfc":10881,"rees":10882,"Ġ['":10883,"atus":10884,"Ġxo":10885,"Ġroth":10886,"Ġnaming":10887,"Ġpt":10888,"Ġpconts":10889,"acency":10890,"multan":10891,"mapL":10892,"Ġlucas":10893,"Ġgf":10894,"conn":10895,"conver":10896,"âĤģâĤĦ":10897,"Ġmut":10898,"ĠâŁ¨âŁ©âŁ©":10899,"subquiver":10900,"companion":10901,"Ġconfl":10902,"trusted":10903,"Ġ*],":10904,"propext":10905,"Ġdesigned":10906,"ĠImp":10907,"exfalso":10908,"ĠCategory":10909,"ĠCardinal":10910,"utput":10911,"ĠSud":10912,"ĠFunction":10913,"Ġuf":10914,"Ġfinds":10915,"verbosity":10916,"ĠGener":10917,"ĠGroupoid":10918,"ĠPR":10919,"ĠPall":10920,"Ġocc":10921,"ĠHd":10922,"ĠHn":10923,"nonlinear":10924,"uristic":10925,"Ġhfy":10926,"soci":10927,"Ġcompr":10928,"extent":10929,"Ġ((âĪ«":10930,"Ġprecedence":10931,"Ġlisted":10932,"appr":10933,"sian":10934,"pigeon":10935,"Ġhpc":10936,"nonnegg":10937,"Ġequivariant":10938,"Ġdoing":10939,"Ġstud":10940,"arycentric":10941,"Ġstrategy":10942,"Ġinvolution":10943,"Ġinvoc":10944,"minimum":10945,"sometimes":10946,"Ġhml":10947,"Ġexprs":10948,"Ġdescribes":10949,"multip":10950,"indexes":10951,"Ġunivs":10952,"Ġtrigonometric":10953,"Ġboundedness":10954,"curried":10955,"ditional":10956,"tensoring":10957,"Ġconvexity":10958,"})\"":10959,"ĠðĿĴŀ":10960,"Ġproperly":10961,"ĠIHg":10962,"Ġcounted":10963,"coframe":10964,"himany":10965,"Ġforgetting":10966,"aussian":10967,"Ġadjust":10968,"circular":10969,"ĠâŁª(":10970,"ĠsubstI":10971,"Ġmodular":10972,"Ġmodification":10973,"Ġmodified":10974,"ĠCommut":10975,"Ġ(<),":10976,"Ġshorthand":10977,"ðĿĴª":10978,"ĠâŁ¦âŁ¨":10979,"Ġpseudoelements":10980,"bucket":10981,"Ġmanipul":10982,"Ġtimeout":10983,"âĮĭ,":10984,"systems":10985,"ĠĠĠĠĠĠĠĠĠĠĠĠĠĠĠĠĠĠĠĠĠĠĠĠĠĠĠĠĠĠĠĠĠĠĠĠ":10986,"ĠĠĠĠĠĠĠĠĠĠĠĠĠĠĠĠĠĠĠĠĠĠĠĠĠĠĠĠĠĠĠĠĠĠĠĠĠĠĠ":10987,"Ġcentered":10988,"ĠConstructing":10989,"specially":10990,"Ġeliminate":10991,"rbnode":10992,"although":10993,"Ġfeature":10994,"ĠTransport":10995,"197":10996,"ascending":10997,"Ġlooking":10998,"Ġ75":10999,"crim":11000,"Ġindicating":11001,"amalgamate":11002,"ĠLifts":11003,"Ġpresented":11004,"Ġ[(âĪĺ":11005,"----------------":11006,"Ġinterested":11007,"ĠAbhimany":11008,"Ġembedded":11009,"Ġreformulate":11010,"tificate":11011,"ĠWithout":11012,"Ġinstantiates":11013,"ĠDistribLattice":11014,"equipartition":11015,"Ġ`âĬĵ`":11016,"theoretic":11017,"urrently":11018,"marily":11019,"Ġrationals":11020,"borescence":11021,"cShane":11022,"multaneous":11023,"ĠSudhir":11024,"ĠPallavi":11025,"ĠAbhimanyu":11026,"'d":11027,")(":11028,")=":11029,")[":11030,"Each":11031,"FG":11032,"Hc":11033,"Kf":11034,"Mf":11035,"Most":11036,"OL":11037,"RG":11038,"VR":11039,"\\,":11040,"`âĪ¥":11041,"`âŁ«`":11042,"ba":11043,"bases":11044,"báµ¢":11045,"bicategorical":11046,"ey":11047,"fâĤĹ":11048,"focus":11049,"global":11050,"hca":11051,"hrec":11052,"hÎ½":11053,"oom":11054,"pderiv":11055,"rg":11056,"scomp":11057,"Ġlem":11058,"ĠÄĮech":11059,"Ġ(:":11060,"leta":11061,"Ġachie":11062,"Ġhct":11063,"Ġhprime":11064,"Ġshr":11065,"isom":11066,"alac":11067,"restricted":11068,"tiy":11069,"Ġ[{":11070,"Ġ`?":11071,"coer":11072,"cograph":11073,"Ġnq":11074,"Ġpds":11075,"Ġeg":11076,"ander":11077,"delta":11078,"detector":11079,"debug":11080,"Ġia":11081,"Ġincre":11082,"rid":11083,"mapping":11084,"âŁ©}":11085,"Ġwff":11086,"ceeds":11087,"contr":11088,"conerve":11089,"load":11090,"Ġretrieve":11091,"Ġtower":11092,"ĠÎ²áµĲáµĴáµĸ":11093,"ĠÎ»e":11094,"Ġdeduced":11095,"Ġdeprecated":11096,"Ġdeveloped":11097,"Ġhaz":11098,"ĠIdenti":11099,"Ġvo":11100,"ĠCy":11101,"ĠCalle":11102,"ĠCpltSepUniformSpace":11103,"monovary":11104,"Ġ+*":11105,"ĠST":11106,"ĠStone":11107,"ĠSÃ¶n":11108,"ĠFunctions":11109,"Ġsubterminal":11110,"ĠâĬĻ":11111,"ĠPalac":11112,"Ġunmop":11113,"ĠHP":11114,"ĠHu":11115,"ĠHle":11116,"ĠHernÃ¡ndez":11117,"Ġformalize":11118,"ĠLu":11119,"typevec":11120,"Ġhfb":11121,"ĠNË£":11122,"Ġ((âĨĳ":11123,"oung":11124,"Ġhsp":11125,"ĠVio":11126,"orphisms":11127,"Ġhyu":11128,"double":11129,"')`.":11130,"Ġletter":11131,"Ġstationary":11132,"Ġnear":11133,"behave":11134,"Ġhgc":11135,"trick":11136,"ignor":11137,"Ġinternally":11138,"perse":11139,"hxr":11140,"Ġdiffers":11141,"They":11142,"Ġhmb":11143,"Ġchild":11144,"Ġchromatic":11145,"hgg":11146,"Ġvaluations":11147,"ios":11148,"Ġinfo":11149,"multicoequalizer":11150,"explode":11151,"control":11152,"Ġdividing":11153,"Ġdivided":11154,"Îµpos":11155,"Ġquickly":11156,"aka":11157,"graphs":11158,"gramming":11159,"Ġmultiplicities":11160,"hcs":11161,"ĠðĿĴ¯":11162,"Ġsupplied":11163,"codetector":11164,"ossible":11165,"Ġ(â¨į":11166,"Ġdiscard":11167,"Ġcosine":11168,"Ġlengths":11169,"ĠConstru":11170,"Ġhwf":11171,"Ġseparates":11172,"ĠðĿĶĸ":11173,"Ġdistribution":11174,"Ġ(âĪ¥(":11175,"Ġtesting":11176,"directionáĹ®":11177,"Ġapplicable":11178,"ĠâĮĬ(":11179,"Ġclosely":11180,"dedupkeys":11181,"ĠDefined":11182,"Ġeigenvector":11183,"Ġndinter":11184,"Ġimported":11185,"Assumes":11186,"Ġsuccessful":11187,"Ġreflecting":11188,"haustion":11189,"ĠSubtraction":11190,"Ġsynthe":11191,"mllist":11192,"paths":11193,"parameter":11194,"Ġunfolded":11195,"ĠIntro":11196,"ĠInteg":11197,"Ġfourth":11198,"ĠMultiplicative":11199,"Ġpsqqs":11200,"Ġstopping":11201,"Ġeffe":11202,"ĠApplying":11203,"ĠLinearOrder":11204,"Ġ`*`-":11205,"Ġcoerced":11206,"necessary":11207,"Ġtemp":11208,"Ġnzsnum":11209,"approximation":11210,"Schwarz":11211,"Ġlambdas":11212,"Ġlambda":11213,"tification":11214,"www":11215,"Ġstereographic":11216,"ĠNeumann":11217,"Ġconstraints":11218,"occurs":11219,"Definition":11220,"outputs":11221,"Ġcommensurable":11222,"Ġidentification":11223,"Ġdifficul":11224,"Ġ\"!\")?)":11225,"Ġisometries":11226,"obviously":11227,"Ġcatalan":11228,"Ġintron":11229,"morphic":11230,"Ġconflict":11231,"Ġstudy":11232,"ĠSÃ¶nne":11233,"ĠPalacios":11234,"ĠVioleta":11235,"'[":11236,"'âŁ©)":11237,")âĭĨ":11238,"*`,":11239,"04":11240,"@@":11241,"Car":11242,"Com":11243,"Fermat":11244,"Multi":11245,"Name":11246,"PF":11247,"Phragmen":11248,"Strict":11249,"])))":11250,"`âĪ«":11251,"amin":11252,"cartesian":11253,"categories":11254,"fb":11255,"fdRep":11256,"gg":11257,"hft":11258,"hence":11259,"ket":11260,"larger":11261,"uf":11262,"ump":11263,"uent":11264,"wq":11265,"zwe":11266,"|`":11267,"¹áµĴáµĸ":11268,"ÎĶ":11269,"inction":11270,"inating":11271,"onac":11272,"leibniz":11273,"Ġali":11274,"Ġhcc":11275,"ĠhðĿĴ¢":11276,"Ġsty":11277,"ĠsSet":11278,"Ġtell":11279,"maker":11280,"ĠfÎ¹":11281,"reader":11282,"select":11283,"Ġbic":11284,"meq":11285,"atat":11286,"Ġrcomap":11287,"Ġng":11288,"Ġespecially":11289,"âŁ¶":11290,"ĠâĨĴâĹ":11291,"dden":11292,"âŁ©`.":11293,"cell":11294,"Ġmention":11295,"ĠâŁ¨âŁ©;":11296,"Ġyc":11297,"members":11298,"ĠMink":11299,"ĠMost":11300,"ĠMá´´":11301,"ĠÎ»c":11302,"ĠAfter":11303,"ĠAmelia":11304,"Ġhav":11305,"expect":11306,"ĠCpos":11307,"ĠSame":11308,"ĠFind":11309,"Ġsubt":11310,"Ġsubstit":11311,"esquilinear":11312,"Ġkm":11313,"Ġhxf":11314,"Ġhxn":11315,"ĠHence":11316,"ĠList":11317,"ĠLam":11318,"Ġaltitude":11319,"ially":11320,"ĠKleisli":11321,"ĠNonemptyFinLinOrd":11322,"isocrystal":11323,"Ġequip":11324,"Î¼n":11325,"Ġpreprocess":11326,"ĠJust":11327,"ĠDual":11328,"Ġhia":11329,"Ġstacks":11330,"ĠWage":11331,"Ġdistinction":11332,"Ġhnpos":11333,"Indep":11334,"Ġunderst":11335,"''`":11336,"ĠâĨĳâĪ¥":11337,"Ġ`(*)":11338,"Recall":11339,"Ġprio":11340,"âĪŀ).":11341,"bini":11342,"Ġminus":11343,"LpL":11344,"body":11345,"itted":11346,"Ġ%%(":11347,"Ġvariations":11348,"Ġchoosing":11349,"ĠOur":11350,"denoms":11351,"ĠâĨĳ(-":11352,"symb":11353,"Ġsequentially":11354,"$>)":11355,"Ġisocrystal":11356,"ĠðĿĵ¢":11357,"ĠhSR":11358,"Ġ[(<":11359,"ĠComplex":11360,"**,":11361,"Ġcolors":11362,"Ġadjoined":11363,"Ġreverted":11364,"^(-":11365,"ĠhNO":11366,"disjs":11367,"Ġraise":11368,"Ġsubsemigroups":11369,"skeletal":11370,"á´¹áµĴáµĸ":11371,"Ġ![]":11372,"shell":11373,"ails":11374,"Ġgroupoids":11375,"Ġndinsert":11376,"Ġfewer":11377,"Ġ`â¨ħ":11378,"Ġlookmap":11379,"bourbaki":11380,"ĠAlgebraic":11381,"Ġconfigurations":11382,"ĠLimits":11383,"Ġframework":11384,"resolutions":11385,"Ġversa":11386,"levels":11387,"ĠArtinian":11388,"scope":11389,"6025":11390,"ĠIII":11391,"Kurzwe":11392,"Ġpurposes":11393,"ĠModel":11394,"absorb":11395,"ĠPolynomial":11396,"ĠAlexander":11397,"Ġcomparable":11398,"ĠNumber":11399,")âģº)":11400,"Ġpotentially":11401,"Ġmerely":11402,"Ġoriented":11403,"Ġ`âĬĶ`":11404,"accumulate":11405,"Ġconnect":11406,"Ġopposed":11407,"Ġnicer":11408,"Ġstraightforward":11409,"converges":11410,"coercive":11411,"cographical":11412,"onacci":11413,"atatype":11414,"ĠâĨĴâĹĥ":11415,"ĠWagemaker":11416,"Kurzweil":11417,"+),":11418,"/#":11419,"AâĤĻ":11420,"Elephant":11421,"IN":11422,"KáĹ®":11423,"ME":11424,"Ms":11425,"]],":11426,"`\"":11427,"aul":11428,"bp":11429,"bxor":11430,"hker":11431,"hdeg":11432,"hðĿĴ¢":11433,"ji":11434,"jk":11435,"kamp":11436,"mersenne":11437,"pentagon":11438,"sb":11439,"sending":11440,"tends":11441,"va":11442,"zulip":11443,"{\\":11444,"Ġupd":11445,"Ġmeasurably":11446,"Ġulower":11447,"lected":11448,"Ġasymm":11449,"Ġaá¶ľ":11450,"Ġhinv":11451,"ĠhÏī":11452,"Ġsha":11453,"may":11454,"enc":11455,"allow":11456,"alts":11457,"Ġblast":11458,"Ġ`.":11459,"Ġ`~":11460,"Ġ`âī¥":11461,"Ġ`'`":11462,"Ġ`/`":11463,"Ġxp":11464,"ĠrÎ±":11465,"coind":11466,"ĠnB":11467,"Ġpfilter":11468,"Ġpeval":11469,"Ġpackage":11470,"Ġpalindrome":11471,"ĠeâĤĺ":11472,"actification":11473,"implementation":11474,"Ġincidence":11475,"ashed":11476,"todo":11477,"Ġlsum":11478,"Ġ}âŁ©)":11479,"ender":11480,"pprod":11481,"Ġwa":11482,"consecutive":11483,"ĠRa":11484,"ĠRot":11485,"ĠRem":11486,"ĠâŁ¨âŁ©âŁ©,":11487,"ĠâŁ¨âŁ¦":11488,"loop":11489,"Î»t":11490,"Ġsugges":11491,"Ġcontraction":11492,"Ġcocycle":11493,"Ġthm":11494,"entkamp":11495,"ops":11496,"ophan":11497,"Ġdefinite":11498,"Ġhao":11499,"ĠIÎ±":11500,"ĠCast":11501,"ĠStrict":11502,"tine":11503,"Ġsubboxes":11504,"esakia":11505,"ĠGÎ´":11506,"Ġproxy":11507,"ĠHne":11508,"ĠHÎ´":11509,"pretopology":11510,"ĠLan":11511,"chat":11512,"mkâĤĲ":11513,"clau":11514,"thunk":11515,"summand":11516,"hfn":11517,"ĠNáµĲáµĴáµĸ":11518,"Ġ((^":11519,"Ġ((),":11520,"olated":11521,"ĠBentkamp":11522,"assign":11523,"allp":11524,"Ġequitable":11525,"ĠJak":11526,"ĠDisjoint":11527,"bash":11528,"hsm":11529,"âīĪ":11530,"Ġeqelim":11531,"Ġ\"[":11532,"Ġdoset":11533,"Ġenveloping":11534,"ĠWr":11535,"ĠhtU":11536,"Ġobtaining":11537,"Ġinteraction":11538,"Ġmonom":11539,"evalu":11540,"])),":11541,"contents":11542,"ĠIndep":11543,"ĠâĬ¤),":11544,"Ġreturning":11545,"families":11546,"cursor":11547,"hys":11548,"Ġgeneralisation":11549,"ĠðĿĵĿË¢":11550,"Ġstarts":11551,"Ġsuppose":11552,"ĠIHr":11553,"Ġprofinite":11554,"Ġ%%_":11555,"Ġdisconnected":11556,"Ġtailing":11557,"Ġinclusive":11558,"ĠinnerSL":11559,"gave":11560,"âĪŀ)^":11561,"Ġfailing":11562,"ĠhSc":11563,"continue":11564,"Ġsymmod":11565,"ĠDepend":11566,"Î£âĤĹ":11567,"rayleigh":11568,"Ġpushouts":11569,"ĠCartan":11570,"Ġaccessible":11571,"Ġadjoining":11572,"ĠhKc":11573,"Ġ(âĬ¥_":11574,"Ġresidual":11575,"Ġnumerical":11576,"ĠhPQ":11577,"ĠExpand":11578,"Ġsemigroups":11579,"Ġcauses":11580,"Ġlanguages":11581,"!\"[":11582,"Ġapproximate":11583,"AddMon":11584,"AddCommMon":11585,"ĠInterval":11586,"Ġseminorms":11587,"Ġregarded":11588,"implicitly":11589,"Ġpieces":11590,"Ġcombined":11591,"Ġrespective":11592,"Ġindefinite":11593,"Ġcolorable":11594,"Ġmultiply":11595,"Ġpdf":11596,"Ġcorrectness":11597,"Ġppsqs":11598,"ĠÂ§":11599,"Ġpostcompose":11600,"Ġhelpful":11601,"Ġantisymmetrization":11602,"Ġsucceed":11603,"Ġcircumradius":11604,"ĠOrdered":11605,"Ġ(âĬĨ)]":11606,"Ġapproximations":11607,"ĠExtend":11608,"Ġgronwall":11609,"ĠLagrange":11610,"ĠDiophan":11611,"ĠSimilarly":11612,"Ġguaranteed":11613,"ĠâŁ¨âĬ¤,":11614,"ĠChecks":11615,"Ġleads":11616,"ĠNegation":11617,"ĠNegating":11618,"Ġswapping":11619,"Ġswapped":11620,"effect":11621,"Ġtracked":11622,"Ġsecant":11623,"Ġdivisibility":11624,"Ġexcluding":11625,"elide":11626,"coefficients":11627,"Ġstyle":11628,"Ġbicategories":11629,"zulipchat":11630,"ĠJakob":11631,"ĠDiophantine":11632,"16":11633,"18":11634,"9001":11635,"Can":11636,"Check":11637,"Class":11638,"Ei":11639,"First":11640,"Hy":11641,"Not":11642,"RáµĲáµĴáµĸ":11643,"ST":11644,"SRG":11645,"Twop":11646,"]^":11647,"beta":11648,"cp":11649,"hilbert":11650,"jamin":11651,"mn":11652,"narrow":11653,"psub":11654,"tá¶ľ":11655,"Ġhto":11656,"Ġhind":11657,"Ġsg":11658,"Ġsmodeq":11659,"Ġtuples":11660,"mark":11661,"Ġfy":11662,"enjamin":11663,"Ġclim":11664,"Ġ{âĪŀ}":11665,"Ġ`]`":11666,"Ġ`![":11667,"cocycle":11668,"heaves":11669,"Ġpsub":11670,"Ġeapply":11671,"anes":11672,"ĠâĪ¼":11673,"asilinear":11674,"Ġtheor":11675,"endpoints":11676,"âŁ©},":11677,"âŁ©âŁ§":11678,"Ġgave":11679,"peek":11680,"conven":11681,"ĠâŁ¨âĬ¥,":11682,"intain":11683,"ĠâĦ°":11684,"istory":11685,"Î»l":11686,"compL":11687,"Ġanonymous":11688,"ĠMáµĢ":11689,"ĠMcShane":11690,")))))":11691,"ĠÎ²Î±":11692,"ĠAá´´":11693,"ĠIF":11694,"ften":11695,"ĠCas":11696,"ĠSpace":11697,"ĠSatis":11698,"ĠFact":11699,"ĠXáµ¢":11700,"Ġsubsequence":11701,"Ġsubfields":11702,"ringer":11703,"ĠPG":11704,"ĠPÎ±":11705,"fill":11706,"ĠTypeclasses":11707,"Ġkf":11708,"Ġkunion":11709,"defeq":11710,"ĠElements":11711,"Ġhxj":11712,"Ġhxl":11713,"ĠHeq":11714,"prelocal":11715,"prelax":11716,"mker":11717,"ĠÎ¼s":11718,"ĠNatural":11719,"âŁ¨[`":11720,"Ġ((âĪ¥":11721,"ĠBenjamin":11722,"irrel":11723,"âĪ¥`,":11724,"ĠhsA":11725,"Ġhsb":11726,"force":11727,"hav":11728,"Ġhyv":11729,"strip":11730,"ĠDis":11731,"Î¹s":11732,"does":11733,"Ġ\"#":11734,"Ġends":11735,"Ġmoving":11736,"Ġhnx":11737,"Instead":11738,"InjectiveResolution":11739,"Ġbeginning":11740,"Ġcongruent":11741,"Ġdict":11742,"ĠQPF":11743,"created":11744,"Ġanyway":11745,"hbd":11746,"corepr":11747,"Ġadditively":11748,"hcf":11749,"discharger":11750,"Ġ(@@":11751,"measM":11752,"binding":11753,"Ġbitraversable":11754,"ĠOver":11755,"ĠOther":11756,"hibit":11757,"Ġadjacency":11758,"ĠFormal":11759,"âŁ«,":11760,"ĠConvergence":11761,"Ġ(âŁ¨âŁ©|":11762,"ĠMorgan":11763,"matchings":11764,"Ġcharacterized":11765,"ĠâŁ©âŁ©":11766,"ultraproduct":11767,"ĠCarathÃ©odory":11768,"ĠhKL":11769,"Ġheads":11770,"Ġwrong":11771,"Ġresidue":11772,"ĠhBint":11773,"examples":11774,"Ġhomeo":11775,"ĠAddCommMon":11776,"Ġmaybe":11777,"cardinality":11778,"abelle":11779,"Ġautomatic":11780,"hÎ¼t":11781,"illegal":11782,"_{|":11783,"ĠAssoci":11784,"Ġ(++)":11785,"ĠhÏĥÏĦ":11786,"Ġinvolves":11787,"ĠTheorems":11788,"^âĪŀ`":11789,"ĠGroups":11790,"lobally":11791,"lambda":11792,"clearable":11793,"Ġpositions":11794,"âĮĭâĤĬ,":11795,"ĠâŁ¨_âŁ©":11796,"Ġpqqs":11797,"Ġappearing":11798,"Ġflag":11799,"Ġexpects":11800,"Algebraic":11801,"ĠMatch":11802,"Ġrectangular":11803,"Ġbuckets":11804,"Ġattempts":11805,"Ġdevelops":11806,"cendental":11807,"Ġcompression":11808,"Ġparametrize":11809,"Ġexpanded":11810,"Ġpromoted":11811,"ĠHomo":11812,"Ġsuccessive":11813,"Ġ((âĪ£)":11814,"Ġpredecessor":11815,"Equality":11816,"Ġtrichotomous":11817,"Ġmutual":11818,"CarathÃ©odory":11819,"\"`":11820,")/(":11821,"65":11822,"Affine":11823,"After":11824,"Another":11825,"Df":11826,"From":11827,"LO":11828,"Pso":11829,"Typ":11830,"Warning":11831,"aâĤĻ":11832,"dcases":11833,"float":11834,"freq":11835,"hfin":11836,"hleft":11837,"hdvd":11838,"ians":11839,"kes":11840,"lid":11841,"pitch":11842,"qqs":11843,"rmap":11844,"rÎ±":11845,"wra":11846,"xt":11847,"yR":11848,"zes":11849,"})))":11850,"Ġ],":11851,"Ġmeas":11852,"Ķ)":11853,"inds":11854,"injection":11855,"Ġ(&":11856,"Ġaz":11857,"Ġhif":11858,"Ġhsucc":11859,"Ġhnd":11860,"Ġhdir":11861,"Ġsine":11862,"Ġsrange":11863,"Ġscri":11864,"Ġtmp":11865,"Ġturing":11866,"ensive":11867,"reorder":11868,"Ġccc":11869,"selection":11870,"Ġbrange":11871,"Ġbran":11872,"Ġ`\"":11873,"Ġround":11874,"cosets":11875,"cosimplicial":11876,"Ġny":11877,"anisotropic":11878,"ulian":11879,"accessible":11880,"imperg":11881,"Ġinc":11882,"lypitch":11883,"mapq":11884,"gel":11885,"Ġgh":11886,"Ġgrows":11887,"Ġ-)`":11888,"Ġexhibit":11889,"pes":11890,"concept":11891,"ĠmU":11892,"ĠRiou":11893,"Ġdslope":11894,"ĠâŁ¨âĪ¥":11895,"Ġrelies":11896,"ĠTr":11897,"ĠMagma":11898,"ĠMorphisms":11899,"Ġcoar":11900,"prom":11901,"Ġvi":11902,"exhaustion":11903,"bypass":11904,"ĠSimpl":11905,"Ġsubgoal":11906,"âĪ¨":11907,"ĠPythagorean":11908,"ĠTypecheck":11909,"Ġkinds":11910,"Ġoe":11911,"Ġassemble":11912,"transform":11913,"ilast":11914,"adc":11915,"ĠzJ":11916,"typeclass":11917,"ĠÎ¹s":11918,"through":11919,"thunks":11920,"nondep":11921,"Ġcompactification":11922,"extended":11923,"Ġ((âĬ":11924,"measures":11925,"Ġpreservation":11926,"Ġpreprocessor":11927,"Ġhsa":11928,"Ġhsd":11929,"ĠhsÎ¼":11930,"ĠVer":11931,"ĠJulian":11932,"semiquot":11933,"apping":11934,"distinguished":11935,"ĠhyU":11936,"Ġhyf":11937,"sieves":11938,"liftË£":11939,"injectives":11940,"Ġcasesm":11941,"lemented":11942,"ersistent":11943,"cident":11944,"agate":11945,"cessed":11946,"Ġ\".":11947,"Ġnearest":11948,"beck":11949,"ĠhtA":11950,"Ġmoebius":11951,"Ġhga":11952,"Ġparity":11953,"Ġsemantically":11954,"subtypeâĤĹáµ¢":11955,"evals":11956,"hgc":11957,"hgm":11958,"bijection":11959,"Ġprimarily":11960,"phen":11961,"iour":11962,"Ġclassification":11963,"âĪŀ`-":11964,"Ġdivp":11965,"charmatrix":11966,"Ġfintypes":11967,"respe":11968,"Ġordset":11969,"binop":11970,"Ġintegrally":11971,"http":11972,"Ġ_âŁ©);":11973,"Ġgenerality":11974,"coreflexive":11975,"bod":11976,"Ġassociate":11977,"Ġheuristic":11978,"Ġcounting":11979,"Ġantichain":11980,"ĠhxyD":11981,"Ġdisplay":11982,"nnabs":11983,"Ġimpro":11984,"chebyshev":11985,"denominator":11986,"Ġfixes":11987,"presentable":11988,"maximals":11989,"ĠJoÃ«l":11990,"Ġ(âŁ¨âŁ¨":11991,"pseudoelement":11992,"ĠÏīCPO":11993,"Ġsingletons":11994,"Ġcurried":11995,"ĠMonad":11996,"generalizes":11997,"Ġcompletions":11998,"Ġppconts":11999,"oughly":12000,"ĠTodo":12001,"ĠĠĠĠĠĠĠĠĠĠĠĠĠĠĠĠĠĠĠĠĠĠĠĠĠĠĠĠĠĠĠĠĠĠĠ":12002,"ĠMeas":12003,"Ġsimplifies":12004,"ĠCombine":12005,"tanh":12006,"Ġsuprema":12007,"carded":12008,"Ġcgf":12009,"Ġeigenspaces":12010,"Ġguardb":12011,"orbits":12012,"ĠAlgebras":12013,"^âĪŀ`.":12014,"Ġrecord":12015,"Ġturning":12016,"Ġmatched":12017,"eigenspaces":12018,"definitionally":12019,"lsb":12020,"maticians":12021,"Ġputting":12022,"Prove":12023,"Ġregistering":12024,"Ġoutputs":12025,"^{-":12026,"ĠOnce":12027,"ĠBasically":12028,"Ġattrs":12029,"pqr":12030,"ĠGeneralize":12031,"Ġcounterpart":12032,"Ġconcaten":12033,"ĠDavidson":12034,"Ġassigning":12035,"Ġentirely":12036,"book":12037,"Ġidentifiers":12038,"Ġparametrizing":12039,"ĠSummary":12040,"Ġascending":12041,"Ġcriterion":12042,"region":12043,"Ġ`âĨ¥":12044,"ĠMeasure":12045,"rewriting":12046,"Ġabbreviations":12047,"Ġcorollary":12048,"Ġannihilator":12049,">>=":12050,"Measu":12051,"Ġbreaks":12052,"ĠSpringer":12053,"ĠCardinality":12054,"ĠMinkowski":12055,"haviour":12056,"Ġcccr":12057,",(":12058,",-":12059,",_":12060,",`":12061,".`":12062,"/)":12063,"22":12064,"88":12065,"Alias":12066,"CT":12067,"Free":12068,"HD":12069,"Often":12070,"Par":12071,"Sem":12072,"Zero":12073,"[{":12074,"`#":12075,"agree":12076,"bal":12077,"cse":12078,"cross":12079,"elet":12080,"galgebra":12081,"hÎ²":12082,"jáµ¢":12083,"mÎ³":12084,"mdense":12085,"nb":12086,"pâĤĻ":12087,"táµ¢":12088,"wlog":12089,"xpr":12090,"zkin":12091,"})),":12092,"inher":12093,"Ġ(^":12094,"Ġ(::":12095,"onentially":12096,"Ġhnot":12097,"Ġhbot":12098,"Ġhilbert":12099,"Ġscaling":12100,"Ġsesquilinear":12101,"ĠtÎ²":12102,"ĠfV":12103,"Ġfz":12104,"Ġfalsum":12105,"Ġcstar":12106,"Ġbsupr":12107,"itself":12108,"Ġxe":12109,"Ġxm":12110,"Ġrtendsto":12111,"coalgebra":12112,"collapse":12113,"Ġnx":12114,"Ġntac":12115,"Ġpequiv":12116,"Ġpatt":12117,"Ġelems":12118,"uno":12119,"standard":12120,"style":12121,"statement":12122,"rich":12123,"about":12124,"Ġlongest":12125,"ĠgâĤĻ":12126,"Ġglobally":12127,"Ġwp":12128,"Ġwor":12129,"finishing":12130,"ĠâŁ¨âĨĳ":12131,"icard":12132,"Ġretain":12133,"otzkin":12134,"actum":12135,"ĠTactic":12136,"ĠTak":12137,"etze":12138,"Î»e":12139,"ĠMiz":12140,"Ġsetup":12141,"Ġdestructor":12142,"Ġhaa":12143,"Ġvitali":12144,"ĠCC":12145,"ĠStr":12146,"ĠShing":12147,"ĠFl":12148,"ĠFilter":12149,"ĠFourier":12150,"ĠGraph":12151,"theless":12152,"Ġunordered":12153,"Ġask":12154,"Ġasks":12155,"Ġprojectivization":12156,"ĠHan":12157,"ĠHce":12158,"prefunctor":12159,"pretransitive":12160,"monoids":12161,"ĠLutz":12162,"ĠLimperg":12163,"Ġfire":12164,"transl":12165,"ĠYuma":12166,"ĠNak":12167,"Ġmaintain":12168,"grundy":12169,"irk":12170,"Ġ^<":12171,"Î¼b":12172,"Ġnotably":12173,"ĠVari":12174,"ĠJann":12175,"apps":12176,"interleave":12177,"Ġbehaviour":12178,"cipro":12179,"Ġlets":12180,"ĠWell":12181,"Ġnonlinear":12182,"Ġaren":12183,"functors":12184,"Ġcls":12185,"aste":12186,"Ġ`(+":12187,"ĠQâĤĹ":12188,"Ġdivergence":12189,"Ġconverted":12190,"Ġquotienting":12191,"functional":12192,"ĠâŁ¨âŁ¨âŁ©,":12193,"Ġquiv":12194,"Ġunivariate":12195,"Ġ[]`":12196,"Ġ[]âŁ©":12197,"failed":12198,"Ġhzt":12199,"Ġhabc":12200,"Ġâīħ[":12201,"Ġhdc":12202,"otherwise":12203,"Ġcharpoly":12204,"Ġspanned":12205,"ĠConst":12206,"ĠConversion":12207,"Ġâĩĳ(-":12208,")^{":12209,"commands":12210,"Ġperhaps":12211,"Ġintegrand":12212,"ificant":12213,"dropn":12214,"Ġcontinue":12215,"ðĿĴŁ":12216,"Ġchecked":12217,"Ġsheafed":12218,"Ġregularity":12219,"Ġdomineering":12220,"Ġreverts":12221,"Ġcomputational":12222,"sides":12223,"formally":12224,"Ġplug":12225,"renames":12226,"Ġcollections":12227,"Ġgerms":12228,"AddGroup":12229,"ĠâĨ¥((":12230,"ĠIntermediate":12231,"Ġcodomains":12232,"Ġ980":12233,"2019":12234,"ĠUnlike":12235,"Compactum":12236,"Ġrunning":12237,"Ġeigenvectors":12238,"Ġndunion":12239,"Ġmappings":12240,"Ġsquashed":12241,"ĠNFA":12242,"Ġprintable":12243,"Ġpreviously":12244,"Ġstage":12245,"Ġverifying":12246,"Ġestimates":12247,"Ġscaled":12248,"Ġresolutions":12249,"children":12250,"ĠProducts":12251,"Ġclauses":12252,"Ġyield":12253,"ĠMoreover":12254,"transported":12255,"replacement":12256,"Ġreformulation":12257,"Ġmathematics":12258,"Ġepsilon":12259,"Ġ(âĬĶ)":12260,"Ġstored":12261,"Ġ(âĪĺ)],":12262,"Ġomitted":12263,"Ġwrapper":12264,"Ġ`âĪħ`":12265,"Intro":12266,"ĠCharacteristic":12267,"Ġdiffeomorphism":12268,"ĠCompleteLattice":12269,"Ġmixin":12270,"idirect":12271,"hyperfilter":12272,"ĠIdentity":12273,"Ġchildren":12274,"ĠIntroduce":12275,"Ġunderstand":12276,"Ġ((^)":12277,"ĠIntervals":12278,"ĠSpaces":12279,"Ġbranches":12280,"csexpr":12281,"ĠMizuno":12282,"ĠJannis":12283,"\"],":12284,"'->":12285,")âŁ©âŁ©âŁ©":12286,"-(":12287,"69":12288,"=>":12289,"?`":12290,"BâĤĻ":12291,"CL":12292,"Ch":12293,"DV":12294,"Equivalen":12295,"FS":12296,"Further":12297,"Gal":12298,"Linear":12299,"Mario":12300,"OP":12301,"Over":12302,"Partial":12303,"Rel":12304,"UV":12305,"Witt":12306,"[])":12307,"based":12308,"cstar":12309,"cprank":12310,"den":12311,"fw":12312,"gu":12313,"gres":12314,"hE":12315,"hW":12316,"hsu":12317,"hzero":12318,"hall":12319,"hnot":12320,"hÏĪ":12321,"ietze":12322,"just":12323,"kinsert":12324,"mÎ±":12325,"mclosure":12326,"npos":12327,"occ":12328,"pX":12329,"shammer":12330,"satellite":12331,"tsnd":12332,"usually":12333,"xz":12334,"|`.":12335,"}],":12336,"Ġ).":12337,"lease":12338,"Ġamalga":12339,"Ġhse":12340,"Ġhgh":12341,"Ġhsmul":12342,"Ġhmk":12343,"Ġhsup":12344,"Ġhnonneg":12345,"Ġhrec":12346,"Ġhsur":12347,"Ġsco":12348,"Ġsne":12349,"Ġsite":12350,"Ġstop":12351,"Ġtunnel":12352,"ensed":12353,"reset":12354,"Ġcz":12355,"Ġ{{":12356,"Ġbb":12357,"ĠxU":12358,"Ġrq":12359,"Ġnan":12360,"ĠâĨ¾":12361,"Ġpy":12362,"Ġpunctured":12363,"aneous":12364,"arb":12365,"ulled":12366,"ĠiD":12367,"Ġincomp":12368,"tionary":12369,"asic":12370,"Ġlm":12371,"âŁ©)).":12372,"Ġgmon":12373,"Ġgfp":12374,"Ġ--/":12375,"Ġ-âĨĳ":12376,"ĠRo":12377,"Ġdp":12378,"ĠâŁ¨âĮĬ":12379,"ictionary":12380,"Ġrefin":12381,"Ġrecover":12382,"Ġrelying":12383,"ots":12384,"inth":12385,"idence":12386,"Î»r":12387,"ĠMf":12388,"ĠMs":12389,"ĠMet":12390,"Ġconsecutive":12391,"ĠÎ»h":12392,"Ġ*-":12393,"Ġvu":12394,"Ġvary":12395,"exs":12396,"ĠCantor":12397,"ĠCoprod":12398,"nearest":12399,"Ġfinally":12400,"equitable":12401,"Ġky":12402,"Ġundefined":12403,"ĠEvaluation":12404,"mos":12405,"ĠhxB":12406,"ĠhxJ":12407,"Ġhxg":12408,"ĠmapâĤĹ":12409,"smulg":12410,"ĠHz":12411,"premeasure":12412,"..(":12413,"applyc":12414,"adict":12415,"Ġzt":12416,"Ġzag":12417,"ĠKuel":12418,"âĤĢâĤģ":12419,"atever":12420,"umer":12421,"Ġ((+":12422,"older":12423,"olRing":12424,"Ġ_)`":12425,"isos":12426,"Ġprecompose":12427,"straction":12428,"Ġhss":12429,"Ġhyi":12430,"Ġhyj":12431,"mality":12432,"ensen":12433,"ĠhpI":12434,"Ġhpk":12435,"ĠUrysohn":12436,"Ġhix":12437,"Ġ\":\"":12438,"andles":12439,"Ġ(âĪŀ":12440,"Ġencounter":12441,"being":12442,"Ġhtml":12443,"Ġmotiv":12444,"minus":12445,"Ġinteract":12446,"Ġinterface":12447,"hxa":12448,"Ġcontents":12449,"jects":12450,"ĠâĭĪ":12451,"Ġdescends":12452,"waps":12453,"recF":12454,"Ġ`(_":12455,"ĠQx":12456,"undant":12457,"Ġoverlap":12458,"ĠInsert":12459,"ĠInversion":12460,"ĠIndeed":12461,"Ġ2000":12462,"Ġnegates":12463,"âŁ©âŁ©;":12464,"antivary":12465,"tomorph":12466,"Ġtriangular":12467,"Ġ\\\"":12468,")})":12469,"hnp":12470,"ĠâĪŀ)`":12471,"Ġhdb":12472,"forms":12473,"idempotents":12474,"Ġpurely":12475,"Ġhjp":12476,"condensed":12477,"osable":12478,"Ġspecifies":12479,"Ġ(âĬĤ":12480,"ĠâĩĶ":12481,"Ġfrac":12482,"Ġsymmetrize":12483,"hms":12484,"Ġrestricting":12485,"Ġidentify":12486,"Ġiterations":12487,"ĠhST":12488,"Ġrepresentably":12489,"cols":12490,"Ġclears":12491,"synonym":12492,"ĠhKU":12493,"superpolynomial":12494,"Ġbasepoints":12495,"ĠhFc":12496,"Ġsolves":12497,"Ġpresheafed":12498,"âŁ¨âŁ¨âŁ¨":12499,"âŁ¨âŁ¨âŁ¨_,":12500,"Ġpushing":12501,"Ġvanish":12502,"squared":12503,"ĠĠĠĠĠĠĠĠĠĠĠĠĠĠĠĠĠĠĠĠĠĠĠĠĠĠĠĠĠĠĠĠĠĠĠĠĠĠĠĠĠ":12504,"ikipedia":12505,"ĠhÎ´pos":12506,"):=":12507,"Ġdenoms":12508,"Ġredundant":12509,"_{\\":12510,"Ġbacktrack":12511,"Also":12512,"leads":12513,"Ġtransferred":12514,"Ġ`â¨į":12515,"Ġsimplifying":12516,"Ġimplements":12517,"Ġputs":12518,"Ġdecompositions":12519,"hXY":12520,"ynam":12521,"Ġmsgs":12522,"Ġdisjunction":12523,"Ġtreated":12524,"Ġtransvections":12525,"Ġmathematicians":12526,"Ġsimultaneous":12527,"Ġimmersions":12528,"Ġestablishes":12529,"Ġteichmuller":12530,"_*_":12531,"Ġsituations":12532,"Ġdiamonds":12533,"ernary":12534,"Ġbuilds":12535,"BoundedLattice":12536,"hypothesis":12537,"Preorder":12538,"Ġplayer":12539,"explain":12540,"ĠEquivalently":12541,"ĠFubini":12542,"Ġorthocentric":12543,",...,":12544,"buckets":12545,"controlled":12546,"ĠJustus":12547,"Ġ`~`":12548,"Ġimprove":12549,"Semilattice":12550,"ĠKuelshammer":12551,")\\,":12552,"/~":12553,"200":12554,"45":12555,"99":12556,"Apply":12557,"Currently":12558,"ES":12559,"Even":12560,"Hg":12561,"HÏĥ":12562,"Lie":12563,"MáµĲáµĴáµĸ":12564,"Pá¶ľ":12565,"Sum":12566,"Uáµ¢":12567,"Xáµ¢":12568,"brange":12569,"cubic":12570,"dg":12571,"fdo":12572,"gmon":12573,"htop":12574,"hla":12575,"hÏķ":12576,"mX":12577,"mY":12578,"mth":12579,"mgf":12580,"moment":12581,"qp":12582,"rf":12583,"rcomap":12584,"slow":12585,"tc":12586,"ua":12587,"uition":12588,"vic":12589,"yz":12590,"zorn":12591,"{}":12592,"âĶĤ":12593,"ĩĳ(":12594,"input":12595,"inequalities":12596,"Ġ($":12597,"Ġay":12598,"Ġhma":12599,"Ġhtr":12600,"ĠsS":12601,"erti":12602,"erased":12603,"Ġtu":12604,"Ġtde":12605,"issu":12606,"Ġfli":12607,"Ġfermat":12608,"encing":12609,"Ġcapt":12610,"Ġcpkg":12611,"sesq":12612,"Ġ{..":12613,"ĠbN":12614,"Ġbug":12615,"Ġ`=":12616,"Ġ`âŁ¦":12617,"metr":12618,"ropping":12619,"Ġph":12620,"Ġpage":12621,"Ġefixed":12622,"Ġisolated":12623,"Ġlmm":12624,"Ġlives":12625,"âŁ©`,":12626,"Ġgrow":12627,"Ġ-((":12628,"Ġmc":12629,"Ġmjoin":12630,"ĠRun":12631,"ĠRpos":12632,"ĠRoth":12633,"Ġdynam":12634,"setâĤĽâĤĹ":12635,"ĠâŁ¨âĢ¹":12636,"Ġrep":12637,"Ġrecor":12638,"editary":12639,"onel":12640,"actually":12641,"Ġyb":12642,"eterm":12643,"subrel":12644,"composed":12645,"Ġsupply":12646,"Ġane":12647,"Ġtool":12648,"ĠMatri":12649,"Ġcoes":12650,"Ġcollapse":12651,"lig":12652,"liers":12653,"));":12654,"ĠÎ»y":12655,"ĠAnother":12656,"props":12657,"Ġhaf":12658,"ĠIÎ²":12659,"Ġvcomp":12660,"asevic":12661,"ĠCore":12662,"ĠChen":12663,"ĠCá´¹áµĴáµĸ":12664,"ĠFG":12665,"ĠFâĤĻ":12666,"ĠFrame":12667,"nested":12668,"Ġsubexpressions":12669,"varies":12670,"ĠProb":12671,"ĠPaul":12672,"fimum":12673,"Ġunfailing":12674,"Ġleave":12675,"ĠEâģ¿":12676,"ĠhxI":12677,"ĠhxK":12678,"Ġproductive":12679,"Ġprotect":12680,"ĠHinh":12681,"Î±Î²":12682,"Î±áµĴáµĪ":12683,"Ġfig":12684,"Ġzw":12685,"Ġzy":12686,"ĠKur":12687,"urch":12688,"ĠÎ¼c":12689,"possible":12690,"logies":12691,"Ġhfd":12692,"ĠNext":12693,"Ġ((_":12694,"ĠBit":12695,"ĠBoth":12696,"ĠBinary":12697,"Ġ^[":12698,"Ġintroducing":12699,"ĠlistÎł":12700,"Ġhyd":12701,"ĠDFA":12702,"ĠâĪĥ(":12703,"âĤĥâĤĥ":12704,"Ġtyped":12705,"agraph":12706,"')],":12707,"Ġ\")":12708,"Ġ\"**":12709,"Ġ------------------":12710,")]`.":12711,"Ġ(âĪª":12712,"Ġmonochromatic":12713,"Ġhtv":12714,"Ġhnb":12715,"Ġinvok":12716,"Ġclopens":12717,"Ġsemantics":12718,"Ġartinian":12719,"Theorem":12720,"balls":12721,"Ġdescending":12722,"Ġpriori":12723,"phragmen":12724,"cyc":12725,"Ġrealized":12726,"Ġdivmod":12727,"ĠâŁ¨âŁ¨âŁ¨_,":12728,"Ġclosures":12729,"ides":12730,"Ġchanged":12731,"ĠWeak":12732,"adjust":12733,"Ġhef":12734,"Ġprj":12735,"ayama":12736,"innerSL":12737,"âĤĲz":12738,"pressing":12739,"ĠOper":12740,"tailing":12741,"Ġirreflexive":12742,"Ġmex":12743,"Ġinserting":12744,"Ġ1000":12745,"Ġidentically":12746,"Ġidentifying":12747,"âĪ¥âĤĬ}.":12748,"override":12749,"ached":12750,"Ġ(_::":12751,"ĠCompose":12752,"ifications":12753,"CommSemiRing":12754,"Formalizing":12755,"colon":12756,"Ġdistributivity":12757,"pfs":12758,"defaults":12759,"Ġ[*],":12760,"Ġnumerators":12761,"Ġsamp":12762,"âŁ¨âŁ¨{":12763,"ĠExtra":12764,"ĠExplicit":12765,"Ġheqv":12766,"liptic":12767,"ĠCommRingáµĴáµĸ":12768,"Ġcomponentwise":12769,"shelf":12770,"numerator":12771,"Ġshortcut":12772,"Ġshapes":12773,"Ġhandled":12774,"ĠPrecomposing":12775,"Ġcontrols":12776,"Ġsegments":12777,"Ġreplacement":12778,"ĠTranslation":12779,"bolic":12780,"Ġaccu":12781,"Ġapproximating":12782,"Ġmatter":12783,"ĠhHK":12784,"Ġ`+`,":12785,"Ġ`+âĪŀ`":12786,"Ġ`âī¤`.":12787,"Ġsyntactic":12788,"succeeds":12789,"Ġflatten":12790,"Deprecated":12791,"ibonacci":12792,"coatomistic":12793,"ĠÂ©":12794,"environment":12795,"Ġlrl":12796,"Ġlrr":12797,"áĺģX":12798,"ĠBorceux":12799,"ĠBeing":12800,"Ġ`,`":12801,"}{\\":12802,"remaining":12803,"Ġcareful":12804,"Ġhyperplane":12805,"Ġcalculate":12806,"_*.":12807,"Ġ[[]]":12808,"Ġdecomposed":12809,"Ġscanr":12810,"Ġlexicographical":12811,"including":12812,"Ġdyadic":12813,"Ġpromote":12814,"ĠPartialFun":12815,"Ġ(âĬĶ),":12816,"smaller":12817,"Ġcomparing":12818,"Ġstores":12819,"Ġexecution":12820,"Examples":12821,"rewrites":12822,"Ġ(_|_|_),":12823,"ĠiVU":12824,"Ġdecreased":12825,"different":12826,"ĠAffineScheme":12827,"expressed":12828,"Ġalternation":12829,"Ġinvocation":12830,"ĠCommutative":12831,"behaved":12832,"ĠDependent":12833,"Ġtheories":12834,"Ġquivers":12835,"Ġamalgamation":12836,"Ġencountered":12837,"ertia":12838,"metrify":12839,"!âģ»":12840,")âŁ«":12841,")âģĨ":12842,"*]":12843,"*](":12844,":\",":12845,"AT":12846,"Build":12847,"Mil":12848,"Unfortunately":12849,"[âĨĲ":12850,"\\|":12851,"]];":12852,"aa":12853,"aff":12854,"around":12855,"cz":12856,"dn":12857,"ei":12858,"hcomm":12859,"hpi":12860,"hind":12861,"ihs":12862,"iqueness":12863,"lattices":12864,"nin":12865,"rcons":12866,"twice":12867,"vcomp":12868,"xr":12869,"}^":12870,"Ġlying":12871,"Ġomit":12872,"Ġultraproduct":12873,"induce":12874,"Ġ(![":12875,"onto":12876,"Ġah":12877,"Ġap":12878,"Ġactive":12879,"Ġhunit":12880,"Ġhprim":12881,"ĠhâĤĻ":12882,"Ġsw":12883,"Ġsmt":12884,"ĠsYZ":12885,"erre":12886,"Ġtfst":12887,"Ġtsnd":12888,"mar":12889,"mathe":12890,"mach":12891,"mability":12892,"ism":12893,"Ġfu":12894,"Ġfra":12895,"Ġfounded":12896,"Ġfmt":12897,"Ġfreiman":12898,"Ġfuel":12899,"almos":12900,"reserve":12901,"tilt":12902,"tieltjes":12903,"Ġcne":12904,"sels":12905,"Ġbinfi":12906,"Ġbidx":12907,"sual":12908,"Ġrg":12909,"Ġrll":12910,"Ġroughly":12911,"Ġnerve":12912,"ĠpX":12913,"Ġeof":12914,"Ġesymm":12915,"another":12916,"unopposite":12917,"acy":12918,"ĠâĪ¯":12919,"Ġihf":12920,"Ġihg":12921,"Ġiota":12922,"Ġincorrect":12923,"ingu":12924,"riage":12925,"absurd":12926,"Ġlmap":12927,"Ġlsmul":12928,"Ġland":12929,"Ġgint":12930,"Ġgcont":12931,"Ġmim":12932,"Ġmcond":12933,"ĠRan":12934,"ĠRiemann":12935,"Ġdatatype":12936,"Ġreps":12937,"oting":12938,"eter":12939,"Î»j":12940,"Î»pd":12941,"submultiplicative":12942,"ĠMcongr":12943,"ĠMathe":12944,"Ġconsequences":12945,"Ġcoinsertion":12946,"ĠÎ»b":12947,"proposition":12948,"ðĿĳ":12949,"Ġdebug":12950,"ĠSá¶ľ":12951,"ĠFold":12952,"Ġ11":12953,"Ġ17":12954,"tiness":12955,"Ġsubrel":12956,"Ġsubexpr":12957,"Ġsubgraphs":12958,"esign":12959,"Ġfinitary":12960,"ĠGin":12961,"ĠPell":12962,"ĠPhragmen":12963,"five":12964,"Ġjx":12965,"Ġkn":12966,"Ġlebesgue":12967,"Ġok":12968,"Ġassertion":12969,"Ġasympto":12970,"Ġhxx":12971,"nats":12972,"ĠHI":12973,"prequotient":12974,"precomplete":12975,"invo":12976,"chan":12977,"Ġalone":12978,"topsp":12979,"ĠKrull":12980,"ifting":12981,"urated":12982,"Ġhfga":12983,"planes":12984,"ĠBi":12985,"ĠBry":12986,"Ġqr":12987,"ĠâĢ¦":12988,"âĪ¥*âĪ¥":12989,"Ġprelocal":12990,"primed":12991,"hai":12992,"notations":12993,"ĠDeterm":12994,"universal":12995,"Ġhbv":12996,"Ġhpd":12997,"ĠUá¶ľ":12998,"Ġ\"?":12999,"Ġ\"\\":13000,"andbook":13001,"Ġending":13002,"ĠWrepr":13003,"belian":13004,"consider":13005,"Ġhtd":13006,"Ġparagraph":13007,"Ġ...]`":13008,"ÏĢâĤĺ":13009,"rels":13010,"ĠZorn":13011,"hxt":13012,"ook":13013,"angulated":13014,"hga":13015,"Ġnormalizing":13016,"Rearrangement":13017,"alient":13018,"bicompl":13019,"uniformizer":13020,"exponentiable":13021,"ĠInfimum":13022,"Ġappends":13023,"indexing":13024,"Ġevals":13025,"Ġtransp":13026,"front":13027,"Ġ[]).":13028,"Ġ[]))":13029,"Ġtrick":13030,")}.":13031,"Ġexponentially":13032,"Ġhki":13033,"malizes":13034,"Ġmultiplications":13035,"Ġhln":13036,"Ġhlx":13037,"âŁ©)âŁ©,":13038,"ĠðĿĴ«":13039,"Ġhqp":13040,"Ġemit":13041,"Ġvariation":13042,"Ġdischarger":13043,"Ġimplied":13044,"âĢĸ":13045,"ĠRepeated":13046,"ĠForget":13047,"ference":13048,"Ġ`[(":13049,"Ġmeet":13050,"Ġmeets":13051,"Ġmechan":13052,"Ġ2016":13053,"ĠConj":13054,"ĠCongr":13055,"Ġhwx":13056,"Ġcoframe":13057,"Ġiterates":13058,"Ġiterating":13059,"exactly":13060,"Ġ(âŁ¨(":13061,"atements":13062,"Ġchains":13063,"Ġbasics":13064,"Ġdependently":13065,"declared":13066,"Ġsignificant":13067,"(((":13068,"Ġdistributed":13069,"componentwise":13070,"Ġ`âĪĤ":13071,"ĠhCF":13072,"ĠinlâĤĹ":13073,"Ġwrites":13074,"defining":13075,"ĠâĪ¥(âĨĳ":13076,"decision":13077,"Ġsave":13078,"ĠppA":13079,"ĠppB":13080,"ĠExpressing":13081,"ĠProof":13082,"Ġgeometri":13083,"Ġadmitting":13084,"ĠMean":13085,"alternative":13086,"Ġultrafilters":13087,"Ġtautological":13088,"Ġ-(-":13089,"Ġshortest":13090,"ðĿķĨ":13091,"âŁ¦-":13092,"Ġhandles":13093,"Ġcsb":13094,"2015":13095,"Composition":13096,"^âĪŀ(":13097,"Ġcached":13098,"Ġrewritten":13099,"Ġreasoning":13100,"Ġensured":13101,"Ġsuccessfully":13102,"ĠStar":13103,"Ġmultiplies":13104,"assumptions":13105,"derivationâĤĹ":13106,"returns":13107,"ĠSubtracting":13108,"Ġquaternions":13109,"ðĿĶĸ":13110,"ĠSecond":13111,"decorations":13112,"Ġlrx":13113,"hÏĥÏĦ":13114,"linters":13115,"Ġlabels":13116,"ĠLiminf":13117,"edious":13118,"Ġmathematically":13119,"Ġtrimmed":13120,"quasiconvex":13121,"Ġhyperreal":13122,"Ġ`*`,":13123,"Ġremainders":13124,"renaming":13125,"intersperse":13126,"spans":13127,"Ġaccepts":13128,"combined":13129,"ĠDistance":13130,"Ġentourages":13131,"ĠFunctors":13132,"ĠRecursion":13133,"Ġcontradict":13134,"ĠFixed":13135,"ĠðĿĴŁáµĴ":13136,"ĠStephen":13137,"ĠDivision":13138,"ĠEuler":13139,"Ġ`âīĥ":13140,"Ġdecide":13141,"Lemmas":13142,"Ġhermitian":13143,"typical":13144,"ĠQuotients":13145,"pigeonhole":13146,"Ġachieve":13147,"ignore":13148,"Ġeffectively":13149,"ĠRaumer":13150,"ĠRemove":13151,"clause":13152,"respectively":13153,"Ġplugin":13154,"occs":13155,"onelli":13156,"ĠKuratowski":13157,"ĠBryan":13158,"'.{":13159,"'::":13160,")+":13161,")âĮĭ":13162,")$.":13163,"Hp":13164,"Hadd":13165,"JáµĴáµĸ":13166,"Jensen":13167,"Lo":13168,"OT":13169,"Wp":13170,"]]`":13171,"`âĪĳ":13172,"bN":13173,"city":13174,"fR":13175,"gies":13176,"hit":13177,"hli":13178,"hbot":13179,"hsurj":13180,"hoff":13181,"henselian":13182,"itiv":13183,"ldiff":13184,"mjoin":13185,"ndist":13186,"nlinarith":13187,"pital":13188,"rÎ²":13189,"sle":13190,"shr":13191,"tX":13192,"text":13193,"texpr":13194,"uses":13195,"wers":13196,"whether":13197,"yx":13198,"|),":13199,"}$.":13200,"âĻ¯":13201,"legal":13202,"Ġhmp":13203,"Ġhone":13204,"Ġhid":13205,"Ġhcomp":13206,"Ġhdiff":13207,"Ġhabs":13208,"Ġhtriv":13209,"ĠhÏĩ":13210,"ĠhðĿĴľ":13211,"Ġsend":13212,"Ġsgm":13213,"ĠsXY":13214,"orial":13215,"Ġtf":13216,"Ġternary":13217,"Ġfp":13218,"Ġfrange":13219,"Ġfxy":13220,"enhaus":13221,"Ġ`âĢ¢":13222,"Ġ`âĪŀ`":13223,"Ġxâģ¿":13224,"Ġrc":13225,"Ġrmap":13226,"Ġrare":13227,"Ġrrs":13228,"coupling":13229,"Ġport":13230,"Ġpasses":13231,"Ġpulled":13232,"unbundled":13233,"unless":13234,"acle":13235,"Ġinduct":13236,"Ġindiscrete":13237,"Ġinvariance":13238,"Ġlor":13239,"Ġlfa":13240,"ppow":13241,"Ġgnpow":13242,"Ġwants":13243,"Ġdm":13244,"Ġdn":13245,"Ġrepe":13246,"ĠTuma":13247,"usakov":13248,"subbasis":13249,"Ġanisotropic":13250,"flag":13251,"ĠMapping":13252,")):":13253,"ĠAË£":13254,"ĠAbelian":13255,"ĠSto":13256,"ĠFox":13257,"Ġux":13258,"rightâĤĹ":13259,"ĠXáµĴáµĪ":13260,"Ġintention":13261,"Ġintuition":13262,"Ġfinv":13263,"vertical":13264,"verbose":13265,"commen":13266,"ĠGo":13267,"ĠGre":13268,"ĠGá¶ľ":13269,"them":13270,"Ġjump":13271,"Ġkill":13272,"Ġunnecessary":13273,"Ġleaves":13274,"Ġoi":13275,"ĠEisenstein":13276,"Ġassigned":13277,"Ġhxc":13278,"negation":13279,"ĠHl":13280,"ĠLS":13281,"ĠLattices":13282,"ilson":13283,"Ġzneg":13284,"click":13285,"ĠYour":13286,"sums":13287,"Ġ((âĪĢ":13288,"Ġ((âĪĥ":13289,"assenhaus":13290,"clopens":13291,"Ġqa":13292,"iry":13293,"divp":13294,"Ġprelist":13295,"Ġprevent":13296,"Ġpreirreducible":13297,"ĠVan":13298,"interp":13299,"Ġhyq":13300,"sirel":13301,"ĠDVR":13302,"Ġwhatever":13303,"Ġhbx":13304,"singletons":13305,"Ġhpt":13306,"Ġhpdf":13307,"ĠUpd":13308,"Ġhiq":13309,"atively":13310,"Ġendpoint":13311,"Ġstatus":13312,"versely":13313,"Ġenorm":13314,"ĠWhy":13315,"ĠWarning":13316,"before":13317,"consistent":13318,"ĠhtV":13319,"Ġhtb":13320,"Ġhtl":13321,"Ġhgs":13322,"Ġhnf":13323,"Ġcloses":13324,"izations":13325,"ĠZang":13326,"''],":13327,"Ġhcx":13328,"Ġhcy":13329,"numbers":13330,"iehl":13331,"Ġlocality":13332,"surreal":13333,"surator":13334,"ĠĠĠĠĠĠĠĠĠĠĠĠĠĠĠĠĠĠĠĠĠĠĠĠĠĠĠĠĠĠ":13335,")`)":13336,"Ġrels":13337,"Ġrelax":13338,"uniforms":13339,"ĠInfinite":13340,"vide":13341,"Ġihl":13342,"Ġhrp":13343,"Ġsemidirect":13344,"Ġbasically":13345,"Ġques":13346,"fault":13347,"Ġmaximi":13348,"htÎ¼":13349,"Ġgeneralise":13350,"specified":13351,"ĠâĪŀ),":13352,"discontinuous":13353,"adjoints":13354,"Ġassociation":13355,"powerlt":13356,"Ġcardinalities":13357,"Weierstrass":13358,"Ġhvt":13359,"002":13360,"osper":13361,"ĠOf":13362,"Ġpowerlt":13363,"Ġ_))âŁ©,":13364,"mated":13365,")âŁ©âŁ©,":13366,"Ġ`[]`":13367,"]`)":13368,"âĬĵ":13369,"ĠConven":13370,"Ġlinexp":13371,"Ġhws":13372,"ĠSupremum":13373,"ĠðĿĶ¹":13374,"ĠDevon":13375,"ĠComputing":13376,"ðĿĴŀ":13377,"faithfully":13378,"Ġinclusions":13379,"ĠAddMon":13380,"Ġvandermonde":13381,"âŁ¯âŁ¨":13382,"ĠâĢ¹_âĢº))":13383,"Ġplain":13384,"Ġrequirement":13385,"hUo":13386,"hÎ¼Î½":13387,"Ġdeterminants":13388,"Ġeliminating":13389,"Ġprojectives":13390,"Conts":13391,"models":13392,"Ġ`-`,":13393,"ĠDefines":13394,"Ġhandling":13395,"ĠUnder":13396,"Ġ([(":13397,"hKL":13398,"postfix":13399,"Ġidempotents":13400,"ĠhXY":13401,"ĠâŁ¨-[":13402,"Ġuncurrying":13403,"Ext":13404,"Ġprinted":13405,"Ġconsistent":13406,"Ġreadable":13407,"ĠâŁ¨_|":13408,"Ġimplicitly":13409,"Ġmonadicity":13410,"prenndist":13411,"Ġcertificate":13412,"ĠSepar":13413,"patts":13414,"Ġrayleigh":13415,"1134":13416,"Ġrlr":13417,"pheres":13418,"formulated":13419,"Ġelaborate":13420,"Ġtransporting":13421,"Ġtransported":13422,"ĠQuiv":13423,"simplified":13424,"Ġintersecting":13425,"Ġcalculation":13426,"Ġabsorbing":13427,"highlight":13428,"Ġ`*`.":13429,"differentiability":13430,"ĠDirect":13431,"_*_*.":13432,"Ġsurreals":13433,"Ġcopied":13434,"ĠSometimes":13435,"ĠBernstein":13436,"Ġ(âĬĵ)":13437,"Ġguarantees":13438,"ĠApplies":13439,"erogeneous":13440,"Ġexpands":13441,"Ġcarrying":13442,"Ġexplained":13443,"branching":13444,"BoundedDistribLattice":13445,"Fqt":13446,"ĠSchur":13447,"Ġabbreviated":13448,"Ġreferenced":13449,"hadamard":13450,"Ġstuck":13451,"difference":13452,"Ġgolden":13453,"Ġdummy":13454,"following":13455,"Ġstructomorphism":13456,"Ġillegal":13457,"Ġheterogeneous":13458,"coercions":13459,"ĠDifferenti":13460,"Ġ[(âĪĺ)]":13461,"tiyasevic":13462,"Ġ`?`:":13463,"Ġdifficulty":13464,"cellaneous":13465,"ĠWrite":13466,"promises":13467,"PartialFun":13468,"Ġscope":13469,"ĠMetric":13470,"Ġcapture":13471,"ĠâŁ¨âĢ¹_âĢº":13472,"ĠMatrices":13473,"inguish":13474,"ĠYourong":13475,"sirelson":13476,"')))":13477,"'`.\"]":13478,"'âŁ¯)":13479,")!)":13480,",_âŁ©,":13481,"32":13482,"Bor":13483,"DáµĴáµĸ":13484,"Grothendieck":13485,"HÃ":13486,"Máµ¢":13487,"Our":13488,"Taking":13489,"]].":13490,"`\".":13491,"band":13492,"dsupport":13493,"eball":13494,"elect":13495,"fc":13496,"fx":13497,"gon":13498,"gar":13499,"hin":13500,"hgh":13501,"hsucc":13502,"hcard":13503,"hmax":13504,"hprime":13505,"háµ¢":13506,"hÎ¦":13507,"ily":13508,"ihn":13509,"ln":13510,"lled":13511,"liftr":13512,"net":13513,"pong":13514,"qx":13515,"scc":13516,"sformat":13517,"table":13518,"tfst":13519,"tuples":13520,"uk":13521,"uous":13522,"wink":13523,"yi":13524,"yt":13525,"ying":13526,"zp":13527,"zneg":13528,"|))":13529,"}(":13530,"}\")":13531,"´pital":13532,"Î©":13533,"ĺ)":13534,"Ġhco":13535,"Ġhes":13536,"Ġhcast":13537,"Ġhlen":13538,"Ġhistory":13539,"Ġswaps":13540,"ores":13541,"ĠtÎ±":13542,"Ġtending":13543,"Ġtedious":13544,"Ġfalls":13545,"alysis":13546,"alphabet":13547,"representation":13548,"Ġcu":13549,"Ġcfilter":13550,"Ġ{âŁ¨":13551,"Ġ{âĪħ":13552,"ĠbM":13553,"Ġbv":13554,"Ġbx":13555,"Ġbá¶ľ":13556,"Ġbfamily":13557,"Ġbmex":13558,"itauto":13559,"often":13560,"Ġ`âĭĤ":13561,"Ġ_},":13562,"Ġxmem":13563,"Ġrd":13564,"coli":13565,"Ġpm":13566,"ĠpâĤĻ":13567,"ĠeL":13568,"Ġemem":13569,"Ġeli":13570,"Ġeapprox":13571,"untyped":13572,"unsafe":13573,"implic":13574,"ĠiU":13575,"Ġ=âī«":13576,"rie":13577,"Ġiselect":13578,"Ġlrs":13579,"Ġ-*":13580,"Ġwarning":13581,"Ġwitnes":13582,"finiteness":13583,"ĠRâĤĽ":13584,"ĠdGamma":13585,"Ġyeq":13586,"ĠTX":13587,"ĠThom":13588,"ĠTake":13589,"ett":13590,"subalgebras":13591,"Ġannotation":13592,"Ġtooltip":13593,"ĠMis":13594,"Ġcost":13595,"lities":13596,"liques":13597,"Ġ00":13598,"ĠAlen":13599,"ĠAuto":13600,"paced":13601,"produces":13602,"ĠIter":13603,"Ġva":13604,"emer":13605,"ements":13606,"extra":13607,"ĠCg":13608,"ĠCl":13609,"ĠCategorical":13610,"`.\"":13611,"ĠSuch":13612,"Ġ1100":13613,"Ġfinsum":13614,"Ġfinding":13615,"ĠâĪĢ'":13616,"ĠGu":13617,"ĠGusakov":13618,"ĠPutz":13619,"Ġjn":13620,"Ġkreplace":13621,"Ġunrev":13622,"Ġunknown":13623,"symmL":13624,"symmâĤĹ":13625,"ĠER":13626,"ĠEven":13627,"mouse":13628,"ĠhxT":13629,"Ġmapq":13630,"Ġprovable":13631,"ĠHJ":13632,"ĠHall":13633,"ĠHos":13634,"equivariant":13635,"ĠLists":13636,"changing":13637,"transparency":13638,"Ġzify":13639,"Ġzoom":13640,"cls":13641,"topher":13642,"ĠKV":13643,"ĠKol":13644,"Ġadditiv":13645,"ĠhfC":13646,"Ġhfq":13647,"Ġhfr":13648,"ĠNx":13649,"Ġ((âĪĳ":13650,"Ġmac":13651,"ĠBound":13652,"Ġ_)}":13653,"divmod":13654,"âĪ¥/":13655,"âĪ¥}":13656,"Ġprepend":13657,"Ġpregroupoid":13658,"Ġpreprocessing":13659,"Ġhsn":13660,"Ġhsr":13661,"ĠJac":13662,"Ġhyn":13663,"ĠDue":13664,"className":13665,"ĠâĪ¥-":13666,"Ġhbj":13667,"Ġhbu":13668,"ribed":13669,"Ġhpdeg":13670,"ĠUp":13671,"nonnegative":13672,"Ġ-->":13673,"Ġ---->":13674,"âĦĭ":13675,"ĠWhat":13676,"lexi":13677,"Ġhtwo":13678,"Ġobtains":13679,"ensel":13680,"Ġhgn":13681,"Ġparsing":13682,"Ġinterpre":13683,"Ġ(âĩĳ(":13684,"Ġnoncommutative":13685,"Ġmkq":13686,"perner":13687,"Ġarborescence":13688,"Ġhmt":13689,"bits":13690,"polynomials":13691,"Ġoverview":13692,"ordset":13693,"signat":13694,"Ġappr":13695,"rying":13696,"vice":13697,"Ġconverting":13698,"ĠâĬĹâī«":13699,"ĠâĬ¤))":13700,"ĠâĬ¤âģĨ":13701,"Ġquasilinear":13702,"termg":13703,"Ġbipartite":13704,"antiperiod":13705,"Ġderivations":13706,"Ġ[].":13707,"soln":13708,"Ġtriangulated":13709,"Ġclassically":13710,"Ġterminate":13711,"factorisations":13712,"Ġpossi":13713,"propagate":13714,"ĠâĪŀ}":13715,"disjoin":13716,"Ġargue":13717,"Ġhls":13718,"ĠIHl":13719,"Ġhqr":13720,"ayley":13721,"roupes":13722,"Ġchooses":13723,"ĠOutput":13724,"Ġâĩī":13725,"Ġtrivially":13726,"Ġ``((":13727,"symmetrify":13728,"Ġirrelevant":13729,"Ġtensoring":13730,"ubtree":13731,"writing":13732,"ĠConditional":13733,"equals":13734,"Ġinfima":13735,"Ġâĩĳ(âŁ¨":13736,"Ġnilradical":13737,"Ġdecision":13738,"Ġdefaults":13739,"elementarily":13740,"Ġ[(_,":13741,"Ġverifies":13742,"Ġ(âĪĥ!":13743,"Ġbigger":13744,"Ġrespecting":13745,"Ġcomplain":13746,"Ġclearing":13747,"Ġ`âĪĲ":13748,"Ġaccount":13749,"Ġaccessed":13750,"ĠMonotone":13751,"Ġformally":13752,"zygies":13753,"Ġsatisfiable":13754,"ĠExp":13755,"Ġrequirements":13756,"mathbb":13757,"minimals":13758,"Ġsemiconjugate":13759,"hUV":13760,"ĠCombin":13761,"checks":13762,"Convert":13763,"Consider":13764,"ĠChristopher":13765,"Ġ990":13766,"Ġerrp":13767,"ĠDefining":13768,"Ġshifting":13769,"zela":13770,"2017":13771,"carneiro":13772,"diamon":13773,"Ġrenamed":13774,"Ġcomputably":13775,"Ġshrinks":13776,"othetic":13777,"Ġreasonable":13778,"useful":13779,"Ġaggres":13780,"hints":13781,"âĮĭâĤĬ)":13782,"Ġ`â¨Ĥ[":13783,"ĠCoer":13784,"ĠBoolRing":13785,"HSH":13786,"Ġ`<`.":13787,"Ġmagmas":13788,"Ġpresentation":13789,"Ġscales":13790,"SheafOfTypes":13791,"representative":13792,"Ġpicking":13793,"Ġinterpretation":13794,"Ġsamples":13795,"Ġrespon":13796,"ĠStructures":13797,"ĠEmb":13798,"Ġrelatively":13799,"Ġidentifier":13800,"Ġinstantiated":13801,"Ġpractical":13802,"Moreover":13803,"Ġmessages":13804,")*(":13805,"Ġguarantee":13806,"ĠPower":13807,"onentiation":13808,"@`(@":13809,"hext":13810,"Ġstructural":13811,"WithZero":13812,"Ġ(âĪĺ)]":13813,"Ġcontrast":13814,"Ġendofunctors":13815,"Ġrefers":13816,"Ġminimize":13817,"Ġ(=)":13818,"Ġstuff":13819,"require":13820,"ĠGeometry":13821,"Hazewink":13822,"ĠHasse":13823,"1966":13824,"combinatorics":13825,"Ġ(âīł)":13826,"ĠPostcomposing":13827,"Ġnonemptiness":13828,"Ġvisit":13829,"!\"({":13830,"Ġconcerns":13831,"Ġtempor":13832,"Commelin":13833,"ketch":13834,"absorbent":13835,"ĠRotating":13836,"ĠCasper":13837,"ĠSatisfying":13838,"Ġ(âŁ¨âŁ©|âŁ¨âŁ¨":13839,"ciprocity":13840,"Ġflipped":13841,"Ġdynamics":13842,"ĠProbability":13843,"ĠBitwise":13844,"ĠDetermin":13845,"ĠCongruence":13846,"113488":13847,"Borel":13848,"HÃ´pital":13849,"ĠThomson":13850,"ĠAlena":13851,"ĠHoskin":13852,"Hazewinkel":13853,"\"))":13854,"'âģĨ":13855,"(\"":13856,"*)`":13857,"+,":13858,"+`,":13859,",}":13860,".-":13861,"39":13862,"AN":13863,"Alexand":13864,"DE":13865,"EE":13866,"FP":13867,"Furthermore":13868,"Heq":13869,"HOL":13870,"MR":13871,"Ming":13872,"MË£":13873,"Now":13874,"So":13875,"Should":13876,"Such":13877,"Spencer":13878,"Tietze":13879,"VM":13880,"WU":13881,"[|":13882,"\\\"":13883,"])]":13884,"`\",":13885,"alem":13886,"aving":13887,"bHenstock":13888,"cst":13889,"ew":13890,"ees":13891,"fmeas":13892,"gence":13893,"gorov":13894,"hsmul":13895,"hinv":13896,"hlast":13897,"hÏĩ":13898,"iapp":13899,"kt":13900,"ken":13901,"kward":13902,"lating":13903,"lucas":13904,"mfld":13905,"ntra":13906,"pbind":13907,"pseud":13908,"tu":13909,"tde":13910,"tÎ±":13911,"tÎ²":13912,"uchange":13913,"wkward":13914,"xeq":13915,"zs":13916,"zin":13917,"¾°":13918,"Ã¯":13919,"á¾°":13920,"Ĩ)":13921,"induct":13922,"instein":13923,"Ġacounit":13924,"Ġhde":13925,"Ġhmap":13926,"Ġhpe":13927,"Ġhack":13928,"Ġhextr":13929,"Ġhident":13930,"Ġslower":13931,"Ġspheres":13932,"Ġtext":13933,"ĠtÎ³":13934,"mabs":13935,"Ġfd":13936,"Ġfans":13937,"Ġfolds":13938,"Ġfurthermore":13939,"ening":13940,"ĠcN":13941,"Ġce":13942,"Ġbz":13943,"Ġ`âĮĬ":13944,"attemp":13945,"Ġrk":13946,"Ġrt":13947,"heses":13948,"Ġnin":13949,"Ġnspace":13950,"Ġphr":13951,"Ġpersistent":13952,"anity":13953,"ster":13954,"stra":13955,"Ġill":13956,"mulating":13957,"egendre":13958,"Ġlga":13959,"Ġlls":13960,"âŁ©\"":13961,"âŁ©)))":13962,"Ġgg":13963,"Ġghas":13964,"Ġgmonoid":13965,"Ġexs":13966,"Ġextraction":13967,"Ġwrt":13968,"Ġwitnesses":13969,"Ġmor":13970,"Ġmfilter":13971,"ĠmÎ²":13972,"Ġdynkin":13973,"ĠâŁ¨âĨĳ(":13974,"ĠâŁ¨âĭĤ":13975,"Ġsimplices":13976,"Ġrws":13977,"Ġrece":13978,"Ġreinterpret":13979,"ĠyS":13980,"istant":13981,"subgoals":13982,"subexprs":13983,"dummy":13984,"enter":13985,"ctional":13986,"ĠAux":13987,"Ġexactness":13988,"Ġdep":13989,"Ġ$(":13990,"ĠCoun":13991,"Ġ+âĪŀ)":13992,"ĠSuc":13993,"ĠShrink":13994,"ĠSimple":13995,"ĠStrick":13996,"ĠFurthermore":13997,"Ġ19":13998,"arization":13999,"ĠXu":14000,"tries":14001,"Ġsubtract":14002,"Ġsubtree":14003,"Ġsubterms":14004,"Ġfinest":14005,"âĪ®":14006,"equation":14007,"ĠGra":14008,"ĠPer":14009,"ĠPos":14010,"Ġkx":14011,"Ġunsat":14012,"Ġuncurried":14013,"Ġunprimed":14014,"Ġol":14015,"ĠHN":14016,"ĠHk":14017,"ĠHenselian":14018,"Ġforce":14019,"ĠLinter":14020,"ĠLocally":14021,"Ġfive":14022,"applying":14023,"transnum":14024,"illiary":14025,"ĠYáĺģ":14026,"urces":14027,"hfd":14028,"umber":14029,"âŁ¨\"":14030,"theorems":14031,"Ġcoev":14032,"norms":14033,"Ġpref":14034,"Ġpresc":14035,"Ġ|âĪ¥":14036,"Ġhsg":14037,"Ġhsl":14038,"Ġhsat":14039,"Ġusers":14040,"namely":14041,"ĠDom":14042,"hsx":14043,"Ġhbp":14044,"Ġlock":14045,"Î¹âĤľ":14046,"Ġhpb":14047,"Ġhide":14048,"Ġfiltering":14049,"Ġdistinguish":14050,"Ġhnl":14051,"Ġ...)":14052,"Ġ...`.":14053,"Ġcomment":14054,"relator":14055,"Ġseed":14056,"hxi":14057,"Ġdiffeomorph":14058,"modulo":14059,"compactly":14060,"Ġhmc":14061,"Ġchinese":14062,"ware":14063,"ckmann":14064,"ĠIndex":14065,"ĠInductive":14066,"ĠInput":14067,"Ġconverts":14068,"ĠÏĢX":14069,"ĠÏĢY":14070,"Ġsemifield":14071,"ĠâĬ¤`.":14072,"']âŁ©":14073,"Ġtranscendental":14074,"Ġ(-âĪ¥":14075,"Ġtriples":14076,"Ġhua":14077,"Ġhuman":14078,"Ġtermination":14079,"htu":14080,"ĠâĬ¥`.":14081,"Ġ>=>":14082,"Ġhkx":14083,"hcb":14084,"Ġhdn":14085,"Ġsole":14086,"Ġ(@_":14087,"ĠðĿĴª":14088,"options":14089,"Ġhomogen":14090,"Ġdisable":14091,"Ġdiscontinuous":14092,"Ġdiscrim":14093,"equivalences":14094,"Ġfront":14095,"Ġimpossible":14096,"ifying":14097,"checker":14098,"iterator":14099,"ĠReflection":14100,"domineering":14101,"âĬĶ":14102,"hdg":14103,"presented":14104,"âģĨâģĨ":14105,"Ġconjunction":14106,"Ġconjunctions":14107,"âŁ§))":14108,"Ġupgraded":14109,"initials":14110,"hlb":14111,"Ġcenters":14112,"âĢº)":14113,"Ġverbose":14114,"uess":14115,"ĠCompare":14116,"'âŁ©).":14117,"Ġ(<$>)":14118,"ivergence":14119,"collect":14120,"collected":14121,"Ġdistribute":14122,"TopCommRing":14123,"ĠMonadic":14124,"Ġtotalize":14125,")âĪ¥,":14126,"Ġ500":14127,"ĠhAU":14128,"Ġindent":14129,"Ġsolving":14130,"laws":14131,"roughout":14132,"âŁ¯`":14133,"csr":14134,"ĠâĢ¹_âĢº).":14135,"eigenvalues":14136,"Ġthroughout":14137,"gible":14138,"Ġeliminates":14139,"testing":14140,"Ġweaken":14141,"checked":14142,"neword":14143,"Constru":14144,"Ġencodes":14145,"Ġprepartitions":14146,"Ġnamespaces":14147,"mately":14148,"Ġshifts":14149,"ĠUnbundled":14150,
[...]
